{
  "version": "1.0",
  "truncation": null,
  "padding": null,
  "added_tokens": [
    {
      "id": 0,
      "content": "<pad>",
      "single_word": false,
      "lstrip": false,
      "rstrip": false,
      "normalized": false,
      "special": true
    },
    {
      "id": 1,
      "content": "<unk>",
      "single_word": false,
      "lstrip": false,
      "rstrip": false,
      "normalized": false,
      "special": true
    },
    {
      "id": 2,
      "content": "<s>",
      "single_word": false,
      "lstrip": false,
      "rstrip": false,
      "normalized": false,
      "special": true
    },
    {
      "id": 3,
      "content": "</s>",
      "single_word": false,
      "lstrip": false,
      "rstrip": false,
      "normalized": false,
      "special": true
    },
    {
      "id": 4,
      "content": "<mask>",
      "single_word": false,
      "lstrip": false,
      "rstrip": false,
      "normalized": false,
      "special": true
    },
    {
      "id": 5,
      "content": "<ar>",
      "single_word": false,
      "lstrip": false,
      "rstrip": false,
      "normalized": false,
      "special": true
    },
    {
      "id": 6,
      "content": "<en>",
      "single_word": false,
      "lstrip": false,
      "rstrip": false,
      "normalized": false,
      "special": true
    },
    {
      "id": 7,
      "content": "<code>",
      "single_word": false,
      "lstrip": false,
      "rstrip": false,
      "normalized": false,
      "special": true
    },
    {
      "id": 8,
      "content": "<math>",
      "single_word": false,
      "lstrip": false,
      "rstrip": false,
      "normalized": false,
      "special": true
    },
    {
      "id": 9,
      "content": "<user>",
      "single_word": false,
      "lstrip": false,
      "rstrip": false,
      "normalized": false,
      "special": true
    },
    {
      "id": 10,
      "content": "<assistant>",
      "single_word": false,
      "lstrip": false,
      "rstrip": false,
      "normalized": false,
      "special": true
    },
    {
      "id": 11,
      "content": "<system>",
      "single_word": false,
      "lstrip": false,
      "rstrip": false,
      "normalized": false,
      "special": true
    }
  ],
  "normalizer": null,
  "pre_tokenizer": {
    "type": "ByteLevel",
    "add_prefix_space": false,
    "trim_offsets": true,
    "use_regex": true
  },
  "post_processor": null,
  "decoder": {
    "type": "ByteLevel",
    "add_prefix_space": true,
    "trim_offsets": true,
    "use_regex": true
  },
  "model": {
    "type": "BPE",
    "dropout": null,
    "unk_token": "<unk>",
    "continuing_subword_prefix": null,
    "end_of_word_suffix": null,
    "fuse_unk": false,
    "byte_fallback": false,
    "ignore_merges": false,
    "vocab": {
      "<pad>": 0,
      "<unk>": 1,
      "<s>": 2,
      "</s>": 3,
      "<mask>": 4,
      "<ar>": 5,
      "<en>": 6,
      "<code>": 7,
      "<math>": 8,
      "<user>": 9,
      "<assistant>": 10,
      "<system>": 11,
      "!": 12,
      "\"": 13,
      "#": 14,
      "$": 15,
      "%": 16,
      "&": 17,
      "'": 18,
      "(": 19,
      ")": 20,
      "*": 21,
      "+": 22,
      ",": 23,
      "-": 24,
      ".": 25,
      "/": 26,
      "0": 27,
      "1": 28,
      "2": 29,
      "3": 30,
      "4": 31,
      "5": 32,
      "6": 33,
      "7": 34,
      "8": 35,
      "9": 36,
      ":": 37,
      ";": 38,
      "<": 39,
      "=": 40,
      ">": 41,
      "?": 42,
      "@": 43,
      "A": 44,
      "B": 45,
      "C": 46,
      "D": 47,
      "E": 48,
      "F": 49,
      "G": 50,
      "H": 51,
      "I": 52,
      "J": 53,
      "K": 54,
      "L": 55,
      "M": 56,
      "N": 57,
      "O": 58,
      "P": 59,
      "Q": 60,
      "R": 61,
      "S": 62,
      "T": 63,
      "U": 64,
      "V": 65,
      "W": 66,
      "X": 67,
      "Y": 68,
      "Z": 69,
      "[": 70,
      "\\": 71,
      "]": 72,
      "^": 73,
      "_": 74,
      "`": 75,
      "a": 76,
      "b": 77,
      "c": 78,
      "d": 79,
      "e": 80,
      "f": 81,
      "g": 82,
      "h": 83,
      "i": 84,
      "j": 85,
      "k": 86,
      "l": 87,
      "m": 88,
      "n": 89,
      "o": 90,
      "p": 91,
      "q": 92,
      "r": 93,
      "s": 94,
      "t": 95,
      "u": 96,
      "v": 97,
      "w": 98,
      "x": 99,
      "y": 100,
      "z": 101,
      "{": 102,
      "|": 103,
      "}": 104,
      "~": 105,
      "¡": 106,
      "¢": 107,
      "£": 108,
      "¤": 109,
      "¥": 110,
      "¦": 111,
      "§": 112,
      "¨": 113,
      "©": 114,
      "ª": 115,
      "«": 116,
      "¬": 117,
      "®": 118,
      "¯": 119,
      "°": 120,
      "±": 121,
      "²": 122,
      "³": 123,
      "´": 124,
      "µ": 125,
      "¶": 126,
      "·": 127,
      "¸": 128,
      "¹": 129,
      "º": 130,
      "»": 131,
      "¼": 132,
      "½": 133,
      "¾": 134,
      "¿": 135,
      "À": 136,
      "Á": 137,
      "Â": 138,
      "Ã": 139,
      "Ä": 140,
      "Å": 141,
      "Æ": 142,
      "Ç": 143,
      "È": 144,
      "É": 145,
      "Ê": 146,
      "Ë": 147,
      "Ì": 148,
      "Í": 149,
      "Î": 150,
      "Ï": 151,
      "Ð": 152,
      "Ñ": 153,
      "Ò": 154,
      "Ó": 155,
      "Ô": 156,
      "Õ": 157,
      "Ö": 158,
      "×": 159,
      "Ø": 160,
      "Ù": 161,
      "Ú": 162,
      "Û": 163,
      "Ü": 164,
      "Ý": 165,
      "Þ": 166,
      "ß": 167,
      "à": 168,
      "á": 169,
      "â": 170,
      "ã": 171,
      "ä": 172,
      "å": 173,
      "æ": 174,
      "ç": 175,
      "è": 176,
      "é": 177,
      "ê": 178,
      "ë": 179,
      "ì": 180,
      "í": 181,
      "î": 182,
      "ï": 183,
      "ð": 184,
      "ñ": 185,
      "ò": 186,
      "ó": 187,
      "ô": 188,
      "õ": 189,
      "ö": 190,
      "÷": 191,
      "ø": 192,
      "ù": 193,
      "ú": 194,
      "û": 195,
      "ü": 196,
      "ý": 197,
      "þ": 198,
      "ÿ": 199,
      "Ā": 200,
      "ā": 201,
      "Ă": 202,
      "ă": 203,
      "Ą": 204,
      "ą": 205,
      "Ć": 206,
      "ć": 207,
      "Ĉ": 208,
      "ĉ": 209,
      "Ċ": 210,
      "ċ": 211,
      "Č": 212,
      "č": 213,
      "Ď": 214,
      "ď": 215,
      "Đ": 216,
      "đ": 217,
      "Ē": 218,
      "ē": 219,
      "Ĕ": 220,
      "ĕ": 221,
      "Ė": 222,
      "ė": 223,
      "Ę": 224,
      "ę": 225,
      "Ě": 226,
      "ě": 227,
      "Ĝ": 228,
      "ĝ": 229,
      "Ğ": 230,
      "ğ": 231,
      "Ġ": 232,
      "ġ": 233,
      "Ģ": 234,
      "ģ": 235,
      "Ĥ": 236,
      "ĥ": 237,
      "Ħ": 238,
      "ħ": 239,
      "Ĩ": 240,
      "ĩ": 241,
      "Ī": 242,
      "ī": 243,
      "Ĭ": 244,
      "ĭ": 245,
      "Į": 246,
      "į": 247,
      "İ": 248,
      "ı": 249,
      "Ĳ": 250,
      "ĳ": 251,
      "Ĵ": 252,
      "ĵ": 253,
      "Ķ": 254,
      "ķ": 255,
      "ĸ": 256,
      "Ĺ": 257,
      "ĺ": 258,
      "Ļ": 259,
      "ļ": 260,
      "Ľ": 261,
      "ľ": 262,
      "Ŀ": 263,
      "ŀ": 264,
      "Ł": 265,
      "ł": 266,
      "Ń": 267,
      "Ø§": 268,
      "ÙĦ": 269,
      "ĠÙ": 270,
      "ĠØ": 271,
      "ÙĬ": 272,
      "Ø§ÙĦ": 273,
      "ĠØ§ÙĦ": 274,
      "ÙĨ": 275,
      "Ùħ": 276,
      "Ø§Ø": 277,
      "Ø±": 278,
      "ÙĪ": 279,
      "Ø©": 280,
      "Øª": 281,
      "Ø¯": 282,
      "Ùĩ": 283,
      "ĠØ§ÙĦØ": 284,
      "ĠÙĪ": 285,
      "ĠÙħ": 286,
      "Ø¨": 287,
      "Ø¹": 288,
      "ÙĤ": 289,
      "Ùĥ": 290,
      "Ùģ": 291,
      "Ø³": 292,
      "Ùī": 293,
      "ĠØ¨": 294,
      "ĠÙģ": 295,
      "ØŃ": 296,
      "ĠÙĦ": 297,
      "ĠØ¹": 298,
      "ĠØ£": 299,
      "Ø¬": 300,
      "ĠØª": 301,
      "Ø§ÙĨ": 302,
      "ĠØ§ÙĦÙħ": 303,
      "Ø§Øª": 304,
      "ÙĬØ©": 305,
      "Øµ": 306,
      "ĠÙĬ": 307,
      "ĠÙħÙĨ": 308,
      "Ø§Ø±": 309,
      "ØĮ": 310,
      "Ø·": 311,
      "Ø´": 312,
      "ĠÙģÙĬ": 313,
      "ÙĬÙĨ": 314,
      "Ø§Ùħ": 315,
      "ÙĦÙī": 316,
      "Ø¶": 317,
      "Ø®": 318,
      "ÙĩØ§": 319,
      "ĠÙĥ": 320,
      "Ø²": 321,
      "Ø£": 322,
      "ÙĬØ±": 323,
      "ĠØ¥": 324,
      "ĠØŃ": 325,
      "Ø°": 326,
      "ÙĪÙĦ": 327,
      "ĠØ§ÙĦØª": 328,
      "ĠÙĪØ§ÙĦ": 329,
      "Ø«": 330,
      "Ø§Ø¨": 331,
      "Ø§Ø³": 332,
      "Ø§Ø¯": 333,
      "ĠÙĩ": 334,
      "ÙĦÙĬ": 335,
      "ĠØ³": 336,
      "ÙĪÙĨ": 337,
      "Ø±ÙĬ": 338,
      "ĠØ§ÙĦØ£": 339,
      "ĠÙĤ": 340,
      "ĠÙĨ": 341,
      "ĠØ§ÙĦØ¹": 342,
      "ĠØ¹ÙĦÙī": 343,
      "Ø§Ø¡": 344,
      "Ø§Ø¹": 345,
      "ÙĪØ±": 346,
      "ĠØ¬": 347,
      "ĠØ£ÙĨ": 348,
      "Øº": 349,
      "ĠÙĦÙĦ": 350,
      "Ø§Ø¦": 351,
      "ÙĬØ¯": 352,
      "ÙħØ§": 353,
      "ĠØ¯": 354,
      "Ø§Ùģ": 355,
      "ĠØ±": 356,
      "ĠØ§ÙĦØ³": 357,
      "ĠØ´": 358,
      "Ø§ØŃ": 359,
      "ÙĩÙħ": 360,
      "ĠØ§ÙĦØŃ": 361,
      "..": 362,
      "ÙĪÙħ": 363,
      "ÙĬÙĦ": 364,
      "ĠØ¨Ø§ÙĦ": 365,
      "Ø¸": 366,
      "ĠØ®": 367,
      "ĠØ¹ÙĨ": 368,
      "Ø§ÙĤ": 369,
      "Ø§Ø¬": 370,
      "ĠÙħØ¹": 371,
      "ÙĨØ§": 372,
      "Ø³Øª": 373,
      "ĠØ§ÙĦØ¬": 374,
      "ĠØ§ÙĦØ¨": 375,
      "ĠØ§ÙĦÙĨ": 376,
      "ĠØ§ÙĦÙĤ": 377,
      "ÙĦÙĥ": 378,
      "Ø±Ø¨": 379,
      "Ø¹Ø¯": 380,
      "ĠØ§ÙĦØ´": 381,
      "ĠØ§ÙĦÙģ": 382,
      "ĠØµ": 383,
      "ØªÙħ": 384,
      "ĠØ§ÙĨ": 385,
      "ĠØ§ÙĦØ¯": 386,
      "Ø±Ø©": 387,
      "ÙĦÙħ": 388,
      "ÙħÙĦ": 389,
      "ÙĪØ¯": 390,
      "ĠÙģÙī": 391,
      "ÙħÙĨ": 392,
      "ĠØ§ÙĦØ¥": 393,
      "Ø¥": 394,
      "Ø¦": 395,
      "ĠØ¥ÙĦÙī": 396,
      "ÙĬØ§": 397,
      "Ø±Ùĥ": 398,
      "ÙĪÙĤ": 399,
      "ĠØ§ÙĦÙĦ": 400,
      "ÙĤØ¯": 401,
      "ÙĬÙħ": 402,
      "Ø¨Ø±": 403,
      "Ø°Ø§": 404,
      "ÙĦØ§": 405,
      "Ø¨ÙĬ": 406,
      "ĠØ§ÙĦÙĥ": 407,
      "Ø±ÙĪ": 408,
      "Ø§Øµ": 409,
      "ĠØ·": 410,
      "ĠØ§ÙĦØ®": 411,
      "ĠØĮ": 412,
      "Ø§Ø³Øª": 413,
      "ÙĥÙĨ": 414,
      "ĠÙĪØª": 415,
      "ØŃØ¯": 416,
      "ÙĬØ³": 417,
      "Ø¹Ø©": 418,
      "Ø§Ùĩ": 419,
      "ĠØ§ÙĦØ±": 420,
      "ÙĬØª": 421,
      "Ġ.": 422,
      "Ø¤": 423,
      "ÙĦØ©": 424,
      "ĠÙĪØ£": 425,
      "Ġ1": 426,
      "ĠØ§ÙĦØµ": 427,
      "Ġ-": 428,
      "ĠÙħØ§": 429,
      "Ġ2": 430,
      "ĠØ£ÙĪ": 431,
      "ÙĤØ©": 432,
      "ĠØ§": 433,
      "Ġ\"": 434,
      "ÙħØ©": 435,
      "ĠØ§ÙĦØ°": 436,
      "Ġ(": 437,
      "ØªØ±": 438,
      "Ø¨Ø©": 439,
      "âĢ": 440,
      "Ø§Ø®": 441,
      "ÙĬÙĩ": 442,
      "Ø§Ø·": 443,
      "ÙĪØ§": 444,
      "ÙĬÙģ": 445,
      "Ø§Ø¶": 446,
      "ĠØ§ÙĦØªÙĬ": 447,
      "ĠØ¹ÙĦÙĬ": 448,
      "Ø±Ùģ": 449,
      "ØªÙĩ": 450,
      "ĠØº": 451,
      "ĠØ§ÙĦÙĪ": 452,
      "Ø§Ø²": 453,
      "ĠÙĦØ§": 454,
      "ĠÙĥØ§ÙĨ": 455,
      "Ø¹ÙĦ": 456,
      "ÙħØ±": 457,
      "ÙĥÙĦ": 458,
      "ÙĬØ¹": 459,
      "ÙħØ¯": 460,
      "ĠÙħØŃ": 461,
      "ÙĨØª": 462,
      "ÙĬØ§Øª": 463,
      "ĠÙĥÙĦ": 464,
      "Ø¨ÙĦ": 465,
      "ĠØ§ÙĦØ·": 466,
      "ĠØ°": 467,
      "ÙĥØ±": 468,
      "ØµØ±": 469,
      "Ø°Ùĩ": 470,
      "ØªÙĬ": 471,
      "ÙħÙĪ": 472,
      "Ø¯Ø©": 473,
      "Ø§Ø±Ø©": 474,
      "ÙĪØ¬": 475,
      "Ø³Ùħ": 476,
      "Ø³ÙĦ": 477,
      "ĠØªØ¹": 478,
      "ÙĪÙģ": 479,
      "Ø®Ø±": 480,
      "ÙĬÙĤ": 481,
      "ĠØ²": 482,
      "Ø§Ø´": 483,
      "ÙĥÙĪÙĨ": 484,
      "ĠØ¥ÙĨ": 485,
      "ĠÙĪÙĩ": 486,
      "Ø¯Ø±": 487,
      "Ø³Ø¨": 488,
      "ĠÙĦÙħ": 489,
      "ĠØªØŃ": 490,
      "Ø¨Ø¯": 491,
      "ĠÙħØ´": 492,
      "ĠÙĩØ°Ø§": 493,
      "ĠØ§ÙĦÙĦÙĩ": 494,
      "ÙĨÙĬ": 495,
      "ĠÙĪÙĤ": 496,
      "ĠØ¨Ø¹Ø¯": 497,
      "Ø¯Ùħ": 498,
      "ÙĪØ¨": 499,
      "ĠÙĪÙħ": 500,
      "ĠØ«": 501,
      "ĠØ¨ÙĬÙĨ": 502,
      "Ø±Ø¶": 503,
      "ØµÙĦ": 504,
      "Ġ..": 505,
      "Ġ:": 506,
      "ÙĦØ§ÙĦ": 507,
      "Ø§Ø©": 508,
      "ÙĦÙģ": 509,
      "Ø¯ÙĬØ¯": 510,
      "Ø¯ÙĬ": 511,
      "ÙĪØ³": 512,
      "ĠâĢ": 513,
      "Ø´Ø±": 514,
      "Ø§Ø«": 515,
      "Ø£ÙĨ": 516,
      "ÙĪØ¹": 517,
      "ÙĥØª": 518,
      "Ø¯Ø§": 519,
      "ĠØ§ÙĦØ«": 520,
      "ÙħØ§ÙĦ": 521,
      "ÙģÙĬ": 522,
      "Ø¬ÙĦ": 523,
      "ĠØ§ÙĦÙħØª": 524,
      "ÙĩØ±": 525,
      "ĠÙĪØ¨": 526,
      "ĠØ§Ø³Øª": 527,
      "Ø¨Ø§Ø±": 528,
      "ÙĬØ±Ø©": 529,
      "ĠÙĩØ°Ùĩ": 530,
      "ÙĥÙħ": 531,
      "ÙĥØ§ÙĨ": 532,
      "ÙĬØ²": 533,
      "Ø§Ø¯Ø©": 534,
      "ĠØ¨Øª": 535,
      "Ø§ÙĦÙħ": 536,
      "Ġ20": 537,
      "ĠØ¨ÙĨ": 538,
      "ÙĦØ¨": 539,
      "ĠØ§ÙĦÙĬ": 540,
      "Ø³ÙĬ": 541,
      "Ø±ÙĬÙĤ": 542,
      "ĠÙĩÙĪ": 543,
      "Ø§ÙĨÙĬ": 544,
      "ĠÙĬØ¹": 545,
      "ĠØ§ÙĦØ°ÙĬ": 546,
      "ĠØ¶": 547,
      "ĠÙħØª": 548,
      "ĠØ§ÙĦÙħÙĨ": 549,
      "ØŃØ©": 550,
      "ĠØ¨Ø¹": 551,
      "ÙĨØ©": 552,
      "ÙĩØ¯": 553,
      "ĠØ£ÙĬ": 554,
      "--": 555,
      "ÙģØ³": 556,
      "ØªÙī": 557,
      "ÙĬØ¨": 558,
      "ÙĪØ¶": 559,
      "ÙĬØ«": 560,
      "ÙĤÙĦ": 561,
      "Ø®Øµ": 562,
      "ĠÙĬØª": 563,
      "Ø±ÙĤ": 564,
      "ÙĨØ³": 565,
      "ĠÙħØ³": 566,
      "Ø·Ø©": 567,
      "ĠØªÙħ": 568,
      "ÙĪÙĬ": 569,
      "ĠØ§ÙĦØ²": 570,
      "ÙĪÙĦØ©": 571,
      "Ø¹Ø¨": 572,
      "Ø¬Ùħ": 573,
      "ĠÙĦØª": 574,
      "ÙĪØ²": 575,
      "Ø«Ø±": 576,
      "ÙĤØ±": 577,
      "ĠÙħØ±": 578,
      "ÙĪØ±Ø©": 579,
      "Ø§Ùĥ": 580,
      "ĠØ¢": 581,
      "ĠØ®ÙĦØ§ÙĦ": 582,
      "ÙĨØ¯": 583,
      "ÙĪØ§Øª": 584,
      "ÙĦÙĤ": 585,
      "ĠÙĪØ§ÙĦÙħ": 586,
      "ĠÙħØ¬": 587,
      "ÙĦØ§Ùħ": 588,
      "ØªÙĩØ§": 589,
      "ĠØ£Ùħ": 590,
      "ĠÙĪØ¹": 591,
      "ĠØ§ÙĦØº": 592,
      "Ø¦ÙĬØ³": 593,
      "ÙĪÙī": 594,
      "ÙģØ±": 595,
      "ĠØ¨Ø±": 596,
      "ĠÙħØ¯": 597,
      "ÙħÙĥÙĨ": 598,
      "ĠØ°ÙĦÙĥ": 599,
      "Ø¡": 600,
      "ØŁ": 601,
      "ĠÙĪÙĬ": 602,
      "ĠÙĤØ¯": 603,
      "ĠØ§ÙĦÙħØŃ": 604,
      "ĠÙĪØ¬": 605,
      "Ø§ÙĦØ©": 606,
      "ĠØ¹Ø§Ùħ": 607,
      "Ø§Ø±ÙĬ": 608,
      "Ø«ÙĦ": 609,
      "ĠÙĪØ³": 610,
      "ĠØ§ÙĦÙħØ¹": 611,
      "ĠØ§Ø³": 612,
      "ĠØªÙĤ": 613,
      "Ø¥ÙĨ": 614,
      "Ø±ÙĥØ©": 615,
      "ĠØ¬Ùħ": 616,
      "ĠØ¹ÙĨØ¯": 617,
      "ĠØ§ÙĦÙħØ³": 618,
      "ĠÙĦÙĩ": 619,
      "ÙĪØª": 620,
      "ĠØ§ÙĦÙĩ": 621,
      "ĠÙĪÙĦ": 622,
      "Ø§ÙĦÙĬ": 623,
      "ĠÙĥÙħØ§": 624,
      "ÙĪÙĤØ¹": 625,
      "ĠØ£Ùĥ": 626,
      "Ø§ÙĨÙĬØ©": 627,
      "Ø°ÙĦÙĥ": 628,
      "Ø§Ø±Ø§Øª": 629,
      "ĠØªØª": 630,
      "ĠØ§ÙĦÙī": 631,
      "ĠØ¨Ø¯": 632,
      "ĠØ§ÙĦØ§ÙĨ": 633,
      "Ø§ÙģØ©": 634,
      "ĠØ³ÙĬ": 635,
      "Ø®ÙĦ": 636,
      "Ø´Ø§Ø±": 637,
      "ÙĪÙĬØ©": 638,
      "Ø±Ø§Ø¡": 639,
      "Ø§Ø°": 640,
      "ĠØªÙĨ": 641,
      "Ø¯Ø¯": 642,
      "ĠØ§ÙĦØ¹Ø§Ùħ": 643,
      "Ġ3": 644,
      "ÙĨÙĬØ©": 645,
      "ĠÙĩÙĬ": 646,
      "ĠØŃÙĬØ«": 647,
      "ĠØ§ÙĦÙħÙĪ": 648,
      "ÙĬÙĥ": 649,
      "ĠØ¨ØŃ": 650,
      "ĠØ¨ÙĦ": 651,
      "Ø±Ø¬": 652,
      "ĠÙħÙĪ": 653,
      "ĠØ¨Ùħ": 654,
      "ĠØ§ÙĦÙĬÙĪÙħ": 655,
      "ÙĨÙī": 656,
      "Ø³Ø±": 657,
      "ØªØŃ": 658,
      "Ø®Øª": 659,
      "Ø³Ø©": 660,
      "ĠØ§ØŃ": 661,
      "ĠÙĬØŃ": 662,
      "ĠØºÙĬØ±": 663,
      "ĠÙĤØ¨ÙĦ": 664,
      "Ø¶Ø§": 665,
      "ĠÙĪØŃ": 666,
      "00": 667,
      "ĠÙĬÙĤ": 668,
      "ÙĪÙĥ": 669,
      "ĠØ§ÙĦÙħØ±": 670,
      "ĠÙĪÙĦØ§": 671,
      "in": 672,
      "ÙĬÙĨØ©": 673,
      "Ø·ÙĦ": 674,
      "ĠØ§Ø®": 675,
      "ÙĤÙĬ": 676,
      "ĠÙĪÙħÙĨ": 677,
      "Ø±Ø¯": 678,
      "ĠÙĤØ§ÙĦ": 679,
      "Ø§Ø¹Ø©": 680,
      "ĠØ§Øª": 681,
      "Ø¨ØŃ": 682,
      "ĠØ¨Ø´": 683,
      "ĠØŃØªÙī": 684,
      "ÙģØ¶": 685,
      "ÙĦÙĩ": 686,
      "ĠÙħØµØ±": 687,
      "Ø¹Ø±": 688,
      "Ġ201": 689,
      "ĠØ¹ÙĦÙĬÙĩ": 690,
      "ĠØ§ÙĦØ£Ùħ": 691,
      "ĠÙħØ³Øª": 692,
      "er": 693,
      "ÙĬØ´": 694,
      "ÙĪØ§ÙĨ": 695,
      "ĠÙĪØ§ÙĦØª": 696,
      "Ø¢": 697,
      "ĠØ¨Ø¹Ø¶": 698,
      "ĠÙĪÙĨ": 699,
      "ĠØ§Ø¨": 700,
      "ØµÙģ": 701,
      "ÙĦÙĬÙħ": 702,
      "ÙĤØ·": 703,
      "ĠØ§ÙĦÙħØ¯": 704,
      "ĠØ§ÙĦÙħØµ": 705,
      "Ø¹Ùħ": 706,
      "ĠØ§ÙĦØ¹Ø±Ø¨": 707,
      "ĠØ§Ùħ": 708,
      "Ø«ÙĬØ±": 709,
      "ÙĪØ©": 710,
      "ĠØ¨Ùĩ": 711,
      "Ġ,": 712,
      "Ø¹Ø§": 713,
      "ĠØ§ÙĦÙħØ³Øª": 714,
      "ĠØ§Ø¹": 715,
      "ĠØ§ÙĦØ¢": 716,
      "ĠØ§ÙĦØ¹Ø§ÙĦÙħ": 717,
      "Ø¦Ø©": 718,
      "ĠØ§ÙĦÙĦÙĬ": 719,
      "ĠØ¨ÙĬ": 720,
      "ÙĪØ±ÙĬ": 721,
      "ĠÙĬÙħÙĥÙĨ": 722,
      "ĠÙĦÙĦÙħ": 723,
      "ĠÙĩÙĨØ§": 724,
      "Ø·Ø±": 725,
      "ĠÙĬÙĪÙħ": 726,
      "ĠÂ": 727,
      "ĠØ¹Ø¨Ø¯": 728,
      "ĠØ£Ø¹": 729,
      "ÙģØ¹": 730,
      "ĠØ¹ÙħÙĦ": 731,
      "Ø¨Øª": 732,
      "Ø¯Ùĩ": 733,
      "ØŃÙĬ": 734,
      "ĠÙĪØ§ØŃ": 735,
      "âĢĿ": 736,
      "Ø§Ø¨Ø©": 737,
      "ÙĤØ¯Ùħ": 738,
      "Ø§ÙħÙĦ": 739,
      "ĠÙħÙĤ": 740,
      "Ø§ÙĦÙĬØ©": 741,
      "ĠÙĪØ²": 742,
      "ĠÙĥØ§ÙĨØª": 743,
      "ĠÙħØµ": 744,
      "Ø§ÙħØ¬": 745,
      "ĠØªØ´": 746,
      "Ø§ØµØ©": 747,
      "Ø¨Ùĩ": 748,
      "Ø¨ÙĬØ±": 749,
      "ĠÙĪÙģ": 750,
      "ĠØ§ÙĦÙħÙĤ": 751,
      "ĠØ§ÙĦÙħØ´": 752,
      "ĠØ£Ø³": 753,
      "ĠÙĪÙĥ": 754,
      "ØªØµ": 755,
      "ĠÙħØŃÙħØ¯": 756,
      "ĠØ§ÙĦÙħØ¬": 757,
      "ĠØ§ÙĦØ³ÙĬ": 758,
      "ĠØªØ¬": 759,
      "ĠÙĨÙģØ³": 760,
      "ĠØ«Ùħ": 761,
      "ĠØ£ÙĨÙĩ": 762,
      "ÙĬÙĬÙĨ": 763,
      "ĠØ£ØŃ": 764,
      "ÙĬØ¬": 765,
      "ĠØ¹ÙĦ": 766,
      "ĠÙĬØ¬": 767,
      "Ø§Øº": 768,
      "ĠÙĦÙĥÙĨ": 769,
      "ĠØ§ÙĦØ¬Ùħ": 770,
      "ĠÙĪØ¥": 771,
      "ĠØ§ÙĦØ¹ÙħÙĦ": 772,
      "Ø¨Ø¹": 773,
      "ØºÙĬØ±": 774,
      "ĠÙĪÙĩÙĪ": 775,
      "ÙĤÙĬÙĤ": 776,
      "Ø£Ø³": 777,
      "ÙģÙĦ": 778,
      "ÙĬÙĪ": 779,
      "Ø¯Ùī": 780,
      "ĠØ§ÙĪ": 781,
      "Ø®Ø¯": 782,
      "\".": 783,
      "ĠÙĥØª": 784,
      "ĠØ§ÙĦØªØ¹": 785,
      "ÙĥØ©": 786,
      "ĠâĢľ": 787,
      "ĠâĢĵ": 788,
      "ĠØªØµ": 789,
      "ĠÙĪÙĦÙĥ": 790,
      "ĠØ§ÙĦØ§": 791,
      "Ø±ØŃ": 792,
      "ĠØªØ³": 793,
      "at": 794,
      "ĠÙģÙĬÙĩØ§": 795,
      "ØªÙĦ": 796,
      "ĠÙĦÙĬ": 797,
      "ÙĨØ§Ø¡": 798,
      "on": 799,
      "ĠØŃØ³": 800,
      "Ø§Ø¹Ø¯": 801,
      "Â»": 802,
      "ÙģØª": 803,
      "ĠØ§ÙĦØ§Ø³Øª": 804,
      "ĠÙģÙĬÙĩ": 805,
      "Ġ|": 806,
      "ĠÙĬÙĥÙĪÙĨ": 807,
      "an": 808,
      "----": 809,
      "ØªÙĥ": 810,
      "ĠÙĦØ£": 811,
      "ĠÙĪÙĤØ§ÙĦ": 812,
      "Ġ4": 813,
      "Ø¶Ø¹": 814,
      "Ø¸Ø±": 815,
      "ØµÙĪÙĦ": 816,
      "Ø§Ø¦ÙĦ": 817,
      "Ø§Ø¯ÙĬ": 818,
      "ÙĨØ§ÙĨ": 819,
      "ĠØ§ÙĦØ¯ÙĪÙĦ": 820,
      "ĠØ£Ø¨": 821,
      "ĠØ§ÙĦØ£Ø³": 822,
      "Ø¬Ø©": 823,
      "ĠÙĬÙĨ": 824,
      "ÙģØ©": 825,
      "Ø§ÙĦØ§Øª": 826,
      "ĠØ³Øª": 827,
      "ÙĬÙĨØ§": 828,
      "Ø±ÙĥØ²": 829,
      "ĠÂ«": 830,
      "ĠÙĦÙĪ": 831,
      "ĠÙĦÙĥ": 832,
      "ĠÙĪÙĦÙĥÙĨ": 833,
      "ĠÙħØ¤": 834,
      "Ø±ÙĬØ¨": 835,
      "ÙĥÙĪÙħ": 836,
      "ĠØ§ÙĦØ¶": 837,
      "Ø§ÙĦØ¨": 838,
      "ÙħØ§ÙĨ": 839,
      "Ø§Ø¦ÙĬØ©": 840,
      "ĠØªØ±": 841,
      "ĠØ§ÙĦØ§Ø³": 842,
      "Ø¯ÙĬØ¯Ø©": 843,
      "Ø³Ø·": 844,
      "ĠØ¨Ø£": 845,
      "ĠÙĪÙģÙĬ": 846,
      "Ø¹ÙĪØ¯": 847,
      "ÙĪØ§Ø±": 848,
      "Ø¨ÙĤ": 849,
      "ØŃØ±": 850,
      "Ø³ÙĦØ§Ùħ": 851,
      "Ø¸Ø§Ùħ": 852,
      "ØµØ©": 853,
      "Ø¬Ùĩ": 854,
      "ÙĥØ³": 855,
      "ĠØ§Ø±": 856,
      "ĠØ§ÙĦØªÙī": 857,
      "ÙĦÙĬØ©": 858,
      "ĠÙĦØ£ÙĨ": 859,
      "ĠÙħØ«ÙĦ": 860,
      "Ø®Ø¯Ùħ": 861,
      "ÙĬÙĦØ©": 862,
      "ĠØ±Ø¦ÙĬØ³": 863,
      "Ø¬ÙĦØ³": 864,
      "ÙĨÙĬÙĨ": 865,
      "ĠÙĪÙĤØ¯": 866,
      "ĠØ§ÙĨØª": 867,
      "ØªÙħØ§Ø¹": 868,
      "ĠØ¨ÙĩØ§": 869,
      "Ġ19": 870,
      "ĠØ¸": 871,
      "Ġ5": 872,
      "or": 873,
      "Ø²Ø©": 874,
      "Ø§Ø¬Ùĩ": 875,
      "ĠØ£ØŃØ¯": 876,
      "ĠØŃØ¯": 877,
      "ĠØ¨Ø§ÙĦÙħ": 878,
      "Ø§Ø³Ø©": 879,
      "ØªÙģ": 880,
      "Ø§Ø¨Ø¹": 881,
      "ĠÙĬØªÙħ": 882,
      "Ø®Ø±Ùī": 883,
      "ĠÙĪØ§ÙĦØ£": 884,
      "||": 885,
      "Ø±Ø§Ø±": 886,
      "Ø±ÙĬÙĥ": 887,
      "ĠØ¨Ø£ÙĨ": 888,
      "Ø®ØªÙĦÙģ": 889,
      "Ġ)": 890,
      "ĠÙĪÙĥØ§ÙĨ": 891,
      "ĠÙĬØ§": 892,
      "ÙĨØ§ÙħØ¬": 893,
      "ĠØ¨Ø³": 894,
      "ĠØ¨Ø·": 895,
      "ĠØ§ÙĦØ¨Ø±": 896,
      "Ø§Ø±ÙĬØ®": 897,
      "Ø³Ø¨Ø¨": 898,
      "ĠØ¨ÙĤ": 899,
      "Ø·ÙĤØ©": 900,
      "Ø§ÙĤØ©": 901,
      "ĠØ¹Ø¯Ø¯": 902,
      "ĠØ¥Ø°Ø§": 903,
      "ÙĦØª": 904,
      "Ø¬Ø±": 905,
      "ĠÙĦÙĩØ§": 906,
      "ĠØªØ¯": 907,
      "ĠØ¬ÙħÙĬØ¹": 908,
      "ÙĪÙĦØ§": 909,
      "es": 910,
      "ÙĦØ§Ø«": 911,
      "ØŃÙĪ": 912,
      "ĠØ£Øµ": 913,
      "ĠØ§ÙĦØ¨ÙĦ": 914,
      "...": 915,
      "ÙħØª": 916,
      "Ø´Ùģ": 917,
      "ĠØ£ÙĥØ«Ø±": 918,
      "Ø§ØŃØ©": 919,
      "ĠØ¬Ø¯Ø§": 920,
      "ĠØ¬ÙĨ": 921,
      "ĠÙģØ¥ÙĨ": 922,
      "Ø±ÙĬØ¯": 923,
      "Ø§Ø±Ø¬": 924,
      "ĠØ§ÙĦØ§Øª": 925,
      "ĠÙĬØ³Øª": 926,
      "Ø§Ø¦ÙĬ": 927,
      "ĠØªØ£": 928,
      "en": 929,
      "ĠØ¨Ø´ÙĥÙĦ": 930,
      "ØŃØ¯Ø©": 931,
      "Ø±Ø§Øª": 932,
      "Ø¶Ø§Ø¡": 933,
      "Ø§ÙĬ": 934,
      "ĠÙĦÙĦØª": 935,
      "ÙĪÙĦÙī": 936,
      "Ø¨Ø§Øª": 937,
      "ĠØ§ÙĦÙħØ¤": 938,
      "Ø®Ø¯Ø§Ùħ": 939,
      "ĠÙģØ±": 940,
      "ar": 941,
      "ØŃØ¯Ø«": 942,
      "ĠØ¥ÙĦØ§": 943,
      "Ø¹Øª": 944,
      "Ø§ÙħØ©": 945,
      "ĠØ§Ø¬": 946,
      "ĠÙĦÙĨ": 947,
      "Ø§Ø¹Ø¨": 948,
      "ĠØ¹Ùħ": 949,
      "Ø§ÙģØ¸": 950,
      "ĠÙĪØ§ÙĨ": 951,
      "Ø·Ùģ": 952,
      "ĠØªØ·": 953,
      "ÙĬØ§ÙĨ": 954,
      "ÙĪØ¯Ø©": 955,
      "ĠÙħØ¨": 956,
      "ĠA": 957,
      "ĠÙħÙĪÙĤØ¹": 958,
      "ĠØ§ÙĦØ§Ùħ": 959,
      "Ø§ÙĦÙī": 960,
      "ÙĩÙĦ": 961,
      "ÙģØ¶ÙĦ": 962,
      "Ø§Ø³ÙĬØ©": 963,
      "ĠØ§Ùģ": 964,
      "Ø§ÙĦØª": 965,
      "ĠÙħÙĦ": 966,
      "ĠØ¹ÙĦÙĬÙĩØ§": 967,
      "ĠS": 968,
      "ÙĪØ§Ø¡": 969,
      "Ġ...": 970,
      "ĠØ§ÙĦØ£ÙĪÙĦ": 971,
      "ĠÙĪØ±": 972,
      "ÙĪØ·": 973,
      "ÙĪÙĩ": 974,
      "ĠÙĦØŃ": 975,
      "ĠØªÙģ": 976,
      "ĠÙĩÙĨØ§Ùĥ": 977,
      "ĠÙĨÙĤ": 978,
      "Ø²ÙĬ": 979,
      "Ø§ØªÙĩ": 980,
      "ĠØ®Ø·": 981,
      "Ø±Ø§ÙĤ": 982,
      "ĠØ£ÙĬØ¶Ø§": 983,
      "ĠØªÙĥÙĪÙĨ": 984,
      "ĠØ§ÙĦØ±Ø¦ÙĬØ³": 985,
      "Ø¸Ùħ": 986,
      "ØµØ¯": 987,
      "ĠÙĬØ¯": 988,
      "ĠØŁ": 989,
      "Ø¨Ø·": 990,
      "ÙĩÙĪØ±": 991,
      "al": 992,
      "Ø¹ÙĬØ©": 993,
      "ĠØªÙĪ": 994,
      "ĠÙħÙĨÙĩØ§": 995,
      "ĠØ³ÙĨ": 996,
      "20": 997,
      "ÙĪÙħØ§Øª": 998,
      "ĠØ§ÙĦÙĪÙĤ": 999,
      "Ø¹ÙħÙĦ": 1000,
      "ÙĥØ¯": 1001,
      "ĠØ¯ÙĪÙĦ": 1002,
      "ĠØ§ÙĤ": 1003,
      "ĠØ³Ø¨": 1004,
      "ĠØªØŃØª": 1005,
      "Ø¶Ø§Ùģ": 1006,
      "Ø§Ø±Ø³": 1007,
      "Ø§Ø¨Ø§Øª": 1008,
      "Ø¹ÙĬ": 1009,
      "Ø±Ùī": 1010,
      "ÙħØ³": 1011,
      "ĠÙģØª": 1012,
      "ĠØŃÙĤ": 1013,
      "ĠØŃÙĪÙĦ": 1014,
      "ĠØ§ÙĦÙĨØ§Ø³": 1015,
      "ĠØ²ÙĬ": 1016,
      "ĠØ£Ø´": 1017,
      "ĠØ§ÙĦÙĪØ·": 1018,
      "Ġ6": 1019,
      "ĠØ§ÙĦØªØŃ": 1020,
      "Ø§Ø¯Ø±": 1021,
      "ÙĩÙħØ§": 1022,
      "Ø§Ø¶ÙĬ": 1023,
      "ĠÙĬØ³": 1024,
      "ÙĬÙħØ©": 1025,
      "ĠÙĪØ´": 1026,
      "ĠØ¨Ø¥": 1027,
      "Ø¹Ø§Øª": 1028,
      "Ø§ÙĨÙĪÙĨ": 1029,
      "Ø®Ø·": 1030,
      "ĠØ§ÙĦÙħØµØ±": 1031,
      "ĠØ¹Ø´": 1032,
      "ĠÙĬØ´": 1033,
      "ÙĬÙģØ©": 1034,
      "ĠØ¥ÙĦÙĬ": 1035,
      "ĠÙģÙĤØ·": 1036,
      "ÙĬØ§Ùħ": 1037,
      "ĠØ§ÙĦØ¹Ø±Ø¨ÙĬØ©": 1038,
      "Ġt": 1039,
      "Ø°ÙĥØ±": 1040,
      "Ø§Ø¯Ùī": 1041,
      "ÙĦÙĬÙĦ": 1042,
      "Ø§Ø¬Ø©": 1043,
      "ÙĬØ¯Ø©": 1044,
      "Ø¨Ø§Ø¨": 1045,
      "ĠØ§ÙĦØ°ÙĬÙĨ": 1046,
      "ÙĤØ¨": 1047,
      "ĠÙĥØ¨ÙĬØ±": 1048,
      "ĠØªØ³Øª": 1049,
      "Ø§ÙĦØŃ": 1050,
      "Ø§ØµÙĦ": 1051,
      "Ø§ÙĨÙī": 1052,
      "ÙħÙĬÙĦ": 1053,
      "ĠØ¯Ùĩ": 1054,
      "ÙĪØŃ": 1055,
      "Ø¨ÙĬØ©": 1056,
      "Ø²ÙĦ": 1057,
      "ĠØ´Ø®Øµ": 1058,
      "Ø¨Ø§Ø±Ø§Ø©": 1059,
      "ÙĪØ¶ÙĪØ¹": 1060,
      "Ø§ÙĪÙĦ": 1061,
      "ØªØ¯": 1062,
      "Ø§ÙħØ§": 1063,
      "ĠØ§ÙĦÙħÙĨØª": 1064,
      "ĠØ£ÙĪÙĦ": 1065,
      "ĠÙħÙĦÙĬ": 1066,
      "ĠØ§ÙĦØ¹Ø±Ø§ÙĤ": 1067,
      "Ø¹Ø§Ø±": 1068,
      "ÙħÙĪØ¹Ø©": 1069,
      "ĠÙģÙĩ": 1070,
      "ĠP": 1071,
      "Ø¶Ø±": 1072,
      "ĠØ¯ÙĪÙĨ": 1073,
      "Ø£Ø©": 1074,
      "ĠØ§ÙĦØªÙĨ": 1075,
      "ĠC": 1076,
      "Ø±Ø¨ÙĬØ©": 1077,
      "ĠÙħÙĨØ°": 1078,
      "Ø§Ø¨ÙĤ": 1079,
      "om": 1080,
      "ĠØ¬Ùĩ": 1081,
      "....": 1082,
      "ĠÙĨØ³": 1083,
      "ĠÙĪØ°ÙĦÙĥ": 1084,
      "Ø§Ø®ÙĦ": 1085,
      "ĠM": 1086,
      "ĠØªÙĦÙĥ": 1087,
      "Ø¬Ø¯": 1088,
      "ĠØ§ÙĦÙģØ±": 1089,
      "ĠÙĪÙĩÙĬ": 1090,
      "ĠØ§ÙĦØ§Ø¬": 1091,
      "ÙĬØ·": 1092,
      "ĠØ§ÙĦÙĤØ±": 1093,
      "Ø¯Ø§Ø±Ø©": 1094,
      "ĠØ£Ø®": 1095,
      "ØºÙħ": 1096,
      "ØªÙĬÙĨ": 1097,
      "ĠØ§ÙĦØ§ØŃ": 1098,
      "Ø§ÙĤØ¹": 1099,
      "Ø±ÙĬÙĤØ©": 1100,
      "ÙĪØµ": 1101,
      "Ø§Ø°Ø§": 1102,
      "ØªÙĤ": 1103,
      "ĠØ§ÙĦØŃÙĬ": 1104,
      "Ø§Ø³ÙĬ": 1105,
      "ĠÙĪØ£ÙĨ": 1106,
      "ĠÙĦØ¥": 1107,
      "ÙĬØ±Ø§": 1108,
      "ÙĥÙĪÙħØ©": 1109,
      "ĠØ§ÙĦØ³ÙĦ": 1110,
      "ĠØ§ÙĦØ±ÙĬ": 1111,
      "Ø²ÙĬØ¯": 1112,
      "ÙĥÙĬ": 1113,
      "ĠØ¹Ø¨Ø±": 1114,
      "ĠØ§ÙĦØµØŃ": 1115,
      "ÙĪØ§ÙĦ": 1116,
      "ĠØ·Ø±ÙĬÙĤ": 1117,
      "ÙĪÙĬØ±": 1118,
      "ĠØ£Ø¯": 1119,
      "ĠØ´ÙĬ": 1120,
      "Ø·Ø§Ø±": 1121,
      "Ø¨ÙĬØ±Ø©": 1122,
      "Ø§Ø¹Ø§Øª": 1123,
      "ĠØ±Ø³": 1124,
      "ĠØ¨Ø§ÙĦØª": 1125,
      "ÙĦØ§Øª": 1126,
      "ØºØ·": 1127,
      "it": 1128,
      "ĠÙĪØ¯": 1129,
      "Ġ7": 1130,
      "Ø§Ø¯ÙĬØ©": 1131,
      "ĠØ£Ø®Ø±Ùī": 1132,
      "ic": 1133,
      "ĠÙĦÙĦØ£": 1134,
      "ĠØ§ÙĦÙĪØ²": 1135,
      "ØªØ¨Ø±": 1136,
      "ĠØ§ÙĦØ¹ÙĦ": 1137,
      "ĠØ¯ÙĪØ±": 1138,
      "Ø§ÙĨØ¨": 1139,
      "ØºÙĦ": 1140,
      "ĠØ§Ø³Ùħ": 1141,
      "Ø¶Ø§ÙģØ©": 1142,
      "ĠÙĪØ§ØŃØ¯": 1143,
      "ÙħØ§Ø±": 1144,
      "ĠØ¢Ø®Ø±": 1145,
      "ĠØ§ÙĦØ§Ø®": 1146,
      "Ġ200": 1147,
      "ØªØ®": 1148,
      "ØªØ¨": 1149,
      "Ø§Ø§": 1150,
      "Ø§Ø³Ùħ": 1151,
      "Ø§ÙĬØ©": 1152,
      "is": 1153,
      "ĠØ§ÙĦØ£Ø®": 1154,
      "ĠÙĦÙĤ": 1155,
      "ÙĤÙĬÙĤØ©": 1156,
      "Ø§Ø¦Ø±": 1157,
      "ĠØ§ÙĦØ°Ùī": 1158,
      "Ø¬ÙĨ": 1159,
      "Ø±ÙĬÙħ": 1160,
      "Ø§ÙĩØ±Ø©": 1161,
      "Ø±ÙĥØ§Øª": 1162,
      "Ø¯ÙĬØ«": 1163,
      "ĠÙģÙĦ": 1164,
      "Ø§ÙĩØ¯": 1165,
      "ĠÙĪØ§ÙĦØ¹": 1166,
      "ĠT": 1167,
      "le": 1168,
      "ØºØ©": 1169,
      "Ø³ÙĨ": 1170,
      "ĠØ§ÙĨÙĩ": 1171,
      "ĠØ§ÙĦÙĪÙĤØª": 1172,
      "Ġ0": 1173,
      "ĠØ§ÙĦØ³Ø¹ÙĪØ¯": 1174,
      "ĠÙĪØ·": 1175,
      "ĠØ¨Ùĥ": 1176,
      "ĠØ§ÙĦØ§ÙĤ": 1177,
      "ĠØ§ÙĦÙħØªØŃØ¯Ø©": 1178,
      "ĠØµØŃ": 1179,
      "ÙĩØ¯Ùģ": 1180,
      "Ø±Øª": 1181,
      "ĠÙħÙĨÙĩ": 1182,
      "Ø³Ø·ÙĬÙĨ": 1183,
      "ĠØ§Ø´": 1184,
      "Ø±ÙģØ©": 1185,
      "ĠØ§ÙĦØ¥Ø³ÙĦØ§Ùħ": 1186,
      "ĠØŃØ§ÙĦ": 1187,
      "Ø¸ÙĬÙħ": 1188,
      "Ø±ÙĪØ¹": 1189,
      "ĠØ´Ø±ÙĥØ©": 1190,
      "Ø¬Ø²": 1191,
      "ÙĪÙĨÙĬ": 1192,
      "Ø§ÙĨØ§": 1193,
      "ĠÙĤØ±": 1194,
      "Ø¨ÙĬÙĤ": 1195,
      "Ø±ÙĪÙģ": 1196,
      "ĠØ¯ÙĬ": 1197,
      "ĠØ§ÙĦØ¬Ø²": 1198,
      "ĠØ§ÙĬ": 1199,
      "ĠÙĥÙĨØª": 1200,
      "ou": 1201,
      "ĠØ£ÙħØ§": 1202,
      "ĠÙĦØ¹": 1203,
      "Ø§ÙħØ¹Ø©": 1204,
      "ØŃØ§Ø¯": 1205,
      "Ø§Ø¨ÙĦ": 1206,
      "ØºÙĬ": 1207,
      "ÙĪØ±ÙĬØ©": 1208,
      "ÙĪÙĤÙģ": 1209,
      "ĠØ§ÙĦØªÙĪ": 1210,
      "ÙĩØ§Ø¨": 1211,
      "ĠØ§ÙĦØ§Ø¹": 1212,
      "!!": 1213,
      "ĠÙĦÙħØ§": 1214,
      "ĠØ³Ùħ": 1215,
      "Ġ8": 1216,
      "ĠØ£ÙĤ": 1217,
      "ĠØ§ÙĦØ¹ÙĦÙħ": 1218,
      "ĠÙģÙĤØ¯": 1219,
      "Ø§Ø±ÙĬØ©": 1220,
      "Ø±Ø³": 1221,
      "ĠÙĤØ§Ø¦": 1222,
      "Ø¶Ø©": 1223,
      "ĠØ§ÙĦÙĦÙī": 1224,
      "ĠÙĦØ¯": 1225,
      "ÙħØ§ÙĦÙĥ": 1226,
      "ĠØ¨Ø³Ø¨Ø¨": 1227,
      "Ø±Ùħ": 1228,
      "ØŃØª": 1229,
      "Ø¶Ùħ": 1230,
      "ÙĥØªÙĪØ±": 1231,
      "Ø§Ø¯Ø§Øª": 1232,
      "ØªÙħØ¹": 1233,
      "ØŃÙĦØ©": 1234,
      "ÙĥØªØ¨": 1235,
      "ĠØ§ÙĦØ£Ø¹": 1236,
      "ĠÙĪØ§ÙĦØ¥": 1237,
      "ĠØ§ÙĦÙģØª": 1238,
      "ĠØ§ÙĦÙħÙĩ": 1239,
      "ĠÙĦÙĬØ³": 1240,
      "ĠØ§ÙĦØ¬ÙĨ": 1241,
      "Ø¹ÙĬØ¯": 1242,
      "ĠØ§ÙĦØªØ¬": 1243,
      "ĠÙĨØ¬": 1244,
      "ÙĬØ±Ø§ÙĨ": 1245,
      "Ø¸ÙĩØ±": 1246,
      "Ø°ÙĬ": 1247,
      "ĠØ¨ÙĪ": 1248,
      "ÙĤÙħ": 1249,
      "ĠØ£ØŃÙħØ¯": 1250,
      "ĠØ£ÙħØ§Ùħ": 1251,
      "ĠØ§ÙĦØ´ÙĬ": 1252,
      "\"ØĮ": 1253,
      "ĠØµÙģ": 1254,
      "ĠØ§ÙĦØ¥ÙĨ": 1255,
      "Ø·Ø§Ø¹": 1256,
      "he": 1257,
      "ÙĤØ¯ÙĬÙħ": 1258,
      "ĠB": 1259,
      "Ø¨Ø¯Ø£": 1260,
      "ĠØ¨Ø±ÙĨØ§ÙħØ¬": 1261,
      "ĠØ§ÙĦØ´Ø±": 1262,
      "ĠÙĪØ®": 1263,
      "ĠÙĬØ¬Ø¨": 1264,
      "ĠØ§ÙĦÙĤØ¯": 1265,
      ").": 1266,
      "ĠØ³ÙĨØ©": 1267,
      "ĠÙĩÙĦ": 1268,
      "ĠØ§ÙĦØ¬Ùĩ": 1269,
      "Ø¬ÙĬÙĦ": 1270,
      "Ø´ÙĬ": 1271,
      "ØŃÙĨ": 1272,
      "ĠH": 1273,
      "ĠÙħØ¬ÙĦØ³": 1274,
      "ĠØ¹ÙĨØ¯ÙħØ§": 1275,
      "ĠØ£Ùģ": 1276,
      "ĠÙĥÙħ": 1277,
      "Ø§Ø¨Ø¹Ø©": 1278,
      "ĠØ§Ùĥ": 1279,
      "ØªØ¬": 1280,
      "ĠØ§ÙĦØ±ÙĪ": 1281,
      "ĠØ®Ø§ØµØ©": 1282,
      "ĠÙĪØ¶Ø¹": 1283,
      "ĠØ§ÙĦÙģÙĦ": 1284,
      "ĠÙħÙħØ§": 1285,
      "Ø¹ÙĦØ§Ùħ": 1286,
      "ÙĪØ§Ø¬": 1287,
      "ÙĪØ¬Ø¯": 1288,
      "Ø¸ÙħØ©": 1289,
      "ÙĦÙĬØ§Øª": 1290,
      "ĠÙĦÙĦØŃ": 1291,
      "ĠØµÙĪØ±": 1292,
      "Ø§ÙĦØ«": 1293,
      "ĠØ³ÙĦ": 1294,
      "ĠØ¹Ø¯Ùħ": 1295,
      "ĠØ§ÙĦØ®Ø§ØµØ©": 1296,
      "ÙĪØ«": 1297,
      "ĠÙĪÙĦÙĬ": 1298,
      "ĠÙĪØ§ÙĦØŃ": 1299,
      "ĠØŃÙĦ": 1300,
      "Ø§Ø¹Ø¯Ø©": 1301,
      "Ġ10": 1302,
      "ÙĤØ§": 1303,
      "ĠØ§ÙĦØ§Ø¬ØªÙħØ§Ø¹": 1304,
      "Ø§ÙĦÙĥ": 1305,
      "ĠØ«ÙĦØ§Ø«": 1306,
      "ØµØŃ": 1307,
      "ĠØ§ÙĦØ¯Ø±": 1308,
      "ĠØ§ÙĦØ®Ø·": 1309,
      "Ø³ÙĦØ³ÙĦ": 1310,
      "ÙĪÙĬØª": 1311,
      "re": 1312,
      "ĠØªÙĥ": 1313,
      "ĠØ¯Ø§Ø®ÙĦ": 1314,
      "am": 1315,
      "Ø§Ø±Ùĥ": 1316,
      "Ø¨ÙĨ": 1317,
      "ĠØ§ÙĦÙħØµØ±ÙĬ": 1318,
      "Ø¨Ø§": 1319,
      "ĠÙħØ®ØªÙĦÙģ": 1320,
      "ĠØ§ÙĦØªÙĤ": 1321,
      "Ø¬ÙĨØ©": 1322,
      "ĠØ§ÙĦØ£ÙħØ±": 1323,
      "ĠÙĥÙĦÙħ": 1324,
      "ÙģØ§ÙĤ": 1325,
      "ĠØ£ÙĨØ§": 1326,
      "ĠÙĤØ§Ùħ": 1327,
      "ĠÙĪØ§ÙĦÙĨ": 1328,
      "ĠÙģØ±ÙĬÙĤ": 1329,
      "__": 1330,
      "ĠÙĪØ§ÙĦØ¯": 1331,
      "ĠØ§ÙĦØ£ÙĨ": 1332,
      "ĠØ¨Ø§ÙĦØ¥": 1333,
      "Ø²ÙĬØ²": 1334,
      "ĠØ§ÙĦØ¢ÙĨ": 1335,
      "ĠÙħÙģ": 1336,
      "ĠØ§ÙĦÙħÙħ": 1337,
      "Ø§ÙģÙĤ": 1338,
      "ĠÙģÙĬÙĦÙħ": 1339,
      "ĠÙĪÙĤØª": 1340,
      "ĠÙĪÙĦÙħ": 1341,
      "ØĽ": 1342,
      "ĠW": 1343,
      "Ø³Ø§Øª": 1344,
      "--------": 1345,
      "Ø®Ø±Ø¬": 1346,
      "ØªØ¹": 1347,
      "ĠØ£Ø«": 1348,
      "ĠÙħÙĥØ§ÙĨ": 1349,
      "Ø±ÙĬÙģ": 1350,
      "ĠÙĪØ§ÙĦØªÙĬ": 1351,
      "ĠÙħØ±Ø©": 1352,
      "Ø§ÙĦØ¯": 1353,
      "ÙĥØ±ÙĬ": 1354,
      "Ø§ÙĨÙĬØ§": 1355,
      "ĠÙĥØ¨ÙĬØ±Ø©": 1356,
      "el": 1357,
      "ĠØ§ÙĦÙģØ±ÙĬÙĤ": 1358,
      "ĠØ§ÙĦØ¹Ø§ÙħØ©": 1359,
      "Ø¤ÙĪÙĦ": 1360,
      "ØŃÙħ": 1361,
      "ĠØ¬Ø¯ÙĬØ¯": 1362,
      "ĠÙħÙħ": 1363,
      "ĠÙĪØ¬ÙĪØ¯": 1364,
      "ĠØ¨Ø¬": 1365,
      "Ø§ÙĨØ§Øª": 1366,
      "ĠØ§ÙĦØ£ÙħÙĨ": 1367,
      "ĠØ£ÙĨÙĩØ§": 1368,
      "ØµÙĪØ±": 1369,
      "ÙĪØ§Ø¨": 1370,
      "ing": 1371,
      "ĠÙģØ¹": 1372,
      "ÙĪÙĦÙĩ": 1373,
      "ØŃØ§Øª": 1374,
      "ĠØ§ÙĨØ§": 1375,
      "ĠØ§ÙĦØ¥ÙĨØ³": 1376,
      "ĠØ§Ø³ØªØ®Ø¯Ø§Ùħ": 1377,
      "Ġs": 1378,
      "ÙĪÙĬÙĦ": 1379,
      "ĠØ£Øº": 1380,
      "ÙĪØ¨Ø©": 1381,
      "ĠÙĬÙģ": 1382,
      "ĠØ§ÙĦØ¯ÙĬÙĨ": 1383,
      "as": 1384,
      "Ø¨Ø§ØŃ": 1385,
      "201": 1386,
      "ĠØ£ÙĩÙħ": 1387,
      "Ø´Ø©": 1388,
      "Ø¨Ùĥ": 1389,
      "ĠØªØ®": 1390,
      "ĠØ¨ÙħØ§": 1391,
      "ĠØ§ÙĦÙħÙĦ": 1392,
      "ĠÙħÙĩ": 1393,
      "Ø¹Ùĩ": 1394,
      "ĠØ¹Ø±Ø¶": 1395,
      "Ø¹Ø§Ø¯Ø©": 1396,
      "ĠÙĦØ§ÙĨ": 1397,
      "ĠØ´ÙĩØ±": 1398,
      "ĠØ§ÙĦØ´Ø®Øµ": 1399,
      "ĠÙģÙĬÙħØ§": 1400,
      "ĠØ¬Ø²": 1401,
      "Ø¹Ùī": 1402,
      "ĠØ§ÙĦØ£ÙĪÙĦÙī": 1403,
      "ĠØ§ÙĦÙħØ±ÙĥØ²": 1404,
      "ĠØ§ÙĦØ·Ø¨ÙĬ": 1405,
      "Ø§Ø¦ÙĬÙĦ": 1406,
      "ĠØ§ÙĦÙħÙĪØ¶ÙĪØ¹": 1407,
      "ĠÙĥÙĬÙģ": 1408,
      "Ø§ÙĩÙħ": 1409,
      "Ø±Ø¨Ø¹": 1410,
      "Ġ9": 1411,
      "ĠØ¨ÙĬØª": 1412,
      "ĠØ¯Ø±": 1413,
      "Ø§Ø¸": 1414,
      "ÙĪØ¡": 1415,
      "ĠØ°Ø§Øª": 1416,
      "ÙĤØ§ÙĦ": 1417,
      "ĠØ§ÙĦØ£Ùĩ": 1418,
      "ĠØ¹ÙĦÙħ": 1419,
      "Ø§Ø¦Ø¯": 1420,
      "ĠÙħØ¯ÙĬÙĨØ©": 1421,
      "ĠØ¹ÙħØ±": 1422,
      "Ø·Ø¨": 1423,
      "Ġ*": 1424,
      "ĠØ§ÙĦÙĥØ«ÙĬØ±": 1425,
      "Ġp": 1426,
      "ĠÙĪØ£Ø¶Ø§Ùģ": 1427,
      "ed": 1428,
      "Ø³Ø§ÙĨ": 1429,
      "ĠØ§ÙĦØ¹Ø¯ÙĬØ¯": 1430,
      "ĠÙħØ¬ÙħÙĪØ¹Ø©": 1431,
      "Ø¨ÙĦØº": 1432,
      "ÙĩÙĩ": 1433,
      "Ø¬ÙĦÙĬ": 1434,
      "ØªÙħØ±": 1435,
      "ĠØ§Ø¨ÙĨ": 1436,
      "ĠØªØ±Ùĥ": 1437,
      "ÙĪØ³Ø·": 1438,
      "ĠØ¹Ø¨": 1439,
      "ÙĥØ±Ø©": 1440,
      "ĠØ¬Ø¯ÙĬØ¯Ø©": 1441,
      "ĠØŃÙĬÙĨ": 1442,
      "Ø§Ø·ÙĤ": 1443,
      "ÙģØ§Ø¹": 1444,
      "Ø§ÙĦÙģ": 1445,
      "ĠØ§ÙĦØ²ÙħØ§ÙĦÙĥ": 1446,
      "ĠÙĪÙħØ§": 1447,
      "Ø§ÙģØ¸Ø©": 1448,
      "ĠÙĥØ«ÙĬØ±": 1449,
      "ÙĬØ§Ùĩ": 1450,
      "Ø¶ÙĦ": 1451,
      "ĠØ§ÙĦØ´Ø¹Ø¨": 1452,
      "ĠØŃØ§ÙĦØ©": 1453,
      "ØºØ±": 1454,
      "Ġ/": 1455,
      "ÙĪØ§Ø¹": 1456,
      "ĠD": 1457,
      "Ø²Ùħ": 1458,
      "ĠØ¯Ø§Ø¦": 1459,
      "ÙĪÙģØ±": 1460,
      "ĠØ±Ø¨": 1461,
      "ĠØ§ÙĦØ§Ø±": 1462,
      "Ø§Ø¯ÙĦ": 1463,
      "ĠØ´Ø±": 1464,
      "ĠÙħØ«": 1465,
      "Ø¬Ø¨": 1466,
      "ĠÙħÙĥ": 1467,
      "Ø¶ÙĬ": 1468,
      "Ø±Ø¨Ø©": 1469,
      "ĠØ§ÙĦÙħÙģ": 1470,
      "ĠÙĨØª": 1471,
      "Ø§Ø¦ÙĤ": 1472,
      "ĠØªØŃØ¯": 1473,
      "ØŃÙĤ": 1474,
      "ĠØ£ÙĦ": 1475,
      "ĠØ§Øµ": 1476,
      "ĠØ¶Ø¯": 1477,
      "Ø²Ø¨": 1478,
      "ĠØ§ÙĦÙģÙĨØ§ÙĨ": 1479,
      "Ø§ÙĩØ±": 1480,
      "ĠÙĬØ¤": 1481,
      "ØŃØ¨": 1482,
      "Ø·ÙģØ§ÙĦ": 1483,
      "ĠØ§ÙĦØ®Ø§Ø±Ø¬": 1484,
      "ØµØ§ÙĦ": 1485,
      "Ø§ØµØ±": 1486,
      "ÙĬØ¯Ø§": 1487,
      "Ø·ÙĦÙĤ": 1488,
      "ĠÙĪØ¨Ø¹Ø¯": 1489,
      "ĠØ§ÙĦØ¬Ø¯ÙĬØ¯": 1490,
      "ĠØ§ÙĦØŃØ±": 1491,
      "ÙħØ§Ùħ": 1492,
      "Ø·ÙĬØ¹": 1493,
      "Ø¯ÙħØ§Øª": 1494,
      "ĠÙĪØ¥ÙĨ": 1495,
      "ĠØ¹Ø´Ø§ÙĨ": 1496,
      "Ø·ÙĦØ¨": 1497,
      "ĠØµØ¯": 1498,
      "ĠØ¹ÙħÙĦÙĬØ©": 1499,
      "Ø¬Ø±Ø§Ø¡": 1500,
      "ĠØ§ÙĦØ«Ø§ÙĨÙĬ": 1501,
      "ÙĤØ¨ÙĦ": 1502,
      "ĠØ§ÙĦÙĨØ³": 1503,
      "ĠÙĪØ§Ø³Øª": 1504,
      "ĠØ§ÙĦØŃÙĥÙĪÙħØ©": 1505,
      "ĠØªØ§Ø±ÙĬØ®": 1506,
      "Ø·Ø¹": 1507,
      "ĠØŃØ±": 1508,
      "ĠØ§ÙĦØ´ÙĬØ®": 1509,
      "Ø®Ø°": 1510,
      "Ø§Ø³Ø¨": 1511,
      "ĠØ§ÙĦØªØ¯": 1512,
      "ĠØ¨Øµ": 1513,
      "ĠØ§ÙĦØ¸": 1514,
      "Ø¬ÙħØ¹": 1515,
      "ĠÙĦÙĦÙĨ": 1516,
      "ÙĪØ¬Ùĩ": 1517,
      "Ø§Ø¨Ùĩ": 1518,
      "ĠÙĬÙĤÙĪÙĦ": 1519,
      "ĠØ§ÙĦÙħØ®": 1520,
      "ĠL": 1521,
      "ĠØ£Ø¨ÙĪ": 1522,
      "ÙĪÙĨØ©": 1523,
      "ĠØŃÙĬØ§Øª": 1524,
      "ĠØ§Ø¯": 1525,
      "ĠØªØ¨": 1526,
      "ÙĨØ¹": 1527,
      "ÙĥÙĦØ©": 1528,
      "ĠÙĪØ³ÙĦÙħ": 1529,
      "ĠØ§ÙĦØªØ¹ÙĦÙĬÙħ": 1530,
      "ĠÙħÙĦÙĬÙĪÙĨ": 1531,
      "hat": 1532,
      "ØªØ¨Ø§Ø±": 1533,
      "Ø¹Ø¯Ø§Ø¯": 1534,
      "ĠØ£ÙģØ¶ÙĦ": 1535,
      "ÙĩØ§ÙĬØ©": 1536,
      "ĠØ§ÙĦØ±ÙĬØ§Ø¶": 1537,
      "ĠØ§ÙĦØ¯ÙĪÙĦØ©": 1538,
      "ĠÙĨÙģ": 1539,
      "ØªÙĩÙħ": 1540,
      "Ø¯Ø§Ø¯": 1541,
      "ĠØ§ÙĦÙħØ§Ø¶ÙĬ": 1542,
      "ĠÙħÙĨØ·ÙĤØ©": 1543,
      "ĠØ§ÙĦÙħØµØ±ÙĬØ©": 1544,
      "ĠÙĬÙĪ": 1545,
      "ĠØ³Ø±": 1546,
      "Ø³ÙĥØ±": 1547,
      "ĠØ¹ÙĨÙĩ": 1548,
      "ĠÙĪÙĩØ°Ø§": 1549,
      "Ø³ÙĬÙĨ": 1550,
      "ĠØªÙĦ": 1551,
      "ĠØ§ÙĦØ¹ÙĤ": 1552,
      "ro": 1553,
      "ĠØ±Ùħ": 1554,
      "Ø¹ÙĦÙĪÙħØ§Øª": 1555,
      "ÙĨØ§ÙĪÙĦ": 1556,
      "ĠØ§ÙĦØ«ÙĦØ§Ø«": 1557,
      "ĠØ£Ø¬ÙĦ": 1558,
      "Ø§Ø¬Ø§Øª": 1559,
      "ĠØ§ÙĦØªØ³": 1560,
      "ĠØ§ÙĦØ¹Ùħ": 1561,
      "ĠÙĪØ§ØŃØ¯Ø©": 1562,
      "ĠØŃØ§Ø¬Ø©": 1563,
      "ion": 1564,
      "Ø§Ø¹ÙĬ": 1565,
      "ĠÙħÙħÙĥÙĨ": 1566,
      "ØŃØ§": 1567,
      "ĠØŃÙĬ": 1568,
      "Ġh": 1569,
      "Ø§ÙĤØ§Øª": 1570,
      "ĠÙĪØºÙĬØ±": 1571,
      "ĠÙĪØ¹ÙĦÙī": 1572,
      "ĠØ§Øº": 1573,
      "ĠÙĪØ²Ø§Ø±Ø©": 1574,
      "ĠØ¹Ø´Ø±": 1575,
      "ĠÙĬÙħ": 1576,
      "ĠÙĩØ¯": 1577,
      "ac": 1578,
      "ĠÙĬØµ": 1579,
      "ĠØµÙĦÙī": 1580,
      "ĠØ§ÙĦØ¯ÙĥØªÙĪØ±": 1581,
      "ĠØµÙĦ": 1582,
      "ĠÙħØ®": 1583,
      "Ø§Ø¦Ø¨": 1584,
      "ĠØ§ÙĦØ§ÙĤØªØµ": 1585,
      "ĠØ¥ÙĨÙĩ": 1586,
      "Ø¸ÙĬÙģ": 1587,
      "Ġc": 1588,
      "ĠØ§ÙĦÙħØ¨": 1589,
      "ØªØ±ÙĨØª": 1590,
      "Ø£Øª": 1591,
      "Ø§ÙħÙĦØ©": 1592,
      "Ø¯Ø§ÙĬØ©": 1593,
      "ÙĬÙĨÙĬ": 1594,
      "ĠÙĨÙģØ³Ùĩ": 1595,
      "ĠÙģØ§ÙĦ": 1596,
      "Ø¯ÙħØ©": 1597,
      "ÙĤØ§Ø¡": 1598,
      "Ġm": 1599,
      "ĠØ§ÙĦÙħØº": 1600,
      "ĠÙĨØŃÙĪ": 1601,
      "ÙĦØ§Ùģ": 1602,
      "ĠØ§ÙĦØ¨ÙĨ": 1603,
      "ĠÙĪØ¬Ùĩ": 1604,
      "Ø§ÙģØ±": 1605,
      "ÙĪÙħØ©": 1606,
      "ĠÙĦÙĩÙħ": 1607,
      "ĠØ§ÙĦØ¨ÙĬ": 1608,
      "ÙĦÙħÙĬÙĨ": 1609,
      "ÙĤÙĪÙĦ": 1610,
      "ÙģÙĬØ°": 1611,
      "ĠØ¶ÙħÙĨ": 1612,
      "ĠØ§ÙĦØ¹ÙĨ": 1613,
      "Ø§Ø´Ø±": 1614,
      "ĠØ¹Ø§": 1615,
      "ÙħÙĬØ©": 1616,
      "Ø´Ø§Ø±Ùĥ": 1617,
      "ĠÙĨÙĪØ¹": 1618,
      "Ø§Ø¦Ùħ": 1619,
      "Ø§ÙĨØ©": 1620,
      "ĠØ§ÙĦØ³ÙĪØ¯": 1621,
      "il": 1622,
      "ĠØ±ÙĬ": 1623,
      "ÙĪØ¨Ø±": 1624,
      "ÙĬÙĪÙĨ": 1625,
      "ĠÙĪØ²ÙĬØ±": 1626,
      "ĠÙĦÙĥÙĦ": 1627,
      "ĠG": 1628,
      "Ø§Ø±Ø¨": 1629,
      "ĠØ°ÙĥØ±": 1630,
      "ÙĪØ±ÙĬØ§": 1631,
      "ÙĤØ¯Ø±": 1632,
      "Ø¨ÙĤÙī": 1633,
      "ĠÙĨÙĤÙĦ": 1634,
      "ÙĨÙĬØ§": 1635,
      "ĠØ§ÙĦØªØµ": 1636,
      "ĠØ§ÙĦØªÙģ": 1637,
      "Ø§Ø¨ÙĤØ©": 1638,
      "ĠE": 1639,
      "ĠÙĪØµ": 1640,
      "ĠØ£ÙĦÙģ": 1641,
      "Ø²Ø§": 1642,
      "ĠØ§ÙĦØ¨ÙĦØ¯": 1643,
      "ĠØ§ÙĦØ³Ø¹ÙĪØ¯ÙĬØ©": 1644,
      "ĠØ§ÙĦÙĨØ¸Ø§Ùħ": 1645,
      "Ġ12": 1646,
      "Ø¹Ø¯ÙĦ": 1647,
      "ĠÙģØ£": 1648,
      "Ø±ÙĬØ·": 1649,
      "Ø¸Ø©": 1650,
      "ĠØ§ÙĦØŃÙĬØ§Ø©": 1651,
      "ĠÙĪØ§ÙĦØ´": 1652,
      "Ø§ØªÙģ": 1653,
      "Ø§ÙģÙĬ": 1654,
      "ÙĦÙĥØ©": 1655,
      "ĠØ§ÙĦØ®Ø§Øµ": 1656,
      "Ø§ØŃÙĬØ©": 1657,
      "ĠØ§ÙĦØ³ÙĦØ§Ùħ": 1658,
      "ÙĬØ²Ø©": 1659,
      "ĠØ²ÙĪØ¬": 1660,
      "ĠØ§ÙĦØ¯Ùħ": 1661,
      "ĠØ³ÙĪÙģ": 1662,
      "ĠI": 1663,
      "ĠÙĨØ¸Ø§Ùħ": 1664,
      "ÙĤÙĩ": 1665,
      "ad": 1666,
      "ĠÙĪÙħØ¹": 1667,
      "ĠÙħØ¶": 1668,
      "ĠØ·Ø¨ÙĬ": 1669,
      "Ø§ÙģÙĬØ©": 1670,
      "ĠÙĤÙĨ": 1671,
      "ĠØ§ÙĦØ¨Ø·": 1672,
      "Ø§ØªØ¨": 1673,
      "Ġ15": 1674,
      "ØªÙĬØ¬Ø©": 1675,
      "ĠÙĦØ¨": 1676,
      "ĠØ§ÙĦØªØ·": 1677,
      "Ø§ÙĩØ¯Ø©": 1678,
      "ĠØ¹Ø¨Ø¯Ø§ÙĦ": 1679,
      "ÙģØ±ÙĬÙĤ": 1680,
      "Ø§Ø³Ø§Øª": 1681,
      "ĠÙħØ¯ÙĬØ±": 1682,
      "Ø®ÙĪÙĦ": 1683,
      "ÙħØ¯Ø©": 1684,
      "ĠØ£ÙħØ±": 1685,
      "ĠÙĤØµ": 1686,
      "ÙĬØªÙĩ": 1687,
      "ĠR": 1688,
      "ÙĨØ¯ÙĤ": 1689,
      "Ø´Ø§Ø±ÙĥØ©": 1690,
      "ĠØ§ÙĦÙħÙĪÙĤØ¹": 1691,
      "Ø¯Øª": 1692,
      "ĠØ§ÙĦØ£Ø¯": 1693,
      "ĠØ§ÙĦØŃÙĦ": 1694,
      "ĠØ§ÙĦÙĥØª": 1695,
      "ot": 1696,
      "ĠØ§ÙĦÙĦØ§Ø¹Ø¨": 1697,
      "Ø§Ø²Ùħ": 1698,
      "ĠØ§ÙĦÙĤØ§ÙĩØ±Ø©": 1699,
      "ÙĤØª": 1700,
      "ĠÙĬØ±": 1701,
      "Ø§Ø±Ø¯": 1702,
      "ĠÙĨØ´": 1703,
      "Ø³ÙĬØ©": 1704,
      "ĠÙĨØµ": 1705,
      "ĠØ£Ø±": 1706,
      "ÙĨØ³Ø¨Ø©": 1707,
      "ĠØ§ÙĦÙĤØ§ÙĨÙĪÙĨ": 1708,
      "ĠØ±Ø¬": 1709,
      "ĠØ§ÙĦØ£ÙħØ±ÙĬÙĥ": 1710,
      "ÙĨÙĩ": 1711,
      "ĠØ§ÙĦØ¯ÙĪØ±": 1712,
      "ĠØªÙĤØ¯Ùħ": 1713,
      "ĠØ§ÙĦØ«Ø§ÙĦØ«": 1714,
      "et": 1715,
      "ĠØ§Ø¶": 1716,
      "ĠØ¬Ø§Ø¡": 1717,
      "ĠÙħØ¨Ø§Ø±Ø§Ø©": 1718,
      "ĠØ§ÙĦÙħÙĨØ·ÙĤØ©": 1719,
      "ÙĩØ±Ø¨": 1720,
      "ĠÙĪØªØ¹": 1721,
      "ĠÙĦÙĦØ¥": 1722,
      "Ø¹Ø¨Ø©": 1723,
      "ĠÙĪØªÙħ": 1724,
      "ĠØ§ÙĦØ¥ÙĨØ³Ø§ÙĨ": 1725,
      "ĠÙĦÙħÙĨ": 1726,
      "ĠÙħØªØ±": 1727,
      "ĠØ§ÙĦØªØ´": 1728,
      "ĠF": 1729,
      "Ø§ÙĥÙĦ": 1730,
      "ĠØ¯ÙĪÙĦØ§Ø±": 1731,
      "of": 1732,
      "ĠØ§ÙĦØ¨ØŃØ±": 1733,
      "ÙĪÙĦØ§ÙĬØ§Øª": 1734,
      "ĠØ¨Ø§ÙĦØ£": 1735,
      "ĠØ§ÙĦØ£Ø±Ø¶": 1736,
      "âĢĿ.": 1737,
      "Ġf": 1738,
      "ĠØ§ÙĦØ¬Ø¯ÙĬØ¯Ø©": 1739,
      "ĠØ§ÙĦØ´Ø±ÙĥØ©": 1740,
      "ĠØ§ÙĦÙģÙĦØ³Ø·ÙĬÙĨ": 1741,
      "Ø§Ø¯Ùĩ": 1742,
      "ĠØ§ÙĦØŃØ¯": 1743,
      "ĠÙħØ±ÙĥØ²": 1744,
      "ÙģØ¸": 1745,
      "ĠÙħØ¨Ø§Ø±": 1746,
      "ĠÙĪØ§ÙĦÙģ": 1747,
      "ĠØ·ÙĦØ¨": 1748,
      "ĠØ·Ø¨": 1749,
      "ĠØ§ÙĦÙĨÙĩ": 1750,
      "ĠÙħØ·": 1751,
      "Ø¹ÙĦÙĨ": 1752,
      "ÙħÙĪØ¯": 1753,
      "**": 1754,
      "ØªÙĬØ§Ø±": 1755,
      "ĠÙģØªØ±Ø©": 1756,
      "Ø§Ø¯Ø±Ø©": 1757,
      "ĠØ§ÙĦØ¨ØŃ": 1758,
      "ĠÙĦÙĦØ´": 1759,
      "Ø³Ø¨ÙĪØ¹": 1760,
      "ĠØ§ÙĦÙħÙĦÙĥ": 1761,
      "ĠØ§ÙĦØŃØ¯ÙĬØ«": 1762,
      "ĠÙħØ³ØªÙĪÙī": 1763,
      "ĠØªÙĤÙĪÙħ": 1764,
      "ÛĮ": 1765,
      "ÙĪØ¨ÙĬ": 1766,
      "ĠØ§ÙĦØ´Ø±ÙĤ": 1767,
      "Ø³Ùĩ": 1768,
      "ĠØ§ÙĦØ·ÙĦ": 1769,
      "ÙĦÙĬÙĤ": 1770,
      "ĠÙĨØ´Ø±": 1771,
      "ĠÙĦØ¯ÙĬ": 1772,
      "ĠØ£Ø¬": 1773,
      "Ø±ÙĪØ¬": 1774,
      "Ġd": 1775,
      "ĠÙĪÙĬØª": 1776,
      "ĠØ¥Ø¯Ø§Ø±Ø©": 1777,
      "Ø¯ÙĦ": 1778,
      "Ø§Ø¹ÙĬØ©": 1779,
      "ĠÙĥØªØ§Ø¨": 1780,
      "ĠØ¯Ø±Ø¬": 1781,
      "Ø·ÙĦØ§ÙĤ": 1782,
      "Ø§Ø¨Ø·": 1783,
      "Ġ14": 1784,
      "ÙĪØ¬ÙĪØ¯": 1785,
      "ÙĦÙĬÙģ": 1786,
      "ĠÙĦØ¯Ùī": 1787,
      "Ø¶ÙħÙĨ": 1788,
      "ÙĬØ±Ùĥ": 1789,
      "ÙĬØ§Ø±": 1790,
      "ĠØ§ÙĦØªØ£": 1791,
      "ĠØªØŃÙħÙĬÙĦ": 1792,
      "ĠØ¹Ø¯Ø©": 1793,
      "Ø±Ø¨ÙĬ": 1794,
      "ĠÙĬÙħÙĥÙĨÙĥ": 1795,
      "Ġb": 1796,
      "ĠØ¨ÙĥÙĦ": 1797,
      "ĠØ¨Ø§ÙĨ": 1798,
      "ĠÙĤØ¯Ùħ": 1799,
      "ĠÙĪØµÙĦ": 1800,
      ")ØĮ": 1801,
      "Ø¨Ùī": 1802,
      "ĠØµØ§ØŃ": 1803,
      "ĠÙħØ¬Ø§ÙĦ": 1804,
      "ØºÙĬÙĬØ±": 1805,
      "ĠØŃØ³Ø¨": 1806,
      "ĠØ®Øµ": 1807,
      "ĠÙĪØ§ÙĦØ³": 1808,
      "ĠØ±ÙĤÙħ": 1809,
      "Ø¹Ø§ÙĪÙĨ": 1810,
      "Ø³Ø±Ø§Ø¦ÙĬÙĦ": 1811,
      "Ġ11": 1812,
      "ÙĪÙĬØ§Øª": 1813,
      "ØªÙĨ": 1814,
      "ÙĪÙĬÙĨ": 1815,
      "oo": 1816,
      "ww": 1817,
      "Ø§ÙĦÙĩ": 1818,
      "ØªØ§Ø¬": 1819,
      "ĠÙĦØ´": 1820,
      "ĠØ§ÙĦØ¬ÙĬØ´": 1821,
      "ĠØ£ÙĥØ¨Ø±": 1822,
      "Ø¬ÙĪÙħ": 1823,
      "Ø¬Ø§ÙĨ": 1824,
      "Ø®Ø§Øµ": 1825,
      "ĠØ±Ø£": 1826,
      "ĠØ§ÙĦØ±Ø³": 1827,
      "ĠÙĪØ¹Ø¯": 1828,
      "ĠÙĬÙĤÙĪÙħ": 1829,
      "Ø§Ø±Ùģ": 1830,
      "com": 1831,
      "ĠØ§ÙĦÙħØµØ±Ùī": 1832,
      "ÙĪØ¨Ø§": 1833,
      "ĠØ³ÙĪØ§Ø¡": 1834,
      "ĠØ§ÙĦÙħØ¯ÙĬÙĨØ©": 1835,
      "ÙĩÙĬØ±": 1836,
      "ĠØ¯Ùħ": 1837,
      "ĠØŃØ¨": 1838,
      "ĠØ³ÙĨÙĪØ§Øª": 1839,
      "ĠØ¨Ø§Ø³Øª": 1840,
      "ĠÙĬØ¹ÙĨÙĬ": 1841,
      "ĠØ§ÙĦØµÙģ": 1842,
      "ĠØ§ÙĦØ®Ø¨Ø±": 1843,
      "ĠØŃÙħ": 1844,
      "ÙĬÙĦÙħ": 1845,
      "ĠØ´ÙĬØ¡": 1846,
      "Ġ[": 1847,
      "Ø§Ø¦Ø¬": 1848,
      "ĠØ£Ø«ÙĨØ§Ø¡": 1849,
      "Ø¯ÙĬØ©": 1850,
      "ĠÙĦÙĦØ¹": 1851,
      "ÙĪÙĪ": 1852,
      "ĠØ¹Ø§ÙĦÙħ": 1853,
      "ĠØ§ÙĦÙħØ¹ÙĦÙĪÙħØ§Øª": 1854,
      "ĠØ§ÙĦÙħØ¬ØªÙħØ¹": 1855,
      "ĠØ§ÙĦØŃØ¨": 1856,
      "ĠÙģØªØŃ": 1857,
      "Ø§ÙĩÙĬÙħ": 1858,
      "Ø®ØµØµ": 1859,
      "Ø°Ø±": 1860,
      "Ø¹ÙĦÙĤ": 1861,
      "ÙĨØªØ§Ø¬": 1862,
      "ĠØ§ÙĦØ³Ø§Ø¨ÙĤ": 1863,
      "Ø±ÙĪØ§": 1864,
      "ĠØ§ÙĦØªØ±": 1865,
      "ĠØ§ÙĦØ¹Ø±Ø¨ÙĬ": 1866,
      "ĠØªØ¹Ø§ÙĦÙī": 1867,
      "Ø¬ÙħÙĬØ¹": 1868,
      "ØŃÙħØ¯": 1869,
      "ÙĩÙħØ©": 1870,
      "ĠÙĦØ§Ø¹Ø¨": 1871,
      "ÙħÙĦØ©": 1872,
      "ĠØ¨Ø§Ø±": 1873,
      "ĠÙĪØ§ÙĦÙĤ": 1874,
      "ÙĦÙĬØ§": 1875,
      "Ø·Ø§Øª": 1876,
      "ĠØ§ÙĦØ±Ø³Ùħ": 1877,
      "ent": 1878,
      "ĠâĢĿ": 1879,
      "Ø±ÙĪØ¶": 1880,
      "ĠØŃÙĪ": 1881,
      "ĠØ¹Ø¶": 1882,
      "Ø´Ø§Ø¡": 1883,
      "Ø¶Ø§ÙĨ": 1884,
      "ÙĪÙĦÙĬ": 1885,
      "Ø§Ø¦Ùģ": 1886,
      "ĠØ§Ø«": 1887,
      "ĠÙĪØ§Ø¶": 1888,
      "ĠØ¥Ø°": 1889,
      "ĠÙĬØ®": 1890,
      "Ø§Ø³Ø¨Ø©": 1891,
      "Ø§Ø¦Ø¹": 1892,
      "ØªÙģØ§Ø¹": 1893,
      "ÙħÙĬÙħ": 1894,
      "ĠÙħÙĨÙĩÙħ": 1895,
      "ĠÙĨÙĩ": 1896,
      "ĠÙĤØ¯Ø±": 1897,
      "Ø§Ø¯Ø«": 1898,
      "ÙħÙĬÙĨ": 1899,
      "ĠÙĪÙĬØ¹": 1900,
      "ĠØ§ÙĦØ¥Ø¹ÙĦØ§Ùħ": 1901,
      "ĠÙħØ¹ÙĦ": 1902,
      "ÙĥØ§Ø±": 1903,
      "ĠØ¨ÙĬÙĨÙħØ§": 1904,
      "ĠÙĨØ¸Ø±": 1905,
      "ĠØ§ÙĦÙĨÙģ": 1906,
      "ĠØ®Ø§Ø±Ø¬": 1907,
      "ri": 1908,
      "ĠÙĪØªØŃ": 1909,
      "ÙĦÙĬÙĨ": 1910,
      "ĠÙĬØ¹ÙħÙĦ": 1911,
      "Ø¹Ø¶": 1912,
      "Ø¬Ø§Ø²": 1913,
      "and": 1914,
      "Ø¶ØŃ": 1915,
      "ĠØ§ÙĦØ¯ÙĪÙĦÙĬ": 1916,
      "ĠÙĪØ§Ø³": 1917,
      "ĠÙĪÙĥÙĦ": 1918,
      "ĠØ§ÙĦÙħØ¯Ø±": 1919,
      "ØŁØŁ": 1920,
      "ÙĪØ´": 1921,
      "ÙĥØ«Ø±": 1922,
      "Ø§Ø´Ø±Ø©": 1923,
      "ĠØ¬ÙĨÙĬÙĩ": 1924,
      "ĠÙĩÙħ": 1925,
      "ĠÙĥØ¯Ùĩ": 1926,
      "ĠØ§ÙĦØ§ØªØŃØ§Ø¯": 1927,
      "Ø±ÙĪØ³": 1928,
      "Ø§ØªÙĩØ§": 1929,
      "ÙĨØ³ÙĬØ©": 1930,
      "Ġ18": 1931,
      "ĠØ¹Ø¯": 1932,
      "ĠØ´Ùĩ": 1933,
      "ĠÙħØ³Ø§Ø¡": 1934,
      "ĠØ¨Ø§Ø³Ùħ": 1935,
      "Ø§Ø±Ø¹": 1936,
      "ĠÙĪÙĥØ§ÙĨØª": 1937,
      "ĠØ§Ùĩ": 1938,
      "ĠØªØ²": 1939,
      "ĠØ§ÙĦØ§Ø¨": 1940,
      "ØŃÙĬØŃ": 1941,
      "ĠÙĩÙī": 1942,
      "ĠØ§ÙĦØ´Ø¨Ø§Ø¨": 1943,
      "ÙĬØªÙĩØ§": 1944,
      "ĠØ§ÙĦØ¯Ø§Ø®": 1945,
      "ĠØ§ÙĦØ±ØŃ": 1946,
      "ĠØ¨Øº": 1947,
      "ĠÙĬØ£": 1948,
      "ÙĪØ¶ØŃ": 1949,
      "ĠÙĤÙĦ": 1950,
      "ĠØŃØ³ÙĨ": 1951,
      "Ø¨ÙĥØ©": 1952,
      "ĠØªØ·Ø¨ÙĬÙĤ": 1953,
      "ĠØ£ÙĪØ±": 1954,
      "ØºÙĬØ±Ø©": 1955,
      "ĠØ§ÙĦØ³ÙĨ": 1956,
      "st": 1957,
      "ĠØ¬Ø§ÙĨØ¨": 1958,
      "ÙĪØ¶Ø¹": 1959,
      "Ø´Ø§ÙĨ": 1960,
      "ĠÙħØ³ÙĦØ³ÙĦ": 1961,
      "ĠØ§ÙĦÙģØªØ±Ø©": 1962,
      "ØªÙħØ§Ùħ": 1963,
      "ÙħØ§ÙĬØ©": 1964,
      "ĠØ§ÙĦÙĨÙĤ": 1965,
      "ÙĩØ¯Ø§Ùģ": 1966,
      "Ø§ØµÙĬÙĦ": 1967,
      "ÙģØ§Ø¡": 1968,
      "Ø·Ø§ÙĨ": 1969,
      "Ø§Ø¬ÙĩØ©": 1970,
      "ĠØ§ÙĦØ§Ø«": 1971,
      "ĠØ®ÙĦ": 1972,
      "Ø¬ÙĩØ²Ø©": 1973,
      "ĠØ¨Ùģ": 1974,
      "ĠØ§ÙĦØ¹Ø§ÙĦÙħÙĬØ©": 1975,
      "ĠÙĪÙĬÙĤ": 1976,
      "ĠØ£ÙĬØ§Ùħ": 1977,
      "ĠÙĦÙĦÙĩ": 1978,
      "ÙĪÙĬØ³": 1979,
      "ĠØªØªÙħ": 1980,
      "ĠØ§ÙĦØŃÙĤ": 1981,
      "ĠØªØŃÙĤÙĬÙĤ": 1982,
      "ÙĪÙĨÙĬØ©": 1983,
      "ĠØ³ÙĥØ³": 1984,
      "Ø®Ø©": 1985,
      "Ø¤Ø§ÙĦ": 1986,
      "ÙĥÙħØ©": 1987,
      "ÙĬØµ": 1988,
      "ĠØ§ÙĦØ³Ø±": 1989,
      "ĠØ§ÙĦÙħØ§Ø¶": 1990,
      "ĠØ§ÙĦØ«ÙĤ": 1991,
      "ÙĪÙĦÙĪØ¬": 1992,
      "ĠØ¨Ø§ÙĦÙĨØ³Ø¨Ø©": 1993,
      "Ø§ØŃÙĦ": 1994,
      "ÙĤÙĤ": 1995,
      "Ø¶ÙĬØ©": 1996,
      "ÙĬØ¯ÙĬ": 1997,
      "ĠÙģÙĩÙĪ": 1998,
      "ÙħØ¨Ø±": 1999,
      "ĠØ§ÙĦÙħØ±Ø£Ø©": 2000,
      "ØŃØ§Ø¨": 2001,
      "ĠØ§ÙĦÙĬÙħÙĨ": 2002,
      "ĠØ§Ø·": 2003,
      "Ø§ÙħÙĬ": 2004,
      "ÙĦÙĬÙĩ": 2005,
      "ĠØ§ÙĦÙħØ¨Ø§Ø±Ø§Ø©": 2006,
      "ĠØªÙĤØ¯ÙĬÙħ": 2007,
      "ĠØ¹Ø§ÙħØ§": 2008,
      "ĠØ¨Ø¯ÙĪÙĨ": 2009,
      "ĠÙĦÙĦØ¯": 2010,
      "ĠØ§ÙĦØ«Ø§ÙĨÙĬØ©": 2011,
      "ÙĦÙĬØ¬": 2012,
      "ÙħØ¹": 2013,
      "ĠÙĪØ§ÙĦØ®": 2014,
      "ĠØ¨Ø§ÙĦÙĤ": 2015,
      "ĠÙĪØ§ÙĦØ°ÙĬ": 2016,
      "ØªÙħØ¯": 2017,
      "ĠØ¹ÙĦÙĬÙĥ": 2018,
      "ØªØ´": 2019,
      "Ø¢ÙĨ": 2020,
      "ÙĦØ§Ø¡": 2021,
      "ĠØ¹ÙĤ": 2022,
      "ĠØ§ÙĦØ¢Ø®Ø±": 2023,
      "ÙģØ§": 2024,
      "ĠÙĤÙĬ": 2025,
      "ĠØ¯Ø§Ø¦ÙħØ§": 2026,
      "ol": 2027,
      "ĠØ§ÙĦØ¯ÙĪÙĦÙĬØ©": 2028,
      "ĠÙĨØªÙĬØ¬Ø©": 2029,
      "Ø²ÙħØ©": 2030,
      "Ø£ÙĦ": 2031,
      "ĠØ§ÙĦÙĪÙĦØ§ÙĬØ§Øª": 2032,
      "ĠØ§ÙĦØ¨ÙĦØ§Ø¯": 2033,
      "ĠØ¬Ø±": 2034,
      "Ø¨ØŃØ«": 2035,
      "ĠÙĪÙĬÙħ": 2036,
      "ĠÙĦÙħØ¯Ø©": 2037,
      "ĠØ´ÙĥÙĦ": 2038,
      "Ø§Ø¦Ùĩ": 2039,
      "ĠØ§ÙĦØ£Ø´": 2040,
      "ĠØ§ÙĦØ¨Ø±ÙĨØ§ÙħØ¬": 2041,
      "Ġw": 2042,
      "ĠØªØ¹Ø¯": 2043,
      "ĠØªØ¹ÙħÙĦ": 2044,
      "ĠØ§ÙĦÙĤÙĬ": 2045,
      "ow": 2046,
      "Â».": 2047,
      "ĠØ§ÙĦÙĪØ·ÙĨÙĬ": 2048,
      "ĠØ§ÙĦØ£ØŃ": 2049,
      "Ø§ÙĨÙĩ": 2050,
      "ĠØ¨Ø§ÙĦÙĨ": 2051,
      "ĠÙĪØ³Ø·": 2052,
      "ĠÙģÙĪÙĤ": 2053,
      "ĠØ¹ÙĨÙĩØ§": 2054,
      "ĠØ§ÙĦÙħØ·": 2055,
      "ÙħÙĥØ§ÙĨ": 2056,
      "Ø²Ø§Ùħ": 2057,
      "ĠØ£ÙħØ³": 2058,
      "ĠÙĬÙĪØ¬Ø¯": 2059,
      "ĠØ§ÙĦØ£ÙĪØ±": 2060,
      "ĠÙĪÙĬÙĨ": 2061,
      "ĠØŃØµÙĦ": 2062,
      "ÙĪÙĨØ§": 2063,
      "ĠØ§ÙĦØ§Ùĩ": 2064,
      "ĠØ±ØŃ": 2065,
      "ĠØŃØ¯ÙĬØ«": 2066,
      "ĠØ§ÙĦØ£ØŃØ¯": 2067,
      "ĠØ¨Ø§ÙĦØ¹": 2068,
      "ĠØ¬ÙĦ": 2069,
      "ÙħØ§Ø±Ø§Øª": 2070,
      "ĠÙĥØ«": 2071,
      "ĠØ£ØµØ¨ØŃ": 2072,
      "ĠÙĨØ¸": 2073,
      "ĠØ§ÙĦØªØ§Ø±ÙĬØ®": 2074,
      "Ø³ÙĦØŃØ©": 2075,
      "Ø±Ø²": 2076,
      "ĠØ¨ÙħÙĨ": 2077,
      "ĠØªØ¤": 2078,
      "ÙĪÙĨØ³": 2079,
      "ĠØ¯ÙĪÙĦØ©": 2080,
      "ĠÙħØŃÙħÙĪØ¯": 2081,
      "ĠØ¯Ø§": 2082,
      "ĠØ§ÙĦØ®Ùħ": 2083,
      "ĠØ¯Ø¹": 2084,
      "ĠÙĨÙĩØ§ÙĬØ©": 2085,
      "ĠØ§ÙĦØ³Ø¨": 2086,
      "ĠN": 2087,
      "ĠØ§ÙĦÙĥØ¨ÙĬØ±": 2088,
      "ØªÙĤØ¯": 2089,
      "Ø³Ø§Ùħ": 2090,
      "ÙĤØ±ÙĬØ±": 2091,
      "Ø±ÙĩØ§Ø¨": 2092,
      "ĠÙħÙĪØ³": 2093,
      "ĠÙĤÙĦØ¨": 2094,
      "ÙĦÙĥØªØ±": 2095,
      "ĠÙĬØ³Ùħ": 2096,
      "ĠØ§ÙĦØ³Ø§Ø¹Ø©": 2097,
      "Ø§Ø±Øª": 2098,
      "ÙĥÙĬÙĦ": 2099,
      "ĠÙĦØ°ÙĦÙĥ": 2100,
      "ĠØ§ÙĦØ£Ø®Ø±Ùī": 2101,
      "Ø¶ÙĪØ±": 2102,
      "Ø±ÙĪØŃ": 2103,
      "ĠØ§ÙĦÙħØ¬ÙĦØ³": 2104,
      "ĠÙĥØ§ÙģØ©": 2105,
      "Ø®ÙĦØµ": 2106,
      "Ø¬ÙĦÙĬØ²": 2107,
      "ĠØ§ÙĦØ¬ÙĦ": 2108,
      "ĠÙħØ¹Ø§": 2109,
      "ÙĩÙĨ": 2110,
      "ĠØ§ÙĨØªÙĩ": 2111,
      "ĠØ¥ÙĤ": 2112,
      "ĠØ§ÙĦØ®Ø§Ø±Ø¬ÙĬØ©": 2113,
      "ĠØ§ÙĦÙĤØ§Ø¯": 2114,
      "ĠÙĬÙĦ": 2115,
      "ĠØ¨Ø¯Ø§ÙĬØ©": 2116,
      "ĠØ¬Ø§ÙħØ¹Ø©": 2117,
      "ĠØ§ÙĦØ¨ØŃØ«": 2118,
      "10": 2119,
      "ĠØ£Ø¹ÙħØ§ÙĦ": 2120,
      "Ø§Ø±Ùĩ": 2121,
      "Ø§Ø¬Ø¹": 2122,
      "ÙĦÙħØ©": 2123,
      "ĠØªÙĪÙģ": 2124,
      "ĠØ§ÙĦØ´Ùĩ": 2125,
      "ĠÙģÙĦØ§": 2126,
      "ĠØ§ÙĦØ´Ø¹Ø±": 2127,
      "Ø§ÙĬØ±": 2128,
      "ĠØ±ÙħØ¶Ø§ÙĨ": 2129,
      "ÙģÙĬÙĨ": 2130,
      "ÙĨØ§Ùĩ": 2131,
      "ĠÙģÙĨ": 2132,
      "ĠØ§ÙĦØ³ÙĬØ¯": 2133,
      "Ø¦Ø§Øª": 2134,
      "ĠØ·ÙĦ": 2135,
      "Ø¹ÙħØ§ÙĦ": 2136,
      "ĠØ§ÙĦÙħØµØ¯Ø±": 2137,
      "ĠØ¬Ø¯": 2138,
      "ĠÙĪÙĥØ°ÙĦÙĥ": 2139,
      "ĠØ§ÙĦØ£Ø®ÙĬØ±Ø©": 2140,
      "Ø³ØªØ±": 2141,
      "ÙĥÙĪ": 2142,
      "Ø§ÙĤÙĬ": 2143,
      "Ġthe": 2144,
      "ĠØ±Ø³Ùħ": 2145,
      "ÙĩØ¨": 2146,
      "ĠØ·Ø±ÙĬÙĤØ©": 2147,
      "ĠØ¨Ø§ÙĦÙģ": 2148,
      "ÙĪØ¹Ø©": 2149,
      "Ø§ÙĪÙĬ": 2150,
      "ÙĥÙĨØ¯Ø±": 2151,
      "ĠØ¹ÙĤØ¯": 2152,
      "ĠØ¨Ø§ÙĦØ¥Ø¶Ø§ÙģØ©": 2153,
      "ĠØ¥ÙĦÙĬÙĩ": 2154,
      "ĠÙģØ¶": 2155,
      "Ġ25": 2156,
      "ĠÙĨØ¹": 2157,
      "Ø®Ø¨": 2158,
      "ĠÙħØ²": 2159,
      "ĠØ§ÙĦÙħØ«": 2160,
      "ĠÙĦÙĨØ§": 2161,
      "ĠØµØ¨Ø§ØŃ": 2162,
      "Ø¨Ø§Ø¡": 2163,
      "ĠØ§ÙĦØ¬ÙĩØ§Ø²": 2164,
      "ÙģÙĤ": 2165,
      "ĠØ®Ø§Øµ": 2166,
      "ĠÙħÙĨØª": 2167,
      "Ø·ÙĬ": 2168,
      "ĠØ§ÙĦÙħÙĪØ§Ø·": 2169,
      "ĠÙĬÙĥ": 2170,
      "Ø¹ÙĦØ§ÙĨ": 2171,
      "ĠØµÙĪØ±Ø©": 2172,
      "ÙĥØ§ÙĦ": 2173,
      "ĠÙĤØ±Ø§Ø±": 2174,
      "ĠØ§ÙĦØ¨ÙĬØ§ÙĨ": 2175,
      "ĠØ§ÙĬÙĩ": 2176,
      "ÙĬØ¯ÙĬÙĪ": 2177,
      "ĠØ«ÙĦØ§Ø«Ø©": 2178,
      "ĠØ§ÙĦØ³Ùħ": 2179,
      "Ø§ØµÙħØ©": 2180,
      "Ø¨Ø§ÙĦ": 2181,
      "id": 2182,
      "ĠØ¨Ø§Ø¨": 2183,
      "ÙĬØ±ÙĬ": 2184,
      "ĠØ§ÙĪÙĦ": 2185,
      "Ø´ÙĦ": 2186,
      "ÙĨØ§Ùĥ": 2187,
      "ÙĤÙī": 2188,
      "Ø±ÙĬØ¨Ø§": 2189,
      "ĠØ§ÙĦØ±Ø¬": 2190,
      "ÙĪØ§ÙĤ": 2191,
      "ÙĩÙĬ": 2192,
      "Ø§Ø¹Ø±": 2193,
      "Ø§ÙħÙĬÙĨ": 2194,
      "ĠØŃØ§ÙĦÙĬØ§": 2195,
      "ĠÙĪÙĦÙĬØ³": 2196,
      "Ø§Ø¨ÙĬØ©": 2197,
      "ĠâĢ¢": 2198,
      "tt": 2199,
      "ĠØ§ÙĦØªØ±Ùĥ": 2200,
      "ĠØ¨Ø·ÙĪÙĦØ©": 2201,
      "ĠØ§ÙĦØ£Ø·ÙģØ§ÙĦ": 2202,
      "Ø±ÙĬØŃ": 2203,
      "Ø³ØªØ§ÙĨ": 2204,
      "ĠØ§ÙĦØ¬Ø³Ùħ": 2205,
      "ĠÙĬØ¹Ø±Ùģ": 2206,
      "ĠÙĨØ³Ø¨Ø©": 2207,
      "ĠØ¨ÙĨØª": 2208,
      "ĠÙĦÙĥÙħ": 2209,
      "ĠØ§ÙĦØ£Ø¹ÙħØ§ÙĦ": 2210,
      "ĠØ§ÙĦÙĤØ¯Ùħ": 2211,
      "ØµØ§Ø¨Ø©": 2212,
      "ÙĬØ±Ùĩ": 2213,
      "ĠØ³Ø¹Ø±": 2214,
      "Ø¨ÙĬÙĨ": 2215,
      "Ø¬Ø§Ø±": 2216,
      "ĠØ§ØŃØ¯": 2217,
      "ĠØ²ÙĬØ§Ø¯Ø©": 2218,
      "Ġ13": 2219,
      "Ø³Ø³Ø©": 2220,
      "Ø³ÙĥØ±ÙĬØ©": 2221,
      "ØºÙĬÙĦ": 2222,
      "ÙĤØ±Ø§Ø±": 2223,
      "ÙħÙĬ": 2224,
      "Ø³Ø¨Ø§Ø¨": 2225,
      "Ø¦ÙĪÙĦ": 2226,
      "ĠØ§ÙĦÙħÙĤØ¨ÙĦ": 2227,
      "ĠØµÙĨ": 2228,
      "Ø§Ø¦Ùī": 2229,
      "Ġ30": 2230,
      "ÙĪØªØ±": 2231,
      "ĠØ§ÙĦØ£ÙĩÙĦÙī": 2232,
      "Ġa": 2233,
      "ĠØ±ØºÙħ": 2234,
      "ÙĬÙĨÙĬØ©": 2235,
      "Ø°Ø¨": 2236,
      "ĠÙĪØªÙĨ": 2237,
      "ĠÙĦØ³": 2238,
      "ÙĬÙĨÙĩ": 2239,
      "ØªÙĨØ§": 2240,
      "ra": 2241,
      "ĠÙħÙĪØ¶ÙĪØ¹": 2242,
      "Ø¹Ø±Ø¶": 2243,
      "ĠÙĥØ§ÙħÙĦ": 2244,
      "ØªØ®Ø¨": 2245,
      "ĠÙĦÙĦÙĤ": 2246,
      "ÙģÙī": 2247,
      "Ø§Ø¦ÙĩØ§": 2248,
      "ĠØ¸ÙĩØ±": 2249,
      "ĠØ§ÙĦØ·ÙģÙĦ": 2250,
      "ĠØªØ¹Ø±Ø¶": 2251,
      "Ø·ÙĦØ¹": 2252,
      "ÙĬÙĦØ§": 2253,
      "ĠÙĪØ§ÙĦØ¬": 2254,
      "ĠØµØ§ØŃØ¨": 2255,
      "Ġ16": 2256,
      "Ø¹Ø§Ùħ": 2257,
      "ĠØ¨ÙĨØ§Ø¡": 2258,
      "ÙĦØ§Ùĥ": 2259,
      "ĠØªØ¹Ø±Ùģ": 2260,
      "Ø¨ÙĪÙĦ": 2261,
      "ĠÙĪÙĪ": 2262,
      "ĠØ§ÙĦØ´Ø¹": 2263,
      "Ø¬Ø§": 2264,
      "ĠÙĪØ§Ø¹": 2265,
      "ĠØ§ÙĦØŃØ±Ø¨": 2266,
      "Ø§Ø§Ø§Ø§": 2267,
      "ĠÙĪØ§ÙĦÙĥ": 2268,
      "ĠÙĤÙĪØ§Øª": 2269,
      "ĠØ±Ø¯": 2270,
      "Ø±Ø§": 2271,
      "ĠÙĦØªØŃ": 2272,
      "ĠÙĥØªÙĬØ±": 2273,
      "ÙĪØ±Ø¯": 2274,
      "ĠØ¹ÙĦØ´Ø§ÙĨ": 2275,
      "ĠÙĪØ§ÙĦØµ": 2276,
      "Ġof": 2277,
      "Ø¨ÙĬØ¹": 2278,
      "ĠØ§ÙĦØ¥Ø³ÙĦØ§ÙħÙĬØ©": 2279,
      "Ø¹Ø§Ø¨": 2280,
      "Ø¬ÙĬ": 2281,
      "ĠØ§ÙĦØ²ÙĪØ¬": 2282,
      "ĠØ§ÙĦÙģÙĬÙĦÙħ": 2283,
      "Ø§Ø¤": 2284,
      "ĠØ§ÙĦÙĪØ²Ø±Ø§Ø¡": 2285,
      "ĠØ±Ø³ÙĪÙĦ": 2286,
      "Ø¨ÙĬØ¨": 2287,
      "ĠØ¯Ø±Ø¬Ø©": 2288,
      "ÙĪØ±Ø§Øª": 2289,
      "ĠØ§ÙĦØµÙĪØ±": 2290,
      "ĠØ§ÙĦÙħØ¯ÙĬØ±": 2291,
      "ĠÙĪÙĤØ§ÙĦØª": 2292,
      "ĠØ§ÙĦÙĥØªØ§Ø¨": 2293,
      "ĠØŃØ³Ø§Ø¨": 2294,
      "ÙĤØµ": 2295,
      "ĠØ§ÙĦÙĨØµ": 2296,
      "ĠÙĪÙģÙī": 2297,
      "ĠØ¨Ø®": 2298,
      "ÙĪØ³Ùģ": 2299,
      "ĠØ§ÙĦØŃØµÙĪÙĦ": 2300,
      "ĠØ§Ø¬ØªÙħØ§Ø¹": 2301,
      "ĠÙħØ´Ø±ÙĪØ¹": 2302,
      "ĠÙĪØ¨ÙĬÙĨ": 2303,
      "ĠØ´Ø¹": 2304,
      "ĠÙĤØ§ÙĨÙĪÙĨ": 2305,
      "ĠO": 2306,
      "ĠØ³ÙĪØ±ÙĬØ§": 2307,
      "ĠØ§ÙĦØ±Ø¬ÙĦ": 2308,
      "ĠÙĥÙĦÙħØ©": 2309,
      "ĠØ§ÙĦØµÙĨ": 2310,
      "Ø¬Ø§Ùĩ": 2311,
      "ĠØ§ÙĦØ±Ø¨": 2312,
      "ĠÙħØ¹Ùĩ": 2313,
      "ĠØ§ÙĬØ¶Ø§": 2314,
      "ĠØ§ÙĦÙħØ³ÙĦÙħÙĬÙĨ": 2315,
      "ĠØªÙħØ§ÙħØ§": 2316,
      "ĠØ§ÙĦØ¬ÙħØ¹Ø©": 2317,
      "ÙĬØŃ": 2318,
      "Ø§ÙģØ¹": 2319,
      "Ø³Ø³Ø§Øª": 2320,
      "ĠÙĦØµ": 2321,
      "ĠØ§ÙĦØ§ÙĪÙĦ": 2322,
      "ĠØ®ÙĦÙģ": 2323,
      "ter": 2324,
      "ÙĪØ¨ÙĬØ©": 2325,
      "ĠØ§ÙĥØª": 2326,
      "ÙĤØ±Ø±": 2327,
      "ĠØ¹Ø²": 2328,
      "ĠØ§ÙĦØ´ÙĩØ±": 2329,
      "ĠÙĦÙģ": 2330,
      "ĠÙĪØ£ÙĥØ¯": 2331,
      "ĠÙĦØ£ÙĨÙĩ": 2332,
      "ĠØ§Ø²": 2333,
      "ĠØ§ÙĦÙħØ®ØªÙĦÙģ": 2334,
      "ĠÙĥØ°ÙĦÙĥ": 2335,
      "ĠÙĥØ«ÙĬØ±Ø§": 2336,
      "ØªØ±Ùĥ": 2337,
      "ĠØ¬ÙĩØ§Ø²": 2338,
      "ĠÙħØº": 2339,
      "ØŃØµ": 2340,
      "ĠÙħØ®ØªÙĦÙģØ©": 2341,
      "Ø´ÙĤ": 2342,
      "ĠÙĦØ¹Ø¨Ø©": 2343,
      "ĠØ§ÙĦØ³ÙĬØ§Ø³ÙĬØ©": 2344,
      "ĠØ§ÙĦØ³ÙĪØ±ÙĬ": 2345,
      "Ø°Ø©": 2346,
      "____": 2347,
      "Ø·Ø§ÙĦ": 2348,
      "ÙĪÙĨÙĩ": 2349,
      "ĠØ±ÙĪ": 2350,
      "ĠÙħØ´Ø§Ø±": 2351,
      "ĠØ±Ø£Ø³": 2352,
      "ĠØ£ÙĨØª": 2353,
      "ĠØ¥Ø¶Ø§ÙģØ©": 2354,
      "ÙĬØ±Ø§Øª": 2355,
      "ĠÙĨÙĬ": 2356,
      "ĠØ§ÙĦØµÙĦ": 2357,
      "ĠÙħØ´Ø§ÙĩØ¯Ø©": 2358,
      "ĠØ§ÙĨÙĩØ§": 2359,
      "em": 2360,
      "ĠÙĤÙĨØ§Ø©": 2361,
      "ch": 2362,
      "ĠÙĤØ³Ùħ": 2363,
      "ĠØ§ÙĦÙĪØ·ÙĨÙĬØ©": 2364,
      "ĠÙħØ³Ø¤ÙĪÙĦ": 2365,
      "ĠÙħØ¹Ø¸Ùħ": 2366,
      "Ø´Ø±Ø©": 2367,
      "ØºØ¨": 2368,
      "ĠÙĥØ§ÙĦ": 2369,
      "Ø´ÙģÙī": 2370,
      "ĠØŃÙĤÙĪÙĤ": 2371,
      "ĠØ§ÙĦØ®Ø§Ùħ": 2372,
      "Ø¨ÙĬØ¶": 2373,
      "Ø´Ø±ÙĬÙĨ": 2374,
      "ĠÙĦÙĩØ°Ø§": 2375,
      "ÙĥØ§": 2376,
      "ĠÙĬØ²": 2377,
      "ĠÙĤØ§ÙĦØª": 2378,
      "Ø³ÙĥØ±ÙĬ": 2379,
      "Ø§Ø¦ØŃ": 2380,
      "ĠØ§ÙĦØ§Ùģ": 2381,
      "ĠØ§ÙĦÙħØ§ÙĦÙĬØ©": 2382,
      "ĠØ§ÙĦØ¯Ø§Ø®ÙĦÙĬØ©": 2383,
      "//": 2384,
      "ĠÙĥØ±": 2385,
      "Ø§Ø¦ÙĦØ©": 2386,
      "ĠØ®Ø¯ÙħØ©": 2387,
      "ĠØ§ÙĦÙħÙħÙĦÙĥØ©": 2388,
      "ĠØ§ÙĦØ³ÙĨØ©": 2389,
      "ĠØ§ÙĦØ¬ÙħÙĩÙĪØ±": 2390,
      "ĠÙħØ¨Ø§Ø´Ø±Ø©": 2391,
      "000": 2392,
      "Ø±ÙĪØ¨": 2393,
      "ĠØ§ÙĦØ¨ÙĬØª": 2394,
      "Ø§Ø·Ø±": 2395,
      "ĠÙħØŃØ¯": 2396,
      "ĠØ§ÙĦØ¹Ø§Ø¨": 2397,
      "Ø·ÙĨ": 2398,
      "ĠØ§ÙĦÙģÙĨØ¯ÙĤ": 2399,
      "ĠØŃÙĥÙħ": 2400,
      "ĠØ§ÙĦÙģÙĨ": 2401,
      "ĠØ§ÙĦØ³Ùģ": 2402,
      "Ø§Ø±ÙĤ": 2403,
      "ĠØ§ÙĦÙħØ±Ø¶": 2404,
      "ØªÙħØ±Ø§Ø±": 2405,
      "ĠØ§ÙĦØªÙĪØ§ØµÙĦ": 2406,
      "ÙĬØ§Ø¡": 2407,
      "Ø·Ø±Ø©": 2408,
      "ĠÙĪØ§Øª": 2409,
      "Ø§Ø¯Øª": 2410,
      "ĠØ§ÙĦÙħÙĪØ³Ùħ": 2411,
      "Ġv": 2412,
      "ĠÙĨÙĤØ·Ø©": 2413,
      "ØŃØ¯Ùī": 2414,
      "Ø§ÙĦØ¬": 2415,
      "ĠØ§ÙĦÙĦØ¬ÙĨØ©": 2416,
      "ĠØ§ÙĦØ§Ø´": 2417,
      "ÙģØ§Øª": 2418,
      "ĠÙĥÙĨ": 2419,
      "ĠÙĬÙĥÙĨ": 2420,
      "ĠØ¥Ø¬Ø±Ø§Ø¡": 2421,
      "ĠØ¹ÙĦÙĬÙĩÙħ": 2422,
      "ĠØ§ÙĦØ®Ø¯ÙħØ§Øª": 2423,
      "ĠÙĦØ¬ÙĨØ©": 2424,
      "ĠÙĪØ³ÙĬ": 2425,
      "ÙĥØ§Ùħ": 2426,
      "ĠØ§ÙĦÙĨØ¨ÙĬ": 2427,
      "ĠØ§ÙĦØ´Ø±Ø·Ø©": 2428,
      "ttp": 2429,
      "ÙĪØ¬ÙĪØ¯Ø©": 2430,
      "Ø§Ø·Ùģ": 2431,
      "ay": 2432,
      "ĠÙĩÙĨ": 2433,
      "ĠÙĪØ¸": 2434,
      "Ġ!": 2435,
      "ĠÙĪØ«": 2436,
      "ĠØ§ÙĦØ¹Ø¯": 2437,
      "ĠØ§ÙĦÙĪØµÙĪÙĦ": 2438,
      "11": 2439,
      "ĠØ¨Ø§ÙĦØŃ": 2440,
      "ine": 2441,
      "ĠÙĪØ§Ø®": 2442,
      "ĠÙĤØªÙĦ": 2443,
      "ĠÙĦÙĦÙģ": 2444,
      "ĠØ£ÙĩÙĦ": 2445,
      "ĠØ§ÙĦÙħØ§Ø¡": 2446,
      "ÙĪÙĦØ§Øª": 2447,
      "ĠØ§ÙĦÙĩÙĨØ¯": 2448,
      "ĠØ¬Ø²Ø¡": 2449,
      "ĠÙħØµØ¯Ø±": 2450,
      "ÙĪØ§Ùħ": 2451,
      "ĠØ¨ÙĬØ¹": 2452,
      "ĠØ§ÙĦØ®ÙħÙĬØ³": 2453,
      "ÙĪÙĬÙĦØ©": 2454,
      "ĠØªÙĨØ§ÙĪÙĦ": 2455,
      "ĠÙĥØªØ¨": 2456,
      "Ø§Ø¦Ø±Ø©": 2457,
      "ĠØ§Ø°Ø§": 2458,
      "ĠÙħÙĤØ§Ø¨ÙĦ": 2459,
      "Ø§ÙĥÙħ": 2460,
      "Ø¶ÙĬÙģ": 2461,
      "ĠÙĪØŃØ¯": 2462,
      "ĠØ§ÙĦÙĨØ³Ø§Ø¡": 2463,
      "ĠØ§ÙĦØ´Ø±ÙĥØ§Øª": 2464,
      "Ø¬Ø§Ø¨": 2465,
      "ĠØ£ÙħÙĨ": 2466,
      "ĠØ§ÙĦÙĤÙĪØ§Øª": 2467,
      "Ùł": 2468,
      "ĠÙĬÙĤØ¯Ùħ": 2469,
      "ĠØ§ÙĦØ¨Ø´Ø±": 2470,
      "ĠØ§ÙĦÙĤÙĨ": 2471,
      "ĠÙĪØµÙģ": 2472,
      "Ø¬Ø¹": 2473,
      "ag": 2474,
      "Ø¹ÙĦÙħ": 2475,
      "ĠØ§ÙĦØ³ÙĪÙĤ": 2476,
      "ĠÙĪØªØ´": 2477,
      "ĠØ§ÙĦÙħØ²ÙĬØ¯": 2478,
      "ÙģØ±Ø§Ø¯": 2479,
      "ĠÙģØ§ÙĨ": 2480,
      "ĠÙĦØ§Ø³Øª": 2481,
      "ĠÙĬØ¹Ø¯": 2482,
      "ĠØ³Ø§Ø¹Ø©": 2483,
      "ĠØ§ÙĦØ¹ÙħØ±": 2484,
      "ĠØ¨Ø§ÙĦÙĥ": 2485,
      "us": 2486,
      "ĠØµÙĦØ§ØŃ": 2487,
      "ĠØ§ÙĦØ§Øµ": 2488,
      "ĠÙĦÙĬØ³Øª": 2489,
      "Ġl": 2490,
      "ĠØªÙĨØ¸ÙĬÙħ": 2491,
      "Ø±Ø§ØªÙĬØ¬": 2492,
      "://": 2493,
      "ĠØ±ÙģØ¹": 2494,
      "ĠØŃØ¯Ø«": 2495,
      "Ø§Ø¦Ø¯Ø©": 2496,
      "ĠØ§ÙĦÙħØ²": 2497,
      "Ø¶Ùī": 2498,
      "Ø·ÙģÙī": 2499,
      "ĠÙĬØ¹ØªØ¨Ø±": 2500,
      "ĠØ§ÙĦØ£ÙħØ±ÙĬÙĥÙĬØ©": 2501,
      "ĠØ³ÙĬØ¯": 2502,
      "Ġ17": 2503,
      "Ø§Ø¦ÙħØ©": 2504,
      "ĠØ¬ÙĪ": 2505,
      "ÙĥÙĨØ¯Ø±ÙĬØ©": 2506,
      "ĠØ§ÙĦÙĥØ±ÙĬÙħ": 2507,
      "ĠØ§ÙĦÙĦØºØ©": 2508,
      "Ø±Ø´": 2509,
      "ĠØ§ÙĦØ¨Ø¯": 2510,
      "ĠØªÙĦÙĤ": 2511,
      "ĠÙĪØ¨Ø§ÙĦØª": 2512,
      "ÙĪØ±Ø§": 2513,
      "ĠÙĪØ§ÙĦØ«": 2514,
      "Ġin": 2515,
      "Ø±ÙĬØ¶": 2516,
      "ÙĦÙħØ§ÙĨ": 2517,
      "ĠØ§ÙĦØŃÙĥÙĪÙħ": 2518,
      "Ø¨Ø¯ÙĪ": 2519,
      "ĠÙģØ¹ÙĦ": 2520,
      "ĠÙĪÙĦÙĪ": 2521,
      "Ø®Ùģ": 2522,
      "ĠØ§ÙĦÙĥÙĪÙĬØª": 2523,
      "ĠØ§ÙĦØºØ°": 2524,
      "ĠØ§ÙĥØ«Ø±": 2525,
      "ØªØª": 2526,
      "ØµØ¨ØŃ": 2527,
      "Ø«Ø©": 2528,
      "ĠØ§ÙĦØ¹Ø¨": 2529,
      "ĠØ§ÙĦÙħØ§ÙĦ": 2530,
      "ĠÙĦÙĤØ¯": 2531,
      "Ø«ÙħØ§Ø±": 2532,
      "ĠØ®Ø§ÙĦØ¯": 2533,
      "Ø¬Ø§ØŃ": 2534,
      "ÙĤØ¯ÙħØ©": 2535,
      "ĠÙĪØ§ÙĦÙħÙĨ": 2536,
      "Ø±ÙĬØ³": 2537,
      "Ø¨ÙĬÙĩ": 2538,
      "ĠØ§ÙĦØŃÙĥÙħ": 2539,
      "ĠÙĩØ¯Ùģ": 2540,
      "Ø«Ø§Ø±": 2541,
      "ĠØ´Ø¹Ø¨": 2542,
      "ĠØ¹ÙĬØ¯": 2543,
      "12": 2544,
      "19": 2545,
      "ĠÙĪØ§ÙĤ": 2546,
      "ĠØ¯Ø®ÙĦ": 2547,
      "ĠÙĥØ§ÙĨÙĪØ§": 2548,
      "ĠØ§ÙĦØ§ÙĨØªØ®": 2549,
      "Ø§Ø¨Øª": 2550,
      "ĠØ§ÙĦÙħØ®ØªÙĦÙģØ©": 2551,
      "Ø§Ø±Ùī": 2552,
      "ĠÙĨØ§Ø¯Ùī": 2553,
      "Ġ2016": 2554,
      "Ø§ØŃØ¸": 2555,
      "ĠØ±Ø¬ÙĦ": 2556,
      "Ø¤ÙĦØ§Ø¡": 2557,
      "Ø°ÙĩØ¨": 2558,
      "ĠØ¨ÙĪØ§Ø³": 2559,
      "ĠÙĥÙĦØ§Ùħ": 2560,
      "ĠÙĪÙħØ´": 2561,
      "ĠØ¨ÙĦØº": 2562,
      "ĠÙħØ§Øª": 2563,
      "Ø²ÙĪØ¬": 2564,
      "ĠØ§ÙĦØ³Ø¨Øª": 2565,
      "ĠØ§ÙĦÙĥÙĩØ±Ø¨": 2566,
      "Ø¬Ø±Ø©": 2567,
      "ĠØ§ÙĦØ¯ÙģØ§Ø¹": 2568,
      "ĠØ¸ÙĦ": 2569,
      "ĠÙħÙĦÙģ": 2570,
      "ĠØ£ÙĨÙĪØ§Ø¹": 2571,
      "ĠØ§ÙĦÙĤÙĦØ¨": 2572,
      "ĠØ£ÙĥØ¯": 2573,
      "ÙĬÙĬ": 2574,
      "Ø·Ø§Ø¡": 2575,
      "ĠØ§ÙĦØ¥ÙĦÙĥØªØ±": 2576,
      "ĠØ¬ÙĨÙĪØ¨": 2577,
      "ÙĬØ¦Ø©": 2578,
      "ĠØ¨Ø³ÙĬ": 2579,
      "ĠØªÙĩ": 2580,
      "Ø¹ÙĦÙĬÙħ": 2581,
      "ĠÙħØ¹ÙĦÙĪÙħØ§Øª": 2582,
      "ĠØ§ÙĦÙĤÙĬØ§Ùħ": 2583,
      "Ġ24": 2584,
      "ĠØ¨ÙĬØ±": 2585,
      "Ø§ØŃØ¯": 2586,
      "ĠØ§ÙĦØ§Ø¯": 2587,
      "ĠØªØº": 2588,
      "ĠØ·Ø§ÙĦØ¨": 2589,
      "ĠØ§ÙĦÙĪØŃ": 2590,
      "ĠÙģÙĤØ§ÙĦ": 2591,
      "Ø¦Ø§": 2592,
      "ĠØ¯Ùī": 2593,
      "Ø¹Ø§ÙĬØ©": 2594,
      "ĠØ§ÙĦØ¹ÙħÙĦÙĬØ©": 2595,
      "ÙħÙĩ": 2596,
      "ĠØ§ÙĦØ´ÙħØ§ÙĦ": 2597,
      "ĠØ§ÙĦØ®ÙĦÙĬØ¬": 2598,
      "ĠÙĪÙĬÙħÙĥÙĨ": 2599,
      "ĠØªØ³Ùħ": 2600,
      "Â»ØĮ": 2601,
      "ĠØ£Ø´ÙĩØ±": 2602,
      "ĠÙħØ±Øª": 2603,
      "ĠØŃØ±ÙĥØ©": 2604,
      "ĠØ§ÙģØ¶ÙĦ": 2605,
      "ĠÙĥÙħØ§ÙĨ": 2606,
      "Ø¨Ø±Ùī": 2607,
      "ĠØ¹ÙĦØ§Ø¬": 2608,
      "ĠØ¨Ø´Ø±": 2609,
      "ĠØ¨Ø§Øª": 2610,
      "ØµØ¨": 2611,
      "ĠÙĦÙĦØ³": 2612,
      "ĠØ¶Ø±": 2613,
      "ĠØ§ÙĦØ¬Ø§Ùħ": 2614,
      "Ø§ÙħÙĬØ©": 2615,
      "Ø¨ÙĦØ©": 2616,
      "ĠØ§ÙĦØ£Ø³Ø¨ÙĪØ¹": 2617,
      "Ġand": 2618,
      "ÙĪÙĩØ§": 2619,
      "ĠÙĪØ£Ø´Ø§Ø±": 2620,
      "ĠÙĪØ¨Ø§ÙĦ": 2621,
      "ÙĪØ±Ùĩ": 2622,
      "ĠÙħØŃØª": 2623,
      "ĠØ§ÙĦØ¯ÙĨÙĬØ§": 2624,
      "ĠØµØ§ÙĦØŃ": 2625,
      "Ø¦Ø§Ø³Ø©": 2626,
      "Ø±ÙĬÙĨ": 2627,
      "ØŃÙĬÙĨ": 2628,
      "ĠØ¨ÙĨÙģØ³": 2629,
      "ĠÙĦÙĬÙĩ": 2630,
      "Ø¨Ø¹Ø¶": 2631,
      "ĠØ§ÙĦØ·ÙĦØ§Ø¨": 2632,
      "ĠÙħØ¯Ø±": 2633,
      "ĠØ§ÙĦØ£Ø±Ø¨Ø¹": 2634,
      "ĠØ§ÙĦØ«ÙĦØ§Ø«Ø§Ø¡": 2635,
      "ÙĪØµØ§": 2636,
      "ĠÙģÙĦØ³Ø·ÙĬÙĨ": 2637,
      "ĠØ±Ø¤": 2638,
      "ĠÙĪØ§Ø´": 2639,
      "Ø¨Ø³": 2640,
      "Ø±ÙĪØ·": 2641,
      "ĠØ·ÙĪÙĦ": 2642,
      "ØªØ§": 2643,
      "ĠÙĪØ¢": 2644,
      "ĠØ§ÙĦÙħÙĪØ§Ø¯": 2645,
      "ĠÙĪØ§ÙĦÙĦÙĩ": 2646,
      "ĠØ§ÙĦÙĥØ±Ø©": 2647,
      "ĠØ¯ÙĬÙĨ": 2648,
      "Ø³Ùī": 2649,
      "ĠØ¹ÙħÙĦÙĬØ§Øª": 2650,
      "ĠÙħØ±Ø¶": 2651,
      "Ø¹ÙĬÙĨ": 2652,
      "200": 2653,
      "ĠØ§ÙĦØ³ÙĬÙĨ": 2654,
      "ĠØ®Ø¨Ø±": 2655,
      "ÙĬÙģØ§": 2656,
      "ĠÙĨØŃÙĨ": 2657,
      "ĠØ§ÙĦÙĨÙģØ³": 2658,
      "Ø¨Ø±Ø§ÙĩÙĬÙħ": 2659,
      "ĠØ¨Ø¯Ø£": 2660,
      "ÙĪÙĬØ§": 2661,
      "ĠØ¨Ø¯Ø£Øª": 2662,
      "ĠØ§ÙĦÙĬÙĩ": 2663,
      "ÙħÙī": 2664,
      "ÙĦÙĦ": 2665,
      "Ø²ÙĬÙĨ": 2666,
      "Ø§Ø¦ÙĬÙĦÙĬ": 2667,
      "ĠØ¨Ø§ÙĦØ¯": 2668,
      "ĠØ§ÙĦØ²Ø±": 2669,
      "ĠØ§ÙĦÙħÙĨØ§Ø·ÙĤ": 2670,
      "Ġ199": 2671,
      "ĠØ£Ùĩ": 2672,
      "ĠØ±ÙģØ¶": 2673,
      "Ø§ÙĦØ§": 2674,
      "ĠØ£ÙĤÙĦ": 2675,
      "ir": 2676,
      "ĠØ¨ÙĩØ¯Ùģ": 2677,
      "Ø§Ø¨Ø¯": 2678,
      "ĠØ§ÙĦÙĨØ§Ø±": 2679,
      "ĠØ£ÙĦÙħ": 2680,
      "ĠØ®Ø¯ÙħØ§Øª": 2681,
      "ĠØ§ÙĦÙĪØ·ÙĨ": 2682,
      "ĠÙħØ«ÙĦØ§": 2683,
      "ĠV": 2684,
      "ĠÙĥØ§Ùħ": 2685,
      "ĠÙĤØ·Ø§Ø¹": 2686,
      "ĠØ§ÙĦÙħÙĥ": 2687,
      "Ø§Ø¯ÙĤ": 2688,
      "Ø§Ø²ÙĦ": 2689,
      "ĠØ¨ÙĬØ§ÙĨ": 2690,
      "ĠØ¨ÙĪØ§Ø³Ø·Ø©": 2691,
      "ĠØ§ÙĦØ¹ÙĦØ§Ø¬": 2692,
      "ĠÙĤØ§Ø¦ÙĦØ§": 2693,
      "ĠØ§ÙĦÙĤØ±Ø¢ÙĨ": 2694,
      "ĠØªØŃØ¯ÙĬØ¯": 2695,
      "ÙĥÙĦÙħ": 2696,
      "ĠÙĬÙĨØª": 2697,
      "Ø§ÙĨØ¯": 2698,
      "ĠØ§ÙĦÙĤØµ": 2699,
      "ĠØ§ÙĦØŃØ§ÙĦÙĬ": 2700,
      "ĠØ¨ÙĦØ¯": 2701,
      "ĠØ¥Ø³Ø±Ø§Ø¦ÙĬÙĦ": 2702,
      "ĠØ§ÙĦÙĪØ±": 2703,
      "ig": 2704,
      "Ø§ÙĪÙĦØ©": 2705,
      "ĠØ¨Ø£ÙĨÙĩ": 2706,
      "hats": 2707,
      "ĠØ¹Ø§ÙĦÙĬØ©": 2708,
      "ĠØ§ÙĦØµØŃØ©": 2709,
      "ĠÙħØŃØ§ÙģØ¸Ø©": 2710,
      "ØµÙĦØ§ØŃ": 2711,
      "ĠÙĪØ¹ÙĨØ¯": 2712,
      "ÙĪÙĦØ¯": 2713,
      "Ø±ÙĬØª": 2714,
      "ĠØªÙĨÙģÙĬØ°": 2715,
      "ĠÙĬØŃØª": 2716,
      "ĠØ§ÙģÙĦØ§Ùħ": 2717,
      "ĠØ¬Ø¹ÙĦ": 2718,
      "Ø§Ø¦Ø²Ø©": 2719,
      "ĠÙħÙĥØª": 2720,
      "ĠØ§ÙĦØ¬ÙħÙĬØ¹": 2721,
      "ĠØ§ÙĦÙħØ³Ø¤ÙĪÙĦ": 2722,
      "ĠÙĩØª": 2723,
      "Ø±ÙĬØ¨Ø©": 2724,
      "ĠØ§ÙĦØ¯Ø¹": 2725,
      "Ø³Ø§": 2726,
      "ĠØ¨ÙĩØ°Ø§": 2727,
      "ĠØ§Ø±ØªÙģØ§Ø¹": 2728,
      "ÙħÙħ": 2729,
      "ĠÙĪØºÙĬØ±ÙĩØ§": 2730,
      "Ø§Ø¦Ø¹Ø©": 2731,
      "ĠØ¬ÙħØ§ÙĦ": 2732,
      "ĠÙħÙĬÙĦ": 2733,
      "Ø§Ø¶ÙĬØ¹": 2734,
      "ĠÙĦØ§Ø²Ùħ": 2735,
      "ĠØ³Ø§Ø¨ÙĤ": 2736,
      "ĠÙĨØ²": 2737,
      "ĠØŃØ¬Ùħ": 2738,
      "ĠØ§ÙĦØ³ÙĪØ¯Ø§ÙĨ": 2739,
      "ĠÙĪØ§ÙĦØ±": 2740,
      "ĠØ§ÙĦØ·Ø¨": 2741,
      "Ø±ÙģØ¹": 2742,
      "ĠÙĦØº": 2743,
      "Ø¹Ø±Ø§Ø¶": 2744,
      "ĠØ¯Ø¹Ùħ": 2745,
      "ĠØ§ÙĦÙħÙĨØªØ®Ø¨": 2746,
      "ĠØ§ÙĦÙģØ±ÙĤ": 2747,
      "ec": 2748,
      "ÙħØ¯ÙĬÙĨØ©": 2749,
      "ĠØ§ÙĦØ£Øº": 2750,
      "ĠØ¨Ø§ÙĦØ³": 2751,
      "ĠØ¹Ø§ÙĬØ²": 2752,
      "ĠØ¨Ø§ÙĦØ´": 2753,
      "ĠØ¹Øµ": 2754,
      "ĠÙĪØ³Ø§Ø¦ÙĦ": 2755,
      "ĠØ³Ø¨ÙĬÙĦ": 2756,
      "ĠÙĪÙĬØ±": 2757,
      "Ø´Ø±Ø§Øª": 2758,
      "ĠØ³Ø¨Ø¨": 2759,
      "........": 2760,
      "ĠØ¨Ø³Ø±": 2761,
      "ĠØ§ÙĦØ¨Ø¹Ø¶": 2762,
      "ÙĪØ²ÙĬØ¹": 2763,
      "ĠÙĪØº": 2764,
      "Ø¨ÙĬÙĪØªØ±": 2765,
      "ĠØ³Ø¹ÙĬØ¯": 2766,
      "ĠØ³ÙĬÙĨ": 2767,
      "Ø§ÙĦÙĬØ§": 2768,
      "ĠØ§Ùī": 2769,
      "ĠØ§ÙĦØ¥Ø³": 2770,
      "ĠØ´ÙħØ§ÙĦ": 2771,
      "ĠØ´ÙĩØ¯": 2772,
      "ĠØ¹Ø±Ùģ": 2773,
      "ĠØ¨ÙĪÙĥ": 2774,
      "ĠØ§ÙĦØ¬Ø±": 2775,
      "ĠØºØ²Ø©": 2776,
      "ĠØ§ÙĦØ·Ø±ÙĬÙĤ": 2777,
      "ĠÙĬÙĪØ³Ùģ": 2778,
      "ĠØ¥ÙĦ": 2779,
      "Ø°ÙĬØ©": 2780,
      "Ø¨ÙĪ": 2781,
      "----------------": 2782,
      "ĠØ¹ÙĬÙĨ": 2783,
      "ĠØŃÙĬØ§Ø©": 2784,
      "Ø¨ÙĬØª": 2785,
      "ĠØ¶Ø¹": 2786,
      "ĠØ£Ùī": 2787,
      "ĠØ§ÙĦØ¬Ø§ÙħØ¹Ø©": 2788,
      "un": 2789,
      "ĠØ§ÙĦØ®Øµ": 2790,
      "âĢĿØĮ": 2791,
      "50": 2792,
      "Ø±Ø¨Ø¹Ø©": 2793,
      "ĠØ§ØŃÙħØ¯": 2794,
      "ĠÙĪØªÙĤ": 2795,
      "Ø±ÙĬØ¹": 2796,
      "ĠØ¥ÙĦÙĬÙĩØ§": 2797,
      "Ø±ÙĬØ§Øª": 2798,
      "ĠØ§ÙĦØŃÙħÙĦ": 2799,
      "Ø¨Ø±Ø²": 2800,
      "ĠØŃÙĪØ§ÙĦÙĬ": 2801,
      "Ø¹Ø§Ø¯": 2802,
      "ĠØ§ÙĦØŃØ³": 2803,
      "ÙħØªØ§Ø²": 2804,
      "ur": 2805,
      "Ġ2014": 2806,
      "ĠØ§ÙĦÙħØ·ÙĦ": 2807,
      "ĠØ¨Ø´Ø£ÙĨ": 2808,
      "ĠÙħØ´ÙĬØ±Ø§": 2809,
      "ĠÙħÙĪØ§ÙĤØ¹": 2810,
      "ĠØ§ÙĦØªØ·Ø¨ÙĬÙĤ": 2811,
      "ĠØ³ÙĦÙĬÙħ": 2812,
      "ĠØ§ÙĦØ£Ùģ": 2813,
      "ĠØ§ÙĦÙĨØ¸Ø±": 2814,
      "ĠØªØŃØ¯Ø«": 2815,
      "ĠØ§ÙĦÙħÙĬØ§Ùĩ": 2816,
      "ĠØ§Ø®ØªÙĬØ§Ø±": 2817,
      "ĠÙģØ¥ÙĨÙĩ": 2818,
      "ĠÙĦÙħÙĪ": 2819,
      "ĠØ§ÙĦÙħØ³ÙĬ": 2820,
      "ÙĬØ§Ø¨": 2821,
      "Ø±Ø§Ø¡Ø©": 2822,
      "ÙĬØ§ÙĨØ©": 2823,
      "ÙĬÙħÙĬ": 2824,
      "ĠÙĪÙĬØ³": 2825,
      "ĠØ¨Ø°ÙĦÙĥ": 2826,
      "ÙĬÙĦÙĩ": 2827,
      "ew": 2828,
      "ĠØ§Ø®Øª": 2829,
      "ĠØ§ÙĦØ§Ø¬ØªÙħØ§Ø¹ÙĬ": 2830,
      "ĠÙĬÙĨØ§": 2831,
      "Ø¤ÙĪÙĨ": 2832,
      "ĠØ§ÙĦØ´Ø®ØµÙĬØ©": 2833,
      "ĠØ§ÙĦÙģÙĬØ¯ÙĬÙĪ": 2834,
      "ĠØµØŃÙĬÙģØ©": 2835,
      "ÙĬØ±ÙĥÙĬØ©": 2836,
      "ĠÙĤÙħ": 2837,
      "ĠØ¨ÙĨØ§Øª": 2838,
      "ĠÙħØ´ÙĥÙĦØ©": 2839,
      "Ø±Ø¬Ø¹": 2840,
      "ÙĪÙħÙĬ": 2841,
      "ĠØ®ÙĬØ±": 2842,
      "Ø§Ø±Ø§": 2843,
      "ĠÙĪØ§ÙĦØ°": 2844,
      "ÙĪØ±Øª": 2845,
      "ĠÙĬØ¨": 2846,
      "ĠØ¨ØŃÙĬØ«": 2847,
      "ĠØ¨ÙĩØ°Ùĩ": 2848,
      "ĠØ§ÙĦÙħØ§Ø¶ÙĬØ©": 2849,
      "Ø¨Ø§Ø·": 2850,
      "ĠÙĬØ°ÙĥØ±": 2851,
      "ĠÙĤÙĦÙĬ": 2852,
      "Ø¬Ø§Øª": 2853,
      "ĠØ¥Ø·Ø§Ø±": 2854,
      "Ġ2013": 2855,
      "ĠØ§ÙĦÙħÙĥØ§ÙĨ": 2856,
      "ĠØ§ÙĦØ£ÙĦÙħ": 2857,
      "Ø¥Ø°Ø§": 2858,
      "Ø§Ø´Ø©": 2859,
      "ĠÙĬÙĨØ§ÙĬØ±": 2860,
      "ĠØ§ÙĦÙħØ±ØŃÙĦØ©": 2861,
      "ĠÙĬØŃØ¯Ø«": 2862,
      "ĠØ¹Ø¶ÙĪ": 2863,
      "ĠØ´Ø¹Ø±": 2864,
      "ĠØ§ÙĦÙĤØ±Ø§Ø±": 2865,
      "ĠÙĪÙĩÙī": 2866,
      "ĠÙĤØ§ÙħØª": 2867,
      "ĠÙĨÙģØ³ÙĩØ§": 2868,
      "Ø§Ø¨Ø³": 2869,
      "Ø§Ø¦Ø©": 2870,
      "ØªÙĦØ§Ùģ": 2871,
      "ĠØ§ÙĦÙĦÙĤØ§Ø¡": 2872,
      "ĠØ§ÙĦØ¥ÙĨØªØ±ÙĨØª": 2873,
      "ĠØ§ÙĦØ¥ÙħØ§Ø±Ø§Øª": 2874,
      "ĠÙĦØ¬": 2875,
      "ÙĬÙĦØ§Øª": 2876,
      "ÙĦÙĬÙĥ": 2877,
      "ation": 2878,
      "Ġhttp": 2879,
      "ĠØ§ÙĦØ£Øµ": 2880,
      "ĠÙĪÙħÙĪ": 2881,
      "ĠØ§ÙĦØªØ±Ø¨ÙĬØ©": 2882,
      "ĠÙĦÙĦÙħÙĨ": 2883,
      "Ø¯ÙĬÙĪ": 2884,
      "ĠØªÙħØª": 2885,
      "ĠØ§Ø®Ø±": 2886,
      "ĠØ£Ø³Ø§Ø³": 2887,
      "ĠØªØºÙĬÙĬØ±": 2888,
      "ĠØ§ÙĦÙħÙĦÙģ": 2889,
      "Ø³ØªØ§Ø°": 2890,
      "ĠØ§ÙĦØ¥Ø±ÙĩØ§Ø¨": 2891,
      "ÙĥÙĨÙĪÙĦÙĪØ¬": 2892,
      "Ġ2011": 2893,
      "ĠÙĤØ§Ø¦ÙħØ©": 2894,
      "Ø§Ø¬Ùħ": 2895,
      "ĠÙģÙĩÙħ": 2896,
      "ĠØªÙĤÙĪÙĦ": 2897,
      "ĠØ§ÙĦÙħÙĪØ³": 2898,
      "ÙĦÙĬØ¨": 2899,
      "Ø³ØªØ®Ø¯Ùħ": 2900,
      "ÙĦØ¨ÙĬØ©": 2901,
      "ĠÙĤØ·": 2902,
      "ĠØ·ÙĪÙĬÙĦØ©": 2903,
      "ĠÙĦØ¯ÙĬÙĨØ§": 2904,
      "ĠØ¥ÙĨÙĩØ§": 2905,
      "ĠÙħØµØ§Ø¯Ø±": 2906,
      "Ø±ÙĬØŃØ§Øª": 2907,
      "Ø¶Ø§ÙĬØ§": 2908,
      "ÙģØ§Ø¸": 2909,
      "ĠÙĪØ§ÙĦØ§Ø³Øª": 2910,
      "ĠÙĥÙĦÙĩØ§": 2911,
      "ĠØ§ÙĦØ´ÙħØ³": 2912,
      "ĠØ¨ÙĦØ§": 2913,
      "Ø£ÙĬ": 2914,
      "op": 2915,
      "ĠÙĪØ§ÙĦØ·": 2916,
      "ĠÙĦÙĦØ®": 2917,
      "Ġ2015": 2918,
      "Ø§Ø¨ÙĬ": 2919,
      "ĠÙĦÙĦÙħÙĪ": 2920,
      "ĠØ³ÙĬØ±": 2921,
      "ĠÙĦÙĦØº": 2922,
      "ÙĪØ¨Ø§Øª": 2923,
      "ĠØ³ÙĬÙĥÙĪÙĨ": 2924,
      "Ø§Ø²ÙħØ©": 2925,
      "ĠÙĪØ§ÙĦÙħÙĪ": 2926,
      "ÙĥØ±Ø§": 2927,
      "Ø±ÙĬÙĤÙĬØ§": 2928,
      "ĠØ§ÙĦÙħØ´Ø§Ø±ÙĥØ©": 2929,
      "ĠÙħØªÙĨ": 2930,
      "Ø§ÙĦØ£": 2931,
      "Ø§Ø¨Ø§": 2932,
      "ĠØ¹ÙĦÙĬÙĥÙħ": 2933,
      "Ø³Ø¯": 2934,
      "ĠØ¨Ø§ÙĦÙĦ": 2935,
      "ĠØŃÙħÙĦ": 2936,
      "ĠØªØµÙĦ": 2937,
      "ØªÙĦØ§ÙĦ": 2938,
      "Ø°Ùĥ": 2939,
      "ĠÙĦÙĦÙĥ": 2940,
      "Ġ2012": 2941,
      "30": 2942,
      "ĠØªØ¹ØªØ¨Ø±": 2943,
      "ĠÙĬØ±ÙĬØ¯": 2944,
      "ÙĬÙħØ§ÙĨ": 2945,
      "ĠÙĩÙĬØ¦Ø©": 2946,
      "ĠÙĤØµØ©": 2947,
      "Ø§Ø¹Ùĩ": 2948,
      "ĠØ§ÙĦÙħØ¹Ø§Ø±": 2949,
      "ĠØ§ÙĦÙĨÙĪ": 2950,
      "im": 2951,
      "ĠØµØºÙĬØ±Ø©": 2952,
      "ĠØ«ÙĤ": 2953,
      "ĠØ¨Ø±Ø§ÙħØ¬": 2954,
      "ĠØ±Ø³Ø§ÙĦØ©": 2955,
      "ĠØ§ÙĦØ¯ÙĪØ±Ùī": 2956,
      "ĠÙĥØ«ÙĬØ±Ø©": 2957,
      "ĠØ§ÙĦØ§Ø¬ØªÙħØ§Ø¹ÙĬØ©": 2958,
      "ĠØ§ÙĦØŃÙĤÙĬÙĤ": 2959,
      "ĠÙĩØ¤ÙĦØ§Ø¡": 2960,
      "ĠØ§ÙĦÙĤØ±ÙĨ": 2961,
      "ĠØ³Ø§Ø¹Ø§Øª": 2962,
      "ĠÙĪØ¹ÙĨ": 2963,
      "ĠØ§ÙĦÙħØ´Ø±ÙĪØ¹": 2964,
      "Ø±Ø±": 2965,
      "ÙĥÙĬØ¯": 2966,
      "ĠØ¯ÙģØ¹": 2967,
      "ĠØ§ÙĦØ¹Ø¶": 2968,
      "ÙĪÙĬÙĩ": 2969,
      "ĠÙĥÙĦÙĩ": 2970,
      "ĠØ§ÙĦØ¹Ø§ØµÙħØ©": 2971,
      "ĠØ¥Ø³Øª": 2972,
      "ĠØ§ÙĦÙħØ¯Ø±Ø³Ø©": 2973,
      "ĠÙĬÙĩ": 2974,
      "ØŃÙĩ": 2975,
      "Ø¹Ø±Ùģ": 2976,
      "ĠØ¨ÙĤÙĬ": 2977,
      "ĠØ§ÙħØ±": 2978,
      "ĠØ§ÙĦØµØŃÙĬØ©": 2979,
      "ĠØ¥Ø¯": 2980,
      "ÙĨØ¨": 2981,
      "ĠØ§ÙĦØµÙĪØ±Ø©": 2982,
      "Ø³ÙĦØ©": 2983,
      "ĠØ¹Ø§Ø±Ùģ": 2984,
      "ĠØ§ÙĦØªØ¹Ø§ÙĪÙĨ": 2985,
      "ĠØ§ÙĦÙĨÙĪØ¹": 2986,
      "ĠÙĨØ¬Ø§ØŃ": 2987,
      "ĠÙĬØµÙĦ": 2988,
      "ĠØ§ÙĦØªØ§ÙĦÙĬØ©": 2989,
      "Ø¹ÙĪ": 2990,
      "Ø±ÙĬÙĥØ§": 2991,
      "ØµØ§ÙĦØ§Øª": 2992,
      "Ø±ÙĬØ¯Ø©": 2993,
      "ĠØ§ÙĦØ£ÙħÙĬØ±": 2994,
      "ĠÙĨØ¨": 2995,
      "ĠØ¥Ø¨Ø±Ø§ÙĩÙĬÙħ": 2996,
      "ĠØ§ÙħØ§": 2997,
      "Ø§Ø¬Ø¯": 2998,
      "ĠÙĪÙĩÙħ": 2999,
      "ĠÙĦÙĤØ§Ø¡": 3000,
      "ĠØ§ÙĦØ£ÙħÙħ": 3001,
      "ĠÙĥØ£Ø³": 3002,
      "Ø®Ø±Ø§Ø¬": 3003,
      "ĠØ§ÙĦÙĦØ¨ÙĨ": 3004,
      "ĠØ§ÙĦØµØ¯": 3005,
      ".\"": 3006,
      "ÙĪÙĨØ§Øª": 3007,
      "ĠØªØŃÙħÙĦ": 3008,
      "ÙĬØ§Ø±Ø§Øª": 3009,
      "ĠØŃØµ": 3010,
      "ĠØ§ÙĦÙģÙĨÙī": 3011,
      "Ø¹ÙĦÙĨØª": 3012,
      "ĠØ§ÙĦØ§ØªØµØ§ÙĦ": 3013,
      "ĠÙĨØµÙģ": 3014,
      "ĠØ¨ÙĨØ³": 3015,
      "ĠØ§ÙĦÙħØŃÙĦÙĬØ©": 3016,
      "ĠØµÙĪØª": 3017,
      "ĠØ§ÙĦØ¥Ø¯Ø§Ø±Ø©": 3018,
      "ĠÙĨØªØ§Ø¦Ø¬": 3019,
      "ÙĪØ¬ÙĬÙĩ": 3020,
      "ÙĩØ±Ø¬Ø§ÙĨ": 3021,
      "ĠØ¥ØŃ": 3022,
      "ÙĪØ±Ùī": 3023,
      "ĠÙĪÙĦØ¯": 3024,
      "ĠØ§ÙĦØ¥ÙĤ": 3025,
      "Ø±ÙĬØ§": 3026,
      "ĠÙĪØŃØªÙī": 3027,
      "ÙĥÙĬÙĨ": 3028,
      "ĠÙĬÙĪÙĨ": 3029,
      "ÙĤØ±Ø§Ø·": 3030,
      "ĠØ§ÙĦØ§Ø«ÙĨÙĬÙĨ": 3031,
      "Ø´Ø§Ùģ": 3032,
      "Ø±ÙĬÙĦ": 3033,
      "ÙħÙĪØ¹": 3034,
      "Ø±ÙĬÙħØ©": 3035,
      "Ø§ÙģØŃØ©": 3036,
      "ÙĩÙĪÙĦØ©": 3037,
      "ĠÙĦÙĦØ·": 3038,
      "ĠØ§ÙĦØ¨Ø±ÙĬØ·": 3039,
      "ĠÙħØµØ·ÙģÙī": 3040,
      "ĠÙģÙĩÙĬ": 3041,
      "Ġ100": 3042,
      "Ø¬ÙĦÙĬØ²ÙĬØ©": 3043,
      "ĠK": 3044,
      "ĠÙĥÙĪÙĨ": 3045,
      "ĠØ¥ØŃØ¯Ùī": 3046,
      "ĠÙĤØ¨": 3047,
      "ĠÙĦØ¨ÙĨØ§ÙĨ": 3048,
      "www": 3049,
      "ĠØ§ÙĦØ·Ø±ÙĬÙĤØ©": 3050,
      "ĠØªØ·ÙĪÙĬØ±": 3051,
      "14": 3052,
      "ia": 3053,
      "ÙĨØ¯ÙĪÙĤ": 3054,
      "ĠØ¨Ø§Ø³ØªØ®Ø¯Ø§Ùħ": 3055,
      "Ø§ØªÙĩÙħ": 3056,
      "ØªØ±Ùģ": 3057,
      "ĠÙħØ¯Ùī": 3058,
      "ÙĩØ§Ø±": 3059,
      "ĠØ§ÙĦØ³ÙĪØ±ÙĬØ©": 3060,
      "ØªÙĤØ§ÙĦ": 3061,
      "Ø±ÙĬÙĩ": 3062,
      "ĠØ§ÙĦÙĨØ´": 3063,
      "Ø¸Ø§ÙĩØ±": 3064,
      "ĠØ§ÙĦÙĥØ±": 3065,
      "ĠØ§ÙĦÙħØ´ÙĥÙĦØ©": 3066,
      "Ø¨Ø±Ø©": 3067,
      "ĠØ£Ø±Ø¶": 3068,
      "ĠØ§ÙĦØ¬Ø²Ø¡": 3069,
      "Chat": 3070,
      "Ø³ÙħØ§Ø¡": 3071,
      "ĠØ£Ø¹ÙĦÙī": 3072,
      "ÙĪÙĬØ¯": 3073,
      "ÙħØ§ÙĩÙĬØ±": 3074,
      "ĠØ±ÙĪØ³": 3075,
      "ĠØ§ÙĦØªØ§ÙĦÙĬ": 3076,
      "Ġ....": 3077,
      "ĠÙĪØ¥Ø°Ø§": 3078,
      "ĠØ§ÙĦÙĪØ§ÙĤØ¹": 3079,
      "ĠØŃØ²Ø¨": 3080,
      "ĠØ§ÙĦØ£Ø±Ø¨Ø¹Ø§Ø¡": 3081,
      "ĠØ¨Ø§Ø¹": 3082,
      "Ø§Ø¬ÙĦ": 3083,
      "eb": 3084,
      "ĠØ§ÙĦØŃØ¯ÙĪØ¯": 3085,
      "ĠØ§ÙĦØ£Ùĥ": 3086,
      "ĠØ§ÙĦØ¹Ø²ÙĬØ²": 3087,
      "ĠÙĬØ¬Ø¹ÙĦ": 3088,
      "ĠØ§ÙĦÙĪØ²Ø§Ø±Ø©": 3089,
      "ÙģØ§Ùģ": 3090,
      "Ø¹ÙĨ": 3091,
      "ØªØ¯Ø§Ø¡": 3092,
      "ÙĦØ§ÙĬÙĬÙĨ": 3093,
      "ĠÙĬØº": 3094,
      "ĠÙĨØ§Ø³": 3095,
      "ĠØ§ÙĦÙĨØ§Ø¯Ùī": 3096,
      "hatsChat": 3097,
      "ĠÙħÙĨØ¸ÙħØ©": 3098,
      "ĠØ¹ÙĦÙĬÙĨØ§": 3099,
      "ĠØ§ÙĦØ¨ÙĬØ§ÙĨØ§Øª": 3100,
      "ĠÙħÙĦÙĥ": 3101,
      "ĠØ³Ø¬ÙĦ": 3102,
      "Ø¯Ø§Ø¡": 3103,
      "ĠØ¨Ø«": 3104,
      "ĠØ§ÙĦÙħØ§Ø¯Ø©": 3105,
      "ĠØ§ÙĦØ£ÙĦ": 3106,
      "ĠÙĦÙĦØ¬": 3107,
      "ĠØ¥ÙĬÙĩ": 3108,
      "ĠØ®ÙĦÙĤ": 3109,
      "ØªØ±Ø§": 3110,
      "ÙĨØ³Ø§": 3111,
      "ĠÙħØ¨Ø§Ø´Ø±": 3112,
      "ĠÙĪÙħØ±": 3113,
      "Ø·ØŃ": 3114,
      "Ø²ÙĨ": 3115,
      "ĠÙĪØ§ÙĦØ¨": 3116,
      "ĠØ³ÙĦØ§Ùħ": 3117,
      "Ø§Ø¬Ø¦": 3118,
      "ĠØ£Ø¹Ø¶Ø§Ø¡": 3119,
      "ĠÙĪØ§": 3120,
      "ĠØ§ÙĦÙħØ¹Ø¯": 3121,
      "Ø§ÙħØ±": 3122,
      "ÙģÙĩ": 3123,
      "ĠÙĥÙĦÙħØ§Øª": 3124,
      "Ø±Ø§Ø¹": 3125,
      "ĠÙĪØ¹Ø¯Ùħ": 3126,
      "ĠØ´Ø±ÙĤ": 3127,
      "ĠØ´Ø±ÙĥØ§Øª": 3128,
      "ĠÙĪØ¶": 3129,
      "ĠØ§ÙĦÙĩØ¯Ùģ": 3130,
      "Ø³Ø§Ø¡": 3131,
      "ĠØªØ±ÙĬØ¯": 3132,
      "Ø¶ÙĪØ¹": 3133,
      "ĠÙħÙĦÙĬØ§Ø±": 3134,
      "ĠØ£ÙĩÙħÙĬØ©": 3135,
      "ÙģÙĬØ©": 3136,
      "ĠØŃØ§ÙĪÙĦ": 3137,
      "ØªÙħØ§Ø¯": 3138,
      "ĠØªØ£Ø«ÙĬØ±": 3139,
      "ĠÙħÙĬ": 3140,
      "ĠÙħÙĩÙħ": 3141,
      "ĠØ§ÙĦØ·Ø§ÙĤØ©": 3142,
      "ĠÙħØ¤Ùĥ": 3143,
      "ÙĦØ§ÙĬØ§": 3144,
      "ĠÙĪØ£ÙĨØ§": 3145,
      "ÙĤØ·Ø¹": 3146,
      "ĠÙĪÙģÙĤØ§": 3147,
      "ĠØ§ÙĦÙĪØ¶Ø¹": 3148,
      "Ø§Ø²ÙĬ": 3149,
      "ĠØŃØ³ÙĬÙĨ": 3150,
      "ĠÙĬØ¨ÙĤÙī": 3151,
      "ÙĬØ³Ø©": 3152,
      "ÙĬØ±ÙĬØ©": 3153,
      "Ø§ÙĥØ²": 3154,
      "ĠØ§ÙĦÙĥÙĦØ§Ùħ": 3155,
      "Ø§ØŃØ«": 3156,
      "Ø§ÙĦØ³": 3157,
      "ĠÙħÙĨØªØ®Ø¨": 3158,
      "ĠÙĪØ£ÙĪØ¶ØŃ": 3159,
      "ĠØªØ³ØªØ®Ø¯Ùħ": 3160,
      "ØŃÙĦ": 3161,
      "ĠØ§ÙĦØ¬ÙĪ": 3162,
      "ĠØ§ÙĦÙĥÙħ": 3163,
      "ab": 3164,
      "Ø£ÙĥØ¯": 3165,
      "ØªÙĬØ¨": 3166,
      "ÙĬØ²Ø§Øª": 3167,
      "ĠØ±ÙĬØ§ÙĦ": 3168,
      "ĠØ§ÙĦØ§ÙĤØªØµØ§Ø¯ÙĬØ©": 3169,
      "ĠÙĪØ§ÙĦØªÙī": 3170,
      "ĠØ§ÙĦØ³Ø§Ø¨ÙĤØ©": 3171,
      "ĠØ§ÙĦÙħØ¤ØªÙħØ±": 3172,
      "ĠÙĨÙħÙĪ": 3173,
      "Ø±ÙĬØ¹Ø©": 3174,
      "Ø³Ø±Ø§Ø¦ÙĬÙĦÙĬ": 3175,
      "ĠÙĦØ±": 3176,
      "ĠØ´Ø¨ÙĥØ©": 3177,
      "ĠÙħØ±ØŃÙĦØ©": 3178,
      "Ġ!!": 3179,
      "Ø¯ÙĬÙĨ": 3180,
      "ĠØ³ÙĬØª": 3181,
      "ĠØ§ÙĦØ¹Ø§ÙĦÙħÙĬ": 3182,
      "ÙħØ§Ø±Ø³Ø©": 3183,
      "ĠØ§ÙĦØ£Ø±Ø¯": 3184,
      "ĠØ§ÙĦØ¹ÙĬÙĨ": 3185,
      "ĠÙģÙĥØ±Ø©": 3186,
      "ĠÙĤÙĬÙħØ©": 3187,
      "ĠØ¬ÙħØ¹": 3188,
      "ĠÙĦÙĩØ°Ùĩ": 3189,
      "ĠÙĬÙĪÙħÙĬØ§": 3190,
      "iv": 3191,
      "ĠÙĬØ³ØªØ·ÙĬØ¹": 3192,
      "ĠØ¨ÙħÙĪ": 3193,
      "ĠØ§ÙĦÙģÙĪØ²": 3194,
      "ÙĬØ³ÙĬ": 3195,
      "ĠØ¯ÙĦ": 3196,
      "ĠØ§ÙĦØ¥Ø®": 3197,
      "Ø§ØªÙĬ": 3198,
      "ĠØ¨Ø±Ø¬": 3199,
      "ĠÙħÙĬÙĨ": 3200,
      "ĠØ¹ÙĤØ¨": 3201,
      "ØµØ§Ø±": 3202,
      "ĠØŃÙĤÙĬÙĤ": 3203,
      "ĠØ§ÙĦØµÙĦØ§Ø©": 3204,
      "ĠÙĪØ±Ø¯": 3205,
      "Ġ21": 3206,
      "ĠØ§ÙĦØŃØ±ÙĥØ©": 3207,
      "ØŃØ¯ÙĬØ¯": 3208,
      "Ġto": 3209,
      "Ø®ÙģØ¶": 3210,
      "ĠØ§ÙĦÙĩØ§ØªÙģ": 3211,
      "ĠØ§ÙĦØ¯ÙĤÙĬÙĤØ©": 3212,
      "Ġn": 3213,
      "ĠÙħÙĨØ§Ø·ÙĤ": 3214,
      "ÙĦÙħØ§Øª": 3215,
      "ÙģÙĬØ¯": 3216,
      "ĠÙĦØ§Øª": 3217,
      "ĠØ§ÙĦØºØ±Ø¨": 3218,
      "ĠØ§ÙĦØ¹Ø³ÙĥØ±ÙĬØ©": 3219,
      "ÙĬÙħÙĤØ±Ø§Ø·": 3220,
      "ĠØ§ÙĦÙĥÙĦ": 3221,
      "ĠØ§ÙĦÙĨÙģØ·": 3222,
      "ĠÙĪØ¨Ø§ÙĦØªØ§ÙĦÙĬ": 3223,
      "ĠØ±Ø¬Ø§ÙĦ": 3224,
      "ĠÙħÙĬØ¯": 3225,
      "Ø§Ø¨Ø±": 3226,
      "ĠØ·Ø¨Ø¹Ø§": 3227,
      "ÙĪÙĦÙĬÙĪ": 3228,
      "ĠØ§ÙĦØ³ÙĬØ§Ø³ÙĬ": 3229,
      "ĠØ´Ùĥ": 3230,
      "ĠØ±Ø¨ÙĨØ§": 3231,
      "ĠØ§ÙĦØªÙħ": 3232,
      "Ø®Ø¯ÙħØ©": 3233,
      "ĠØ§ÙĦØªØ¹Ø§ÙħÙĦ": 3234,
      "Ø¸Ø§Ø±": 3235,
      "Ø±ÙģØ¶": 3236,
      "ĠØ§ÙĦØ·Ø±ÙĤ": 3237,
      "ØŃØ§Ø¡": 3238,
      "ĠÙĤÙĪ": 3239,
      "ĠØ¹ÙĦØ§ÙĤØ©": 3240,
      "ĠØ§ÙĦØ³ÙĦØ·Ø©": 3241,
      "ÙĥØªÙĪØ¨Ø±": 3242,
      "ĠØ§ÙĦØ·Ø¹Ø§Ùħ": 3243,
      "ĠØ£Ø³Ø¹Ø§Ø±": 3244,
      "ÙĥØ°Ø§": 3245,
      "ĠÙĪØ§Ø¬": 3246,
      "ĠØ§ÙĦØ£ÙĬØ§Ùħ": 3247,
      "Ø®ØªØ§Ø±": 3248,
      "ĠÙħØ´Ø§ÙĥÙĦ": 3249,
      "ĠØ³ÙĬØªÙħ": 3250,
      "ĠØ§ÙĦÙħØ³ØªØ®Ø¯Ùħ": 3251,
      "ĠIn": 3252,
      "Ø±ÙĬØ§Ø¶": 3253,
      "ers": 3254,
      "ul": 3255,
      "ĠÙĤÙĪØ©": 3256,
      "ĠØ§ÙĦØªØ¯Ø±ÙĬØ¨": 3257,
      "ÙĪØº": 3258,
      "ĠØ§ØªÙģØ§ÙĤ": 3259,
      "Ø§ÙĪØ¶": 3260,
      "ĠØŃØ±Ø¨": 3261,
      "ĠØ§ÙĦØ£Ø±": 3262,
      "ÙĥÙĨØª": 3263,
      "ĠÙĦÙĬØ¨": 3264,
      "ĠÙĨÙĬÙĥ": 3265,
      "ĠØ¯Ø±Ø§Ø³Ø©": 3266,
      "ĠØ§ÙĦØ£ÙĩÙĦÙĬ": 3267,
      "Ø§Ø¦Ø²": 3268,
      "Ø®Ø±Ø§": 3269,
      "Ø²Ø±": 3270,
      "ĠØ¨Ø§ÙĦØ·": 3271,
      "23": 3272,
      "ĠØ¬Ø§ÙĨ": 3273,
      "ĠØªØ³Ø¬ÙĬÙĦ": 3274,
      "ØµÙĬØ¯": 3275,
      "ĠØ£ÙĪÙĦØ§": 3276,
      "ĠØ§ÙĦØ¨ÙĨÙĥ": 3277,
      "ĠÙĪØµÙĪÙĦ": 3278,
      "ĠØ§ÙĦØ£ÙĪØ³Ø·": 3279,
      "ĠØ¹Ø¨Ø§Ø±Ø©": 3280,
      "ĠÙħØ§Ø±": 3281,
      "ĠÙĦØ¹Ø¨": 3282,
      "Ø´Ø·Ø©": 3283,
      "ĠØ§ÙĦÙģÙĨÙĬØ©": 3284,
      "ĠØ£Ø¨ÙĬ": 3285,
      "ĠØ§ÙĦØ¥Ø¯": 3286,
      "ĠØŃØ§ÙĦØ§Øª": 3287,
      "ÙĪØ§ÙĨÙĬÙĨ": 3288,
      "ĠØ§ÙĦØ§ÙĦ": 3289,
      "ĠØ§ÙĦÙĦØ¹Ø¨Ø©": 3290,
      "ĠØ£Ø³Ø±": 3291,
      "Ø´Ø§Ø±Ø©": 3292,
      "ÙĪÙĤØ§Øª": 3293,
      "ĠØ§ÙĦØŃØ§ÙĦØ©": 3294,
      "ĠØ®Ùħ": 3295,
      "ĠØ§ÙĦÙģÙĦØ³Ø·ÙĬÙĨÙĬØ©": 3296,
      "ĠÙħØ§ÙĨ": 3297,
      "ĠØ¥Ø¹Ø§Ø¯Ø©": 3298,
      "ĠØ§ÙĦØ¥Ø¬": 3299,
      "ØŃØ¯ÙĬØ«": 3300,
      "ĠÙģÙĬØ¯ÙĬÙĪ": 3301,
      "ĠØ§ÙĦØ¯Ø±Ø§Ø³Ø©": 3302,
      "ĠØªÙĤØ±ÙĬØ¨Ø§": 3303,
      "ĠØ§ÙĦØ«ÙĪØ±Ø©": 3304,
      "ÙĪØŃØ©": 3305,
      "Ø·ÙĪØ±": 3306,
      "ĠØ¨Ø¹Ø¯ÙħØ§": 3307,
      "ÙĤØ¨Ø§ÙĦ": 3308,
      "ĠØ¨ØŃØ«": 3309,
      "ĠØ§ÙĦØªØ³Ø¬ÙĬÙĦ": 3310,
      "ĠØ¨ÙĨØ³Ø¨Ø©": 3311,
      "ĠÙĦÙĦØ§Ø³Øª": 3312,
      "ĠØ¯ÙĤÙĬÙĤØ©": 3313,
      "ĠØ¨Ø§ÙĦØ¬": 3314,
      "ĠØ§ÙĦØ§Ø³ÙĦØ§Ùħ": 3315,
      "ĠÙħÙĪÙĤÙģ": 3316,
      "Ø®Ø§Ø°": 3317,
      "ĠØµØŃÙĬØŃ": 3318,
      "Ġ50": 3319,
      "ĠØ§ÙĦØ®Ø¯ÙħØ©": 3320,
      "ĠØ§ÙĦÙħØ¨Ø§Ø±": 3321,
      "ĠØ¬ÙĩØ©": 3322,
      "ĠÙĦØªÙĨ": 3323,
      "Ø§Ø±ÙĨØ©": 3324,
      "ĠØ§ÙĦØ§ÙĨØªØ®Ø§Ø¨Ø§Øª": 3325,
      "ĠØ§ÙĦØ³Ø§Ø¨Ø¹": 3326,
      "ĠØ§ÙĦØ±ØºÙħ": 3327,
      "Ø¨Ø¯Ø§": 3328,
      "Ø³ÙĪÙĨ": 3329,
      "ĠØ§ÙĦØ±Ø¦ÙĬØ³ÙĬØ©": 3330,
      "ĠÙĬØ³Ø§Ø¹Ø¯": 3331,
      "ÙĬØ¨Ø©": 3332,
      "ĠÙĨÙģØ³Ùĥ": 3333,
      "ĠØ§ÙĦØ¬Ø²Ø§Ø¦Ø±": 3334,
      "Ø±ÙĬØ©": 3335,
      "ÙĦÙģØ²ÙĬ": 3336,
      "ĠØ§ÙĦØ²ÙĪØ§Ø¬": 3337,
      "ĠØ¢ÙĦ": 3338,
      "ÙģÙĪ": 3339,
      "Ø§ÙĦÙĤ": 3340,
      "Ø¹Ø§ÙħÙĦ": 3341,
      "Ø¶Ø¨": 3342,
      "ex": 3343,
      "ut": 3344,
      "ĠÙħÙĨØªØ¬": 3345,
      "ĠØ§ÙĦØªÙĥ": 3346,
      "ĠÙĤÙĪÙĦ": 3347,
      "ht": 3348,
      "ĠØŃØ±Ùģ": 3349,
      "ĠØªØ¹ÙĦÙħ": 3350,
      "ĠÙģØ±ØµØ©": 3351,
      "ÙĩÙĩÙĩÙĩ": 3352,
      "ĠÙĦØ¹Ø¯": 3353,
      "ĠØ§ÙĨÙĥ": 3354,
      "ĠØ´Ø®ØµÙĬØ©": 3355,
      "os": 3356,
      "Ø¬ÙĦØ©": 3357,
      "ĠÙĥÙĬ": 3358,
      "ĠÙĪØ§ÙĦØº": 3359,
      "ĠÙħØ§Ø±Ø³": 3360,
      "Ø¹ÙĬÙħ": 3361,
      "ĠØ§ÙĦÙĤØ·Ø§Ø¹": 3362,
      "ÙĩØ§Ùħ": 3363,
      "ĠÙĪØ³Øª": 3364,
      "Ø·ÙĤ": 3365,
      "Ø§Ø·ÙĦ": 3366,
      "ÙĪØ§ÙĨØ§Øª": 3367,
      "Ø³Ùĥ": 3368,
      "ÙĨØ³ÙĬÙĤ": 3369,
      "Ġ2017": 3370,
      "ĠØ§ÙĦØ¹Ø±Ø§ÙĤÙĬØ©": 3371,
      "ĠØ§ÙĦØ¹ÙĦØ§ÙĤØ§Øª": 3372,
      "ĠØ¨ØºØ¯Ø§Ø¯": 3373,
      "Ġy": 3374,
      "ĠÙĪÙĩØ°Ùĩ": 3375,
      "ĠØ§ÙĦØ£ÙħÙĪØ±": 3376,
      "ĠÙħÙĤØ±": 3377,
      "ĠØ§ÙĦØ£Ø¨ÙĬØ¶": 3378,
      "ĠØ¨Ø§ÙĦØ±": 3379,
      "ĠØµØºÙĬØ±": 3380,
      "ØªÙħØ¨Ø±": 3381,
      "ĠØ§ÙĪÙĨ": 3382,
      "ĠÙħÙĪØ¹Ø¯": 3383,
      "ĠØ£Ø¹ÙĦÙĨ": 3384,
      "ĠØ§ÙĦØ¬Ø§ÙĨØ¨": 3385,
      "Ø§ÙĦØº": 3386,
      "ĠØ¨ØªØŃ": 3387,
      "ĠØ£ÙĩØ¯Ø§Ùģ": 3388,
      "ĠØ¬Ø§Ùħ": 3389,
      "ÙĥÙĬØ±": 3390,
      "ĠØ§ÙĦØ¬Ø¯": 3391,
      "ĠØ§ÙĦÙĥÙĨ": 3392,
      "ĠØ§ÙĦÙĤØ¨": 3393,
      "ĠÙĥØ¨ÙĬØ±Ø§": 3394,
      "Ø§Ø¬Ø±": 3395,
      "Ø®ØµØµØ©": 3396,
      "ĠÙĬØ¤Ø¯ÙĬ": 3397,
      "Ø¦ÙĦØ©": 3398,
      "ĠÙģÙĪØ²": 3399,
      "ĠÙĦÙĦØ±": 3400,
      "ĠÙĨÙĪØ±": 3401,
      "ĠÙĬÙĪÙħØ§": 3402,
      "ĠØŃÙģÙĦ": 3403,
      "ÙĪØ§Ùĥ": 3404,
      "ĠØ§ÙĦÙħØ³ØªÙĪÙī": 3405,
      "ĠÙĨÙĤØ§Ø·": 3406,
      "our": 3407,
      "Ġ{": 3408,
      "ĠÙĥÙĬÙĦ": 3409,
      "ÙĪÙĬÙĤ": 3410,
      "ĠÙĬÙħÙĨ": 3411,
      "ÙĬÙĩØ§": 3412,
      "ĠØ¨Ø¯Ø±": 3413,
      "ĠÙħÙģØª": 3414,
      "Ø®Ùħ": 3415,
      "Ø§Ø¦ÙĨ": 3416,
      "ĠÙĪØªØ§Ø¨Ø¹": 3417,
      "ĠØ¨Ø·Ø±ÙĬÙĤØ©": 3418,
      "ĠÙĪÙħØ¯": 3419,
      "ĠØ£Øª": 3420,
      "ĠÙĥØ±Ø©": 3421,
      "Ġ22": 3422,
      "ĠÂ·": 3423,
      "ĠÙģØ¹ÙĦØ§": 3424,
      "ĠÙħØ¹Ø¯": 3425,
      "ĠØ§ÙĦÙħØ¬ÙħÙĪØ¹Ø©": 3426,
      "ĠÙģÙħÙĨ": 3427,
      "ĠØ§ÙĦÙħÙĪØ§Ø·ÙĨÙĬÙĨ": 3428,
      "ĠÙģÙĤ": 3429,
      "ĠØªÙĤØ±ÙĬØ±": 3430,
      "ĠØ§ÙĦÙħÙĪØ¬ÙĪØ¯Ø©": 3431,
      "ĠØ¸ÙĩÙĪØ±": 3432,
      "ĠÙĦØŃØ¯": 3433,
      "ĠØªÙĨØª": 3434,
      "ĠØ¥ÙĬØ±Ø§ÙĨ": 3435,
      "ĠØ¬ÙĬØ¯Ø§": 3436,
      "ĠØ±ÙĪØŃ": 3437,
      "ĠÙħØ¨Ø§Ø±ÙĬØ§Øª": 3438,
      "Ġg": 3439,
      "ĠØ¯Ø®ÙĪÙĦ": 3440,
      "ĠÙĪØªØª": 3441,
      "ĠØªØ³Ø§Ø¹Ø¯": 3442,
      "ĠÙħÙĨØ§Ùģ": 3443,
      "ĠØ±Øº": 3444,
      "Ø§Ø¬Ø¹Ø©": 3445,
      "ĠØªÙĤØ¹": 3446,
      "ĠØ§ÙĦÙģÙĨØ§ÙĨØ©": 3447,
      "Ø§Ø³ÙĦ": 3448,
      "Ø«ÙĦØ§Ø«": 3449,
      "ĠØ§ÙĩÙħ": 3450,
      "ÙĥØ±Ùĩ": 3451,
      "um": 3452,
      "ĠØ§ÙĦÙĦØŃ": 3453,
      "ØªÙħÙĬØ²": 3454,
      "ĠØªÙĪÙģÙĬØ±": 3455,
      "Ø§ÙħÙĨ": 3456,
      "ĠØ³Ø¨ÙĤ": 3457,
      "ØªØ±Ø§Ùĥ": 3458,
      "ĠÙĦÙĥÙĬ": 3459,
      "ĠU": 3460,
      "ĠÙħØªØ±Ø¬Ùħ": 3461,
      "Ø§ÙĬÙĦ": 3462,
      "ÙĪØ§ØµÙĦ": 3463,
      "ĠØ§ÙħØ§Ùħ": 3464,
      "ĠØµØ¯ÙĬÙĤ": 3465,
      "ĠÙħÙĨÙĥ": 3466,
      "ĠØ§ÙĦØ³ÙĦØ·Ø§Øª": 3467,
      "ÙĬØ§ÙĦ": 3468,
      "ĠÙĦØ·": 3469,
      "ÙĪØ§ÙħÙĦ": 3470,
      "Ø¶ØºØ·": 3471,
      "Ø¨Ø¹Ø¯": 3472,
      "ØªÙħÙĦ": 3473,
      "ÙĨÙģ": 3474,
      "ĠÙĦØ°Ø§": 3475,
      "Ø§ÙĨØª": 3476,
      "ĠØ¥Ø²": 3477,
      "Ø«ÙĦØ©": 3478,
      "ĠØ¨ØªØ§Ø¹": 3479,
      "ĠØ§ÙĦÙħØ¬Ø§ÙĦ": 3480,
      "ĠÙĪÙĩÙĨØ§Ùĥ": 3481,
      "Ø¬ÙĪØ²": 3482,
      "ĠØ§ÙĦÙĩÙĬØ¦Ø©": 3483,
      "ĠØªØŃØªØ§Ø¬": 3484,
      "ĠØ§Ø®Ø¨Ø§Ø±": 3485,
      "ĠÙĪÙħØ³": 3486,
      "ess": 3487,
      "ĠÙĦÙĥÙĨÙĩ": 3488,
      "ĠÙĦÙĦÙħØ±": 3489,
      "ĠØ´Ø§Ø±Ùĥ": 3490,
      "Ø§Ø·Ø©": 3491,
      "Ø¹ÙĦØ§Ø¬": 3492,
      "ĠÙĦÙħØ§Ø°Ø§": 3493,
      "ĠØ¹ÙħØ±ÙĪ": 3494,
      "ĠÙĦØ§ØŃ": 3495,
      "Ø§Ø¨ÙĦØ©": 3496,
      "ĠÙĨØ§Ø¯ÙĬ": 3497,
      "ĠØªØ¹ÙĦÙĬÙĤ": 3498,
      "ĠØ§ÙĦØ³Ø¨Ø¨": 3499,
      "ĠJ": 3500,
      "Ø§Ùī": 3501,
      "ĠÙħÙĩÙħØ©": 3502,
      "ĠØ§ÙĦØ³Ø§Ø¯": 3503,
      "ÙĨÙĬÙĬÙĨ": 3504,
      "Ø§ÙĦÙĬØ§Øª": 3505,
      "ĠÙĪØ§ÙĦÙħØ±": 3506,
      "Ø®ÙĬØµ": 3507,
      "ĠÙĨÙĪÙģ": 3508,
      "ĠØ®ØµÙĪØµØ§": 3509,
      "ĠÙĪØªØ³": 3510,
      "Ø´ÙĨ": 3511,
      "ĠØ§ÙĦÙĨØª": 3512,
      "ĠØ§ÙĦØ§ÙĨØªØ±ÙĨØª": 3513,
      "ØŃØ§ÙģØ¸Ø©": 3514,
      "Ġ23": 3515,
      "ĠØ®ÙĦØ§ÙĦÙĩØ§": 3516,
      "Ø§ÙĦØ¨Ø§": 3517,
      "ĠØªØ¸ÙĩØ±": 3518,
      "ĠØŃÙĦÙħ": 3519,
      "ĠØ§ÙĦØ£Ø¨": 3520,
      "ÙĪÙħØ§ÙĨ": 3521,
      "ĠØ¨Ø§ÙĦÙħØ¦Ø©": 3522,
      "Ø³ØªÙĪØ±": 3523,
      "ĠØ§ÙĦØ¯ÙĪØ±ÙĬ": 3524,
      "Ø¢Ø®Ø±": 3525,
      "ĠÙħØ§Ø¯Ø©": 3526,
      "ĠØŃØ¯ÙĪØ¯": 3527,
      "Ø¬ÙĦÙĬØ²ÙĬ": 3528,
      "ĠÙĪÙĥØ§ÙĦØ©": 3529,
      "ĠÙħÙĩÙħØ§": 3530,
      "ĠØ¨ÙĪØ±": 3531,
      "ĠÙĪØªØ£": 3532,
      "ĠØ¹Ø±Ø¨": 3533,
      "ĠØ³Ùģ": 3534,
      "ĠÙĪÙģÙĤ": 3535,
      "ĠØ§ÙĦØ±ØŃÙħÙĨ": 3536,
      "ÙĬÙĤØ©": 3537,
      "ĠÙĪÙħØª": 3538,
      "ĠØ§ÙĦØ§ØªÙģØ§ÙĤ": 3539,
      "Ø¬ÙħØ©": 3540,
      "Ø¶Ø±Ø¨": 3541,
      "ĠØ£ÙĨÙĩÙħ": 3542,
      "ĠØ²ÙĬØª": 3543,
      "ĠØ¹Ø¨Ø¯Ø§ÙĦÙĦÙĩ": 3544,
      "Ø°ÙĨ": 3545,
      "ĠÙħØ¹ÙĩØ§": 3546,
      "ÙħÙĨØ©": 3547,
      "ĠÙħØ±Ø§Øª": 3548,
      "ĠØ§ÙĦØ¹Ø±Ø§ÙĤÙĬ": 3549,
      "Ø¯ÙĤ": 3550,
      "ĠÙħØ³Ø¦ÙĪÙĦ": 3551,
      "Ø§ÙĬÙģ": 3552,
      "ĠÙĦØ§ÙĬÙĨ": 3553,
      "Ø·ÙĪÙĬØ±": 3554,
      "ĠØ§ÙĦØ¬ÙĨØ³": 3555,
      "ĠØ§ÙĦÙĪØ³Ø·": 3556,
      "ÙĨØ¯Ø³": 3557,
      "ĠÙĪØ¬Ø¯": 3558,
      "ĠØ§ÙĦÙħØµØ±ÙĬÙĬÙĨ": 3559,
      "ÙĤÙĪÙĤ": 3560,
      "Ø§Ø¹ÙĬÙĦ": 3561,
      "Ø¯Ø§ÙĪÙĦ": 3562,
      "ĠØŃÙĥÙĪÙħØ©": 3563,
      "ĠÙĨÙĪ": 3564,
      "ĠØ£ÙĥØªÙĪØ¨Ø±": 3565,
      "ĠÙĬØŃÙħÙĦ": 3566,
      "ĠÙĬØ²ÙĬØ¯": 3567,
      "ĠØ¨Ø¹Ø¯ÙĩØ§": 3568,
      "ÙħØ¬": 3569,
      "ĠØ¥ÙĬØ¬": 3570,
      "ĠØ¨ØŃØ³Ø¨": 3571,
      "ĠÙĬØ³ØªØ®Ø¯Ùħ": 3572,
      "ĠØ§ÙĦÙħÙĨØ¸ÙħØ©": 3573,
      "ĠØ§ÙĦØ£Ø³Ø§Ø³ÙĬØ©": 3574,
      "ĠÙĦÙħØ¹": 3575,
      "Ø§ÙĩØ§": 3576,
      "ĠÙģØ³": 3577,
      "ĠØ¹Ø§Ø¯Ø©": 3578,
      "ĠÙĪØ§ÙĦÙĦ": 3579,
      "ĠØ§ÙĦÙħØ³ØªÙĤØ¨ÙĦ": 3580,
      "Ø§ÙĦØµ": 3581,
      "Ø¬Ø§Ø¬": 3582,
      "ĠØ§ÙĦÙħØ³ÙĦØ³ÙĦ": 3583,
      "ĠØ¥Ø¬": 3584,
      "ĠÙĦÙĦØŃØµÙĪÙĦ": 3585,
      "22": 3586,
      "ĠØªØ¯Ø±ÙĬØ¨": 3587,
      "ÙĥÙĨÙĪÙĦÙĪØ¬ÙĬØ§": 3588,
      "ØªØ²": 3589,
      "ĠØªØ¯Ø®ÙĦ": 3590,
      "ĠÙħÙĥØªØ¨": 3591,
      "Ø³ÙĦÙĪØ¨": 3592,
      "ĠØ¨ÙĬÙĨÙĩÙħ": 3593,
      "ĠØ§ÙĦØ³ÙĬØ§Ø±Ø§Øª": 3594,
      "ĠÙħØ¤Ø®Ø±Ø§": 3595,
      "ĠÙģÙĪ": 3596,
      "ĠØ§ÙĦØ¬ÙĪÙĦØ©": 3597,
      "ÙĬÙĤÙī": 3598,
      "ĠÙĬØ¹ÙĬØ´": 3599,
      "ĠØ®ÙħØ³": 3600,
      "ĠØ§ÙĦØ«Ø§ÙĨ": 3601,
      "Ø§ÙĤØ¯": 3602,
      "ĠØŃØ¯ÙĪØ«": 3603,
      "ĠØ±Ø¨ÙħØ§": 3604,
      "ĠØ¨Ø³Ø±Ø¹Ø©": 3605,
      "ĠØ§ÙĦÙħØ³ÙĦØŃØ©": 3606,
      "ĠØ§ÙĦØ±Ø§Ø¨Ø¹": 3607,
      "ĠØ§ÙĦÙĦØ§Ø¹Ø¨ÙĬÙĨ": 3608,
      "ĠØ³ÙĥØ§ÙĨ": 3609,
      "ĠØ·Ø§ÙĦ": 3610,
      "ĠØ·ÙĪÙĬÙĦ": 3611,
      "ĠØ¯Ø¨ÙĬ": 3612,
      "ĠØ£ÙĪØ±ÙĪØ¨Ø§": 3613,
      "ĠØªÙģØ§ØµÙĬÙĦ": 3614,
      "ĠÙĥÙĦÙĬØ©": 3615,
      "ĠØ§ÙĦØ²ÙĬ": 3616,
      "¡Ù": 3617,
      "ĠØ§ÙĦÙħÙĨØ²ÙĦ": 3618,
      "ĠØ§ÙĦÙħÙĨØªØ¯Ùī": 3619,
      "ĠÙĪØ§ÙĦØ§ÙĨ": 3620,
      "ĠØ§ÙĦØ¯Ø®ÙĪÙĦ": 3621,
      "ĠØªØµØ±ÙĬØŃØ§Øª": 3622,
      "ĠØ¥Ø¹": 3623,
      "ĠØ§ÙĦØ£ÙħÙĬØ±ÙĥÙĬØ©": 3624,
      "ĠÙĦØ£ÙĨÙĩØ§": 3625,
      "ØµØ§Ø¨": 3626,
      "ĠØ¨ØµÙĪØ±Ø©": 3627,
      "ĠÙĥØ§ÙħÙĦØ©": 3628,
      "ĠØ§ÙĦØ³ÙģØ±": 3629,
      "ĠÙħØ¨Ø§Ø±Ùĥ": 3630,
      "ĠØ¥Ø·ÙĦØ§ÙĤ": 3631,
      "ĠØ§ÙĦØŃÙħØ¯": 3632,
      "ĠØ¨Ø§ÙĦØ§ÙĨ": 3633,
      "ĠØ§ÙĦÙĥÙĪÙĨ": 3634,
      "ĠØ·Ùģ": 3635,
      "ĠØ§ÙĦÙħØŃØª": 3636,
      "ĠØ§ÙĦÙħÙĪØ§ÙĤØ¹": 3637,
      "ĠØ£ØµØŃØ§Ø¨": 3638,
      "ĠÙĨØ§Ø¦Ø¨": 3639,
      "ĠØ´Ø¨Ø§Ø¨": 3640,
      "ĠØ±ÙĪØ§": 3641,
      "Ø§ÙĤØ¨Ø©": 3642,
      "Ø·Ø§ÙĤ": 3643,
      "Ø°Ø§Ø±": 3644,
      "ØŃØ¯Ø¯": 3645,
      "ĠØ§ÙĦØ£Ø®ÙĬØ±": 3646,
      "ĠÙĪØ°ÙĥØ±": 3647,
      "ÙĤØ§Øª": 3648,
      "Ø§ÙħÙī": 3649,
      "ĠØ§ÙĦØ®ÙĦ": 3650,
      "ĠØ§ÙĦÙħÙĤØ¨ÙĦØ©": 3651,
      "ĠØ¶Ø±ÙĪØ±Ø©": 3652,
      "ĠÙĪØ±Ø§Ø¡": 3653,
      "ĠØ§ÙĦØ«Ø§ÙĨÙī": 3654,
      "ĠÙĬØŃØªØ§Ø¬": 3655,
      "ĠØ§ÙĦÙĬÙĩÙĪØ¯": 3656,
      "ĠÙħØ§Ø°Ø§": 3657,
      "ĠØ³Ø¹Ø¯": 3658,
      "ĠØ£ÙĦØ§": 3659,
      "ÙĪÙĤÙĬØª": 3660,
      "ĠÙĥØ±ÙĬÙħ": 3661,
      "ĠÙĩØ§ØªÙģ": 3662,
      "ĠÙħØ¬Ø§ÙĨØ§": 3663,
      "ĠÙĪÙĬØŃ": 3664,
      "ĠØ³ÙĪÙī": 3665,
      "ĠØ§ÙĦØ·Ø±Ùģ": 3666,
      "ĠØªØºÙĬØ±": 3667,
      "Ø¨Ø±Ø§ÙĬØ±": 3668,
      "ÙħÙĪØ¹Ø§Øª": 3669,
      "ĠÙĪÙĬØ´": 3670,
      "Ø¨ÙĪØ¹": 3671,
      "ĠØ¨ÙĨÙĬ": 3672,
      "ĠØ§ÙĦØ¹ÙĦÙĬØ§": 3673,
      "Ġ2010": 3674,
      "ĠØ§ÙĦØ·Ø¨ÙĬØ©": 3675,
      "ĠØ¨ÙħØ¹": 3676,
      "ĠØªØµÙħÙĬÙħ": 3677,
      "ØªØ©": 3678,
      "ĠØ§ÙĦØ°Ùĥ": 3679,
      "Ø§Ø²Ø§Øª": 3680,
      "ĠØ§ÙĦÙĥØ¨ÙĬØ±Ø©": 3681,
      "ÙĪØ²Ø§Ø±Ø©": 3682,
      "ĠWhatsChat": 3683,
      "21": 3684,
      "ĠØ§ÙĦØ¥Ø³Ø±Ø§Ø¦ÙĬÙĦÙĬ": 3685,
      "Ø¹Ø§Ø¡": 3686,
      "ĠØ§ÙĦØ¥ÙĬØ±": 3687,
      "ØµØ¯Ø§Ø±": 3688,
      "Ø¸ÙĦ": 3689,
      "Ø¸Ùģ": 3690,
      "ĠØ§ÙĦØ£ÙħÙĨÙĬØ©": 3691,
      "ĠØ¹Ø´Ø±Ø©": 3692,
      "ĠØ§ÙĦØ£ØŃÙħØ±": 3693,
      "ĠØĽ": 3694,
      "ÙģØ´": 3695,
      "ĠÙĥÙģ": 3696,
      "ÙħÙĪØ§ÙĦ": 3697,
      "ĠØ§ÙĦÙħÙĨØ´": 3698,
      "ĠØ´Ø§ÙĩØ¯": 3699,
      "****": 3700,
      "ĠØ³ÙĪÙĤ": 3701,
      "ĠØ§ÙĦØ¹Øµ": 3702,
      "Ø§ØŃØ§Øª": 3703,
      "ĠØ§ÙĦØ³Ø¹ÙĪØ¯ÙĬ": 3704,
      "ÙĤØ§Ø¦ÙĤ": 3705,
      "ĠÙĥÙĬÙģÙĬØ©": 3706,
      "ĠØ³Ø¹ÙĪØ¯": 3707,
      "Ø§ÙģÙĤØ©": 3708,
      "Ø¹ÙĦÙĤØ©": 3709,
      "ÙĨØ³ÙĬ": 3710,
      "ĠÙĨØ³Ø¨": 3711,
      "ĠØ§ÙĦØ¹Ø±Ø¶": 3712,
      "ĠØ§ÙĦØ«Ø§ÙĦØ«Ø©": 3713,
      "Ø§ÙĤÙĬØ©": 3714,
      "Ø±Ø¨ÙĬÙĨ": 3715,
      "ÙĩØ°Ø§": 3716,
      "Ø§ÙģØ¸Ø§Øª": 3717,
      "ĠØ§ÙĦØ¹ÙĦÙħØ§Ø¡": 3718,
      "Ø§Ø·Ø¹": 3719,
      "ort": 3720,
      "ĠØ§ÙĦØ³Ø¤Ø§ÙĦ": 3721,
      "ĠÙħØ¹ÙĨÙī": 3722,
      "ĠÙħØŃØ§ÙĪÙĦØ©": 3723,
      "ĠÙĪØ§ÙĨØª": 3724,
      "oc": 3725,
      "Ø´ØŃ": 3726,
      "ĠØ´ÙĬØ¦Ø§": 3727,
      "ĠØŃÙħØ§ÙĬØ©": 3728,
      "ĠÙĨØŃ": 3729,
      "ÙģØ³ÙĬØ±": 3730,
      "ØŃØ±ÙĬØ±": 3731,
      "Ø³Ø³": 3732,
      "ĠÙĬØ·": 3733,
      "ĠØ§ÙĦØ¹Ø³ÙĥØ±ÙĬ": 3734,
      "ĠÙĦÙħØ³": 3735,
      "Ø§ÙĦÙĥØªØ±": 3736,
      "ÙħØ´": 3737,
      "ØµØ¯Ø±": 3738,
      "ĠØ¥ÙĨØªØ§Ø¬": 3739,
      "ĠÙĤØ·Ø¹": 3740,
      "ĠØ¨Ø§ÙĦÙħÙĨ": 3741,
      "ĠØ¹ÙĨØ§ØµØ±": 3742,
      "ĠØ³Ø¨ØªÙħØ¨Ø±": 3743,
      "Ø¬ÙĬÙĨ": 3744,
      "ĠØ§ÙĦØ£ÙĥØ«Ø±": 3745,
      "Ø¹Ø¯Ø¯Ø©": 3746,
      "Ø±Ø³Ø§ÙĦ": 3747,
      "ĠØ±ÙĪØ³ÙĬØ§": 3748,
      "ĠÙĦØ¥ÙĨ": 3749,
      "Ø§Ø®Ø±": 3750,
      "ĠØ§ÙĦÙħÙĩÙħ": 3751,
      "ĠØ§ÙĦÙĤØ·": 3752,
      "ĠÙħÙħÙĨ": 3753,
      "ĠÙħÙĪØ§Ø¬ÙĩØ©": 3754,
      "ĠØ§ÙĦÙħØ®Øª": 3755,
      "ĠØ§ÙĦÙĪÙĦ": 3756,
      "ĠØ§ÙĦÙĨØ§Ø¯ÙĬ": 3757,
      "ÙĪÙħØ§": 3758,
      "ĠØ§ÙĦØ£ÙĤ": 3759,
      "ĠØ²ÙĬØ§Ø±Ø©": 3760,
      "Ø²ÙĤ": 3761,
      "ĠØ¨ÙĬØ¯": 3762,
      "ĠØ§ÙĦÙħØ¶": 3763,
      "ĠØ§ÙĦØ£ÙĤÙĦ": 3764,
      "ĠÙĤØ·Ø±": 3765,
      "ĠØ§ÙĦØ¯Ùĩ": 3766,
      "ĠØ·Ø±ÙĤ": 3767,
      "Ø¨ØºÙĬ": 3768,
      "ĠØ§ÙĦÙħÙĤØ¯": 3769,
      "ÙĬØ±ÙĪØ³": 3770,
      "Ø§ÙģÙĩ": 3771,
      "ĠØ¬Ø³Ùħ": 3772,
      "ĠØ¨Ø¯Ø¡": 3773,
      "ĠØ±ÙĬØ§Ø¶": 3774,
      "ĠØ¥ÙħÙĥØ§ÙĨ": 3775,
      "ĠØŃÙħØ¯": 3776,
      "ĠÙĬØªØ¹ÙĦÙĤ": 3777,
      "ĠÙħØ¤ØªÙħØ±": 3778,
      "Ø´ÙģØª": 3779,
      "ĠØ§ÙĦØŃØ²Ø¨": 3780,
      "ĠØ£Ø®Ø°": 3781,
      "ĠØ§ÙĦÙħØºØ±Ø¨": 3782,
      "ook": 3783,
      "ĠÙħØ¹Ø±ÙģØ©": 3784,
      "ĠØ§ÙĦØ¬ÙĨØ³ÙĬØ©": 3785,
      "ĠØ§Ø¹ÙĦ": 3786,
      "Ġ28": 3787,
      "Â«": 3788,
      "ØµÙĬÙĦ": 3789,
      "ĠØ£Ø³Ø¨ÙĪØ¹": 3790,
      "ÙĤØ±Ø§Ø¡": 3791,
      "ĠØ´Ø±Ùĥ": 3792,
      "Ġ198": 3793,
      "Ø§ÙħÙĩ": 3794,
      "Ø¨Ø±ÙĨØ§ÙħØ¬": 3795,
      "ĠØ§ÙĦØ·ÙĦØ¨": 3796,
      "ĠØªØ¬Ø§Ùĩ": 3797,
      "ĠÙħÙĦØ¹Ø¨": 3798,
      "Ø·Ùĩ": 3799,
      "Ø§Ø¦ÙĩÙħ": 3800,
      "ØŃÙĬØ©": 3801,
      "ĠÙĦÙĦØ¹ÙħÙĦ": 3802,
      "ØªÙĬØ§Ø¬Ø§Øª": 3803,
      "ĠØªØ¹ÙĦÙĬÙħ": 3804,
      "ĠØ§ÙĦØ±Ø¬Ø§ÙĦ": 3805,
      "ÙħØ±Ø©": 3806,
      "Ø³Ø§Ø³": 3807,
      "ĠØ§ÙĦØ±ÙĬØ§Ø¶ÙĬØ©": 3808,
      "ĠÙħÙĪØ¬ÙĪØ¯": 3809,
      "ØªÙĩÙĬ": 3810,
      "ĠØ¨Ø¹ÙħÙĦ": 3811,
      "ĠØ§ÙĦØµØŃÙĬ": 3812,
      "ĠØ§ÙĦÙħÙĤØ±Ø±": 3813,
      "Ø§Ø±Ø¯Ø©": 3814,
      "ĠÙħÙĨØ¹": 3815,
      "ĠÙĬØ£ØªÙĬ": 3816,
      "ĠÙĤÙĪÙĦÙĩ": 3817,
      "ĠØŃØ¶Ø±": 3818,
      "ÙĪØ±Ùĥ": 3819,
      "Ø±Ø§ØªÙĬØ¬ÙĬØ©": 3820,
      "Ø§ÙĦØ¬Ø©": 3821,
      "Ø§Ø±ÙĬØ±": 3822,
      "ĠØ§ÙĦØ±Ø³ÙħÙĬØ©": 3823,
      "ĠØ§ÙĦØµÙĬÙĨ": 3824,
      "ĠØ§ÙĦØ¨Ø·ÙĪÙĦØ©": 3825,
      "ĠØ§ÙĦØªØ¬Ø§Ø±ÙĬØ©": 3826,
      "ov": 3827,
      "Ø§ÙĪÙħØ©": 3828,
      "Ġ26": 3829,
      "ĠØ§ÙĦØ²ÙħÙĨ": 3830,
      "ĠØµÙģØŃØ©": 3831,
      "ĠÙĪØ§ÙĦÙħØ³": 3832,
      "ĠØ¯Ø§Ø±": 3833,
      "Ġ197": 3834,
      "ĠÙħØ¤ÙĥØ¯Ø§": 3835,
      "ĠØ±ØŃÙħ": 3836,
      "ĠØ§ÙĦØ§ÙĦÙĥØªØ±": 3837,
      "Ø¨ÙĩØ§": 3838,
      "ĠØ·Ø±ØŃ": 3839,
      "Ġ27": 3840,
      "ĠÙĥÙĦØ§": 3841,
      "ĠØ§ÙĦÙģÙĨÙĬ": 3842,
      "ĠÙĬØªØŃ": 3843,
      "ÙĪØ£": 3844,
      "ĠØ¨Ø¯ÙĦØ§": 3845,
      "ĠØ§ÙĦØ·Ø¨ÙĬØ¹ÙĬØ©": 3846,
      "ÙĥØ§Øª": 3847,
      "Ø¨ÙĦÙĪÙħ": 3848,
      "pp": 3849,
      "Ø§ÙĪØ±": 3850,
      "Ø§ÙģØ§Øª": 3851,
      "ĠØ®Ø±Ø¬": 3852,
      "ĠØ²ÙħÙĨ": 3853,
      "Ø³Ø§Ø¨": 3854,
      "ĠØ´Ø§Ø¡": 3855,
      "Ø§ÙĤÙģ": 3856,
      "ĠØ¹ÙĦØ§Ùħ": 3857,
      "ĠØ¨ØªÙĨ": 3858,
      "ĠØ§ÙĦØŃÙĥÙĪÙħÙĬØ©": 3859,
      "ĠÙģÙĥ": 3860,
      "ĠÙħØ¹ÙĬÙĨØ©": 3861,
      "ĠØ·Ø±": 3862,
      "Ø§Ø·ÙĨ": 3863,
      "ĠÙģÙĦÙħ": 3864,
      "ĠØ§Ø³Ø±": 3865,
      "ĠØ¨ÙĤÙī": 3866,
      "15": 3867,
      "ĠØ§ÙĦØŃÙĤÙĬÙĤØ©": 3868,
      "ĠØ§ÙĦØ¨Ø±Ø§ÙħØ¬": 3869,
      "ĠØ¨Ø²ÙĬ": 3870,
      "ĠÙĨØ¸Ø±Ø§": 3871,
      "ĠÙħØ´Ø§Ø±ÙĥØ©": 3872,
      "ĠØ§ÙĦØ¯Ø¹Ùħ": 3873,
      "ĠØ¬ÙħÙĬØ¹Ø§": 3874,
      "Ġ'": 3875,
      "ÙģØ§Ø¯Ø©": 3876,
      "ĠÙĦØ®": 3877,
      "ĠØ§ÙĦØºØ±Ø¨ÙĬØ©": 3878,
      "ĠØ§ÙĦÙĤØ§Ø¯ÙħØ©": 3879,
      "ĠÙĦÙĬØ¨ÙĬØ§": 3880,
      "ĠØªØ¨Ø¯Ø£": 3881,
      "ĠÙĦÙĦÙħØ³": 3882,
      "ĠØ¢ÙĦØ§Ùģ": 3883,
      "ĠØ§ÙĦØ¹ÙĦØ§ÙĤØ©": 3884,
      "ĠÙģØ¥Ø°Ø§": 3885,
      "ØªØ±Ø¶": 3886,
      "18": 3887,
      "ÙĨÙĬØ§Øª": 3888,
      "ĠÙĬØ¸ÙĩØ±": 3889,
      "Ø²Ùĩ": 3890,
      "ĠØ³ÙĪØ±ÙĬØ©": 3891,
      "ĠÙĦÙĥØ±Ø©": 3892,
      "ĠThe": 3893,
      "ce": 3894,
      "Ø¹Ø²ÙĬØ²": 3895,
      "ĠÙĥØ§Ø±": 3896,
      "ĠØ´Ø£ÙĨ": 3897,
      "ĠÙģØ§Øª": 3898,
      "ĠÙĬÙĪÙĦÙĬÙĪ": 3899,
      "Ø§ØŃÙĬ": 3900,
      "ĠØ§ÙĦÙĨÙħÙĪ": 3901,
      "ĠÙĪØ¨ÙĬ": 3902,
      "ĠØªØ±ÙĥÙĬØ§": 3903,
      "ĠØ§ÙĦØ¬ÙħÙĩÙĪØ±ÙĬØ©": 3904,
      "Ø§ÙĪ": 3905,
      "Ø§ÙĪÙī": 3906,
      "ÙĬÙĪÙħ": 3907,
      "ĠÙĪØ±Ø¨": 3908,
      "ĠØ§ÙĦØ¯ÙĪØ±Ø©": 3909,
      "ĠØ§ÙĦØ§ÙĤØªØµØ§Ø¯": 3910,
      "ĠØ±Ø¶ÙĬ": 3911,
      "ĠÙħØ¬Ø±Ø¯": 3912,
      "ÙĬØ¬Ø©": 3913,
      "Ø§Ø®Ø¯": 3914,
      "ĠÙĬÙĪÙĨÙĬÙĪ": 3915,
      "ØºØ§ÙĦ": 3916,
      "Ø§ÙĨÙĬÙĬÙĨ": 3917,
      "ĠØ§ÙĤØªØµ": 3918,
      "ĠÙĨÙĪÙģÙħØ¨Ø±": 3919,
      "ĠÙĬØ¹ÙĨÙī": 3920,
      "od": 3921,
      "Ø¬ÙĬØ±": 3922,
      "ĠØ§ÙĦØ¹Ø«": 3923,
      "ÙĪØ±ÙĪ": 3924,
      "ĠØ§ÙĦØ¶ØºØ·": 3925,
      "ĠÙĨÙģØ³ÙĬ": 3926,
      "ÙĨØ§Ùģ": 3927,
      "Ø´Ø¯": 3928,
      "Ø§ÙħØª": 3929,
      "ÙĤÙĦØª": 3930,
      "ĠÙĪØ§ÙĦØªØ¹ÙĦÙĬÙħ": 3931,
      "ĠÙģÙĬØª": 3932,
      "Ø³Ø·Ø³": 3933,
      "ĠÙĦÙĦØ§ÙĨ": 3934,
      "est": 3935,
      "ØªÙģØ¹": 3936,
      "Ġ+": 3937,
      "ĠØ²Ø±": 3938,
      "ĠÙĪÙĬÙĤÙĪÙĦ": 3939,
      "ĠØ£Ø¹ÙĦÙĨØª": 3940,
      "Ø°ÙĦ": 3941,
      "ĠØ·ÙĬØ¨": 3942,
      "ĠØ§ÙĦØ§ØŃØªÙĦØ§ÙĦ": 3943,
      "ĠØ§ÙĦÙħØ¹Ø§Ø±Ø¶Ø©": 3944,
      "ĠÙĨØ³Øª": 3945,
      "ĠØ¨ÙħØ±": 3946,
      "ĠØ§ÙĦØ¥Ø³Øª": 3947,
      "ĠØŃÙĬØ§ØªÙĩ": 3948,
      "ĠØªÙĤØ¯": 3949,
      "ĠØ¬ÙĬØ¯": 3950,
      "ub": 3951,
      "ÙĪØ®": 3952,
      "ĠØ§ÙĦØ´Ø±ÙĬÙģ": 3953,
      "ĠØ§ÙĦØ£Ø´Ø®Ø§Øµ": 3954,
      "ĠÙĤÙĪÙĬØ©": 3955,
      "ĠÙĨÙħ": 3956,
      "ĠØ§ÙĦØŃØ§ÙĦØ§Øª": 3957,
      "Ø§ØªÙĥ": 3958,
      "ØªØ±Ø§Ùħ": 3959,
      "ĠØ§Ø³ÙħÙĩ": 3960,
      "Ø§ÙĬØ¯": 3961,
      "ĠÙĦØ§Ùģ": 3962,
      "ĠØªÙĪØ¬Ø¯": 3963,
      "ĠØ§ÙĦÙĤØ¯ÙĬÙħØ©": 3964,
      "ĠØ£ÙģØ±ÙĬÙĤÙĬØ§": 3965,
      "ĠØ£Ø¬ÙĩØ²Ø©": 3966,
      "ĠØ§ÙĦØ§Ø³Ùħ": 3967,
      "ĠØ§ÙĦØ¹ÙĦÙħÙĬØ©": 3968,
      "ĠØªÙĥÙĨ": 3969,
      "ÙĪÙħÙĬØ©": 3970,
      "ĠØ§ÙĦØ±Ø³ÙħÙĬ": 3971,
      "ĠØ³Ø¨ØŃ": 3972,
      "ĠÙĦØ¯ÙĬÙĩ": 3973,
      "ĠÙħØ§ÙĦ": 3974,
      "ÙģÙĨ": 3975,
      "ÙĪÙĤÙĬØ¹": 3976,
      "ĠØ§Ø®Ø±Ùī": 3977,
      "ĠÙģØ¶ÙĦØ§": 3978,
      "ĠÙĨØ¯": 3979,
      "ĠÙĪØªØ¯": 3980,
      "ak": 3981,
      "ĠØ¨Ø±ÙĪ": 3982,
      "ÙģÙĬÙģ": 3983,
      "ĠØ§ÙĦØ¹ÙĨÙģ": 3984,
      "ĠÙĪÙĬØ³Øª": 3985,
      "ĠØ£Ø±Ø¨Ø¹Ø©": 3986,
      "ĠÙĬØ³ÙħØŃ": 3987,
      "16": 3988,
      "ĠØ£Ø³Ø¨Ø§Ø¨": 3989,
      "ĠØ±Ø§ØŃ": 3990,
      "Ø§ÙĤØ´": 3991,
      "ĠØ§ÙĦÙĪØ§ØŃØ¯": 3992,
      "Ø¹ÙĪÙĨ": 3993,
      "ĠØ§ÙĦØ£Ø²": 3994,
      "ĠØ§ÙĦØªØŃÙĤÙĬÙĤ": 3995,
      "ĠØªØ³ØªØ·ÙĬØ¹": 3996,
      "ĠØ§ÙĦÙĦØº": 3997,
      "ÙĪØ§Ø±Ø¹": 3998,
      "ĠÙĨØ´Ø§Ø·": 3999,
      "ĠØ§ÙĦÙĪØŃÙĬØ¯": 4000,
      "ĠØ®ÙħØ³Ø©": 4001,
      "ĠØ§ÙĦØ§Ùĥ": 4002,
      "ÙĬØ³ÙħØ¨Ø±": 4003,
      "ĠØ£ØŃØ¯Ø§Ø«": 4004,
      "ĠØ£ÙĨÙĥ": 4005,
      "Ø±ÙĪØ©": 4006,
      "ĠÙģØ¨Ø±Ø§ÙĬØ±": 4007,
      "ĠØ³ÙĦÙħ": 4008,
      "ÙĥÙĦØ§Øª": 4009,
      "ØŃÙģ": 4010,
      "ind": 4011,
      "ĠØ§ÙĦØ¥Ø³ÙĦØ§ÙħÙĬ": 4012,
      "Ø¬Ø§ÙĪØ²": 4013,
      "Ø·Ø±Ø§Ùģ": 4014,
      "ĠØ§ÙĦØŃÙĪØ§Ø±": 4015,
      "Ø®Ø¯ÙħØ§Øª": 4016,
      "ĠØ§ÙĦÙģÙĦØ³Ø·ÙĬÙĨÙĬ": 4017,
      "ÙĤÙĪØ·": 4018,
      "ĠÙģÙħ": 4019,
      "ĠØªÙĤÙĦ": 4020,
      "ĠØŃÙģØ¸": 4021,
      "ĠØµØ¯Ø±": 4022,
      "ĠØ§ÙĦÙĥØ¨Ø±Ùī": 4023,
      "ĠØªÙĪÙģØ±": 4024,
      "ĠØ¹ÙĨÙĪØ§ÙĨ": 4025,
      "ĠØªØªØŃ": 4026,
      "ĠØ£Ø®Ø¨Ø§Ø±": 4027,
      "ĠÙĪØ®Ø§ØµØ©": 4028,
      "ĠØ¨ÙĪÙĦ": 4029,
      "ØªØ±Ø§Øª": 4030,
      "ÙĬÙģÙĬØ©": 4031,
      "ĠØªØŃØ±": 4032,
      "ĠÙ¢": 4033,
      "Ø§Ø¦Ø±Ø§Øª": 4034,
      "ÙĨØ³Ùī": 4035,
      "ĠØ±Ùģ": 4036,
      "ĠØ§ÙĦÙĨÙĪÙħ": 4037,
      "ĠØ§ÙĦÙĤÙĪÙĦ": 4038,
      "ĠØŃØ¨ÙĬ": 4039,
      "ĠØ§ÙĦØ¢Ø®Ø±ÙĬÙĨ": 4040,
      "ĠØ¹Ø±Ø¨ÙĬ": 4041,
      "ĠØªØ¶": 4042,
      "ĠØªØ«": 4043,
      "Ø§Ø¯Ùħ": 4044,
      "ĠØ§ÙĦØ·Ø§ÙĦØ¨": 4045,
      "ÙĪÙĬØ¶": 4046,
      "ĠØ£Ø¨ÙĨØ§Ø¡": 4047,
      "ĠØ¥ÙĨØª": 4048,
      "ĠØ¨Ø¹ÙĬØ¯": 4049,
      "ĠØ¬ÙħÙĩÙĪØ±": 4050,
      "all": 4051,
      "otel": 4052,
      "ĠØ£ØµØ¨ØŃØª": 4053,
      "ĠØ·Ø¨ÙĤ": 4054,
      "ĠÙĪØ§ÙĦØ²": 4055,
      "ĠØ§ÙĦØ£Ø¬": 4056,
      "==": 4057,
      "ÙĨÙĬÙģ": 4058,
      "ĠÙĪÙĬØ¯": 4059,
      "ĠØ§ÙĦÙĤØ§Ø¯Ùħ": 4060,
      "ĠØ§ÙĦØµÙĪØª": 4061,
      "ĠØ³Ùĩ": 4062,
      "ĠØªØ´ØºÙĬÙĦ": 4063,
      "ÙĨÙĩØ§": 4064,
      "Ø¬ØŃ": 4065,
      "ĠØ§ÙĦØªØ§Ø¨Ø¹Ø©": 4066,
      "ÙĬØ³Ùī": 4067,
      "ĠØªÙħÙĪ": 4068,
      "ĠÙĤÙĦØª": 4069,
      "ĠØ¹Ø§ÙħØ©": 4070,
      "ĠØªØ´ÙĥÙĬÙĦ": 4071,
      "ĠØªÙħØ±": 4072,
      "ĠÙĪØŃØ¯Ø©": 4073,
      "Ø¹ÙĦÙī": 4074,
      "Ø´Ùī": 4075,
      "Ø«ÙĬÙĦ": 4076,
      "ĠØ§ÙĦÙĨØ¬Ùħ": 4077,
      "ĠØ¬ÙħÙĬÙĦ": 4078,
      "ĠØ§ÙĦØ¥ÙĦÙĥØªØ±ÙĪÙĨÙĬ": 4079,
      "ĠØ§ÙĨØªØ®": 4080,
      "Ø®ÙģØ§Ø¶": 4081,
      "ĠØ¨ÙĩÙħ": 4082,
      "ĠØ¥Ø®": 4083,
      "ĠÙĪÙĤÙģ": 4084,
      "ĠØ£Ø«Ø±": 4085,
      "ĠØ§ÙĦÙħØ³Ø±ØŃ": 4086,
      "ĠØ§ØªØŃØ§Ø¯": 4087,
      "Ø¬Ø±Ø§Ø¡Ø§Øª": 4088,
      "ĠØ£ØŃÙĬ": 4089,
      "ĠÙĤÙĬØ§Ùħ": 4090,
      "ĠØ§ÙĦØ¯Ø±Ø§Ø³Ø§Øª": 4091,
      "ĠØ§Ø°": 4092,
      "ĠØ§ÙĦÙħØŃÙĥÙħØ©": 4093,
      "Ġ40": 4094,
      "ĠÙĬØ§Ø³": 4095,
      "ĠØ§ÙĦØ¨Ø¯Ø§ÙĬØ©": 4096,
      "Ø¦ÙĬØ©": 4097,
      "Ø³Ø¨ÙĤ": 4098,
      "ĠØ¹ØµØ±": 4099,
      "ÙĬÙħÙĬØ©": 4100,
      "ÙģÙĬØ´": 4101,
      "ĠÙĪÙĬØ¨": 4102,
      "ÙĪÙĨÙĩØ§": 4103,
      "ĠØ·Ø±Ùģ": 4104,
      "ÙĥÙĦÙģØ©": 4105,
      "ĠÙĬØ¹ÙĦÙħ": 4106,
      "ĠØªÙħØ«ÙĦ": 4107,
      "ĠØ§ÙĦØ³ÙĥØ§ÙĨ": 4108,
      "Ø§ØµÙĦØ©": 4109,
      "ĠØ´Ø¦": 4110,
      "ĠØ§ÙĦÙĤØ¶Ø§Ø¡": 4111,
      "ĠØŃØªÙĬ": 4112,
      "ĠØ¨Ø§ÙĦÙĦÙĩ": 4113,
      "ĠØ¯ÙĦÙĪÙĤ": 4114,
      "ĠÙĨØ¹Ùħ": 4115,
      "ĠØ±Ùĥ": 4116,
      "ÙĪØ¬ÙĦ": 4117,
      "24": 4118,
      "ĠÙĬÙĤÙĦ": 4119,
      "ÙĪÙĪÙĪÙĪ": 4120,
      "ĠØ´Ø¯ÙĬØ¯": 4121,
      "ĠÙĪÙħØŃ": 4122,
      "ØµÙģØŃ": 4123,
      "ĠØ§ÙĦØ£Ø¬ÙĩØ²Ø©": 4124,
      "ĠØ§ÙĦØ®ÙĬØ±": 4125,
      "ĠØªØ¬Ø¯": 4126,
      "ist": 4127,
      "ĠØ£Ø¨Ø±Ø²": 4128,
      "ĠÙħÙĨØµÙĪØ±": 4129,
      "ĠÙĤØ¶ÙĬØ©": 4130,
      "ÙĪØ¹ÙĬØ©": 4131,
      "ĠØ§ÙĦÙħØŃØ§ÙģØ¸Ø©": 4132,
      "Ø³Ø¬ÙĬÙĦ": 4133,
      "Ø®Ø·Ø·": 4134,
      "ĠÙĬÙħØ«ÙĦ": 4135,
      "ĠÙĪÙĬØªÙħ": 4136,
      "Ø§ÙĦØ¥": 4137,
      "ØµÙĦØŃØ©": 4138,
      "Ġ196": 4139,
      "ĠÙģØ±ÙĨØ³Ø§": 4140,
      "ÙĨØ¯Ø§": 4141,
      "ĠÙħØ¤Ø³Ø³Ø©": 4142,
      "ĠØªØ§ÙĨÙĬ": 4143,
      "Ø£ÙĦØ©": 4144,
      "ĠÙĪØ§ÙĦÙħØ¹": 4145,
      "ÙĦÙĬØ³": 4146,
      "ĠÙĤØ±Ø¨": 4147,
      "ĠØ§ÙĦØŃÙħ": 4148,
      "ĠØ§ÙĦØ§ÙĩÙĦÙī": 4149,
      "Ø§ÙĦÙĨ": 4150,
      "ĠØ³Ø¤Ø§ÙĦ": 4151,
      "ĠØ®ÙĦÙĬ": 4152,
      "ĠØªØŃØªÙĪÙĬ": 4153,
      "17": 4154,
      "ĠÙĪØ§ÙĦÙĩ": 4155,
      "ĠØ³Ø§Ùħ": 4156,
      "ĠØ§ÙĦØ§ÙħØ±ÙĬÙĥ": 4157,
      "ĠØ§ÙĦØ´Ø§Ø±Ø¹": 4158,
      "ĠØ§ÙĦÙĦØ¹Ø¨": 4159,
      "Ø§ÙĪÙĬØ©": 4160,
      "ÙĬÙĪØ¨": 4161,
      "ĠØ¨ÙĬÙĤ": 4162,
      "ĠØ¹Ø±Ø¨ÙĬØ©": 4163,
      "ÙĥÙĪÙĨØ§Øª": 4164,
      "ĠØ¹Ø§Ø´": 4165,
      "25": 4166,
      "ĠØ¥ÙĨØ´Ø§Ø¡": 4167,
      "ĠØ³ÙĦØ³ÙĦØ©": 4168,
      "ĠØºØ±Ùģ": 4169,
      "ĠØ§ÙĦÙĩØ¬ÙĪÙħ": 4170,
      "ĠØ§ÙĦÙĥÙħØ¨ÙĬÙĪØªØ±": 4171,
      "ĠØ±Ø´": 4172,
      "ĠØ§ÙĦØŃØ¯ÙĬØ«Ø©": 4173,
      "ĠÙĬØŃØµÙĦ": 4174,
      "ĠÙģÙħØ§": 4175,
      "ĠØµØŃØ©": 4176,
      "ÙĥÙī": 4177,
      "ĠÙĦØ§Ø¹": 4178,
      "ĠØªÙħÙĨ": 4179,
      "Ø®Ø§ÙĦ": 4180,
      "ĠÙĬÙĤØ¹": 4181,
      "ĠÙĨØ¬ÙĪÙħ": 4182,
      "ĠÙĪÙĥÙħ": 4183,
      "ĠÙĪØ¬Ø§Ø¡": 4184,
      "ĠØ§ÙĦØ±Ø³ÙĪÙĦ": 4185,
      "ĠÙĪØ¯Ùĩ": 4186,
      "ĠØ§ÙĦÙĤØ¯Ø³": 4187,
      "Ø§Ø·ÙģØ§ÙĦ": 4188,
      "ĠÙĤÙĬÙħ": 4189,
      "ĠÙĥÙĨØ§": 4190,
      "ĠÙĤØ§Ø¯Ø±": 4191,
      "ĠØ¨ÙĬÙĨÙĩØ§": 4192,
      "Ø¬ÙħØ§Øª": 4193,
      "ĠØ§ÙĦØŃÙĦÙĤØ©": 4194,
      "ØªØºÙĦ": 4195,
      "Ø§ÙĤÙī": 4196,
      "ÙĬÙħÙĬÙĨ": 4197,
      "ĠÙħØ¯Ø©": 4198,
      "ĠØ§ÙĦØªØ¹ÙĦÙĬÙĤ": 4199,
      "ĠÙĩÙħØ§": 4200,
      "ĠÙĬØ¨Ø¯ÙĪ": 4201,
      "ÙĬØªØ±": 4202,
      "ĠÙĥØ´Ùģ": 4203,
      "ĠØ£ÙĨØŃØ§Ø¡": 4204,
      "ĠØ§ÙĦØ¨Ø§Ø¨": 4205,
      "ĠØ§ÙĦÙĬØ§Ø¨": 4206,
      "ÙĬØ¶": 4207,
      "ĠÙĪØ±ØŃ": 4208,
      "ĠØ´ÙĪÙĬØ©": 4209,
      "ĠÙħØ§ÙĬÙĪ": 4210,
      "ĠØ³ØªÙĥÙĪÙĨ": 4211,
      "ĠSt": 4212,
      "ĠØ§ÙĦÙĨØªØ§Ø¦Ø¬": 4213,
      "Ø¨Ø§Ø±Ø§Øª": 4214,
      "ÙģØ±Ø¯": 4215,
      "ĠØ§ÙĦØªØ§Ø³": 4216,
      "Ø§Ø³Ùī": 4217,
      "ĠØ¨Ø§ÙĦØ®": 4218,
      "ĠØ§ÙĦØ£ÙĪØ±ÙĪØ¨ÙĬ": 4219,
      "if": 4220,
      "ØªØ±ÙĥØ©": 4221,
      "ÙĩØ§Øª": 4222,
      "ĠØªØ¨ÙĤÙī": 4223,
      "ĠÙĥØ³": 4224,
      "ĠØ§Ø¨ÙĪ": 4225,
      "ĠÙĬØ¯Ø®ÙĦ": 4226,
      "ĠØ£Ø¯Ø§Ø¡": 4227,
      "13": 4228,
      "ĠÙĤØ§Ø¹Ø¯Ø©": 4229,
      "ĠØ§ÙĦØ³ÙĪÙĬØ³": 4230,
      "Ø¨ÙĬØ³": 4231,
      "ĠØ§Ø®ØªØ±": 4232,
      "are": 4233,
      "ĠÙĪÙĦÙĦ": 4234,
      "ĠØ§ÙĦØ¬ÙħØ¹ÙĬØ©": 4235,
      "ĠØ§ÙĦØ¥ÙĨØªØ§Ø¬": 4236,
      "ĠØ£ÙģØ±Ø§Ø¯": 4237,
      "ĠØŃØ²": 4238,
      "ÙĨØªÙĬÙĨ": 4239,
      "ÙĨÙĪÙĨ": 4240,
      "ĠØ£Ø³Øª": 4241,
      "ĠØ§ÙĦÙĤÙĦ": 4242,
      "ÙĪÙģÙĬØ±": 4243,
      "ĠÙĬØ¹ÙĪØ¯": 4244,
      "ĠÙĦØ¯ÙĬÙĩØ§": 4245,
      "Ø§ÙħØ§Øª": 4246,
      "ĠÙĨØ§ØŃÙĬØ©": 4247,
      "ĠÙĪØ£ÙĬ": 4248,
      "ĠØ§Ø¬ÙĦ": 4249,
      "ĠØ§ÙĦØ£ÙħØ±ÙĬÙĥÙĬ": 4250,
      "Ø§Ø¦ØŃØ©": 4251,
      "ĠÙħØ³Ø§Ø¹Ø¯": 4252,
      "ĠØ§ÙĦÙĤØ¯Ø±Ø©": 4253,
      "ĠØ§ÙĦØ¨Ø´Ø±ÙĬØ©": 4254,
      "Ø§Ø¦ÙĬØ§": 4255,
      "ĠØ²Ùī": 4256,
      "ĠØ§ÙĦØ¯ÙĬÙħÙĤØ±Ø§Ø·": 4257,
      "Ø§ÙĪØ²": 4258,
      "ĠÙĥÙĪÙĬØ³": 4259,
      "ĠÙĬØŃØªÙĪÙĬ": 4260,
      "ØºØ§Ø¡": 4261,
      "Ø¯Ø±Ø§Øª": 4262,
      "ĠØ§ÙĦØµØºÙĬØ±Ø©": 4263,
      "ØªØ¨Ø©": 4264,
      "ĠÙĦØ¶": 4265,
      "Ø§ÙĨÙĬÙĩ": 4266,
      "ÙĬÙĨØ§Øª": 4267,
      "ĠÙħØ³ÙĦÙħ": 4268,
      "ĠØ§ÙĦÙħØ´Ø§ÙĥÙĦ": 4269,
      "ĠØªØ¬Ø±Ø¨Ø©": 4270,
      "ĠØ¨Ø£ÙĨÙĩØ§": 4271,
      "ĠÙģØ±Øµ": 4272,
      "Ġr": 4273,
      "ĠØ¯Ø§Ø¹": 4274,
      "ĠØ§ÙĦÙħØ¯Ø§Ø±Ø³": 4275,
      "og": 4276,
      "ĠØ§Ø³ØªÙħ": 4277,
      "ĠØ§ÙĦØ£Ø²ÙħØ©": 4278,
      "ĠØ§ÙĦÙĪØ¬Ùĩ": 4279,
      "ĠÙĥÙħÙĬØ©": 4280,
      "ĠØ¨Ø¨": 4281,
      "ĠØ§ÙĦÙĦØ§Ø²ÙħØ©": 4282,
      "ĠØ§ÙĦØ´Ø¹Ø¨ÙĬØ©": 4283,
      "ÙĥÙĬÙħ": 4284,
      "ØªÙĬØŃ": 4285,
      "ĠØ£Ø·ÙĦÙĤ": 4286,
      "Ø¸ÙģÙĬÙĨ": 4287,
      "ÙĪØ¯Ùĩ": 4288,
      "ĠÙĪÙĤØ¹": 4289,
      "ĠØ§ÙĦÙħØ¤Ø³Ø³Ø§Øª": 4290,
      "Ø®Ø·ÙĬØ·": 4291,
      "ĠØ§ÙĦÙĬØ¯": 4292,
      "ĠØ¹Ø¯ÙĬØ¯Ø©": 4293,
      "ĠØ§ÙĦÙħÙĬÙĦ": 4294,
      "ĠØ¶Ø±Ø¨": 4295,
      "ĠÙĦÙĦØºØ§ÙĬØ©": 4296,
      "ĠÙħÙĪØ¶": 4297,
      "Ø§Ø¯Ø§": 4298,
      "ĠÙħÙĪØ³Ùħ": 4299,
      "ĠØ§ÙĦØ¬ÙĦØ¯": 4300,
      "Ø´Ø¨": 4301,
      "ĠØ§ÙĦØªÙĨÙħÙĬØ©": 4302,
      "ĠØ§ÙĦÙĦÙĪÙĨ": 4303,
      "ĠØ§ÙĦÙħÙĪØª": 4304,
      "ĠØ§ÙĦØŃØ¶": 4305,
      "ÙĤØ±Ø©": 4306,
      "ĠØ§ÙĦØ±ÙĤÙħ": 4307,
      "ity": 4308,
      "ĠÙĪØªØ±": 4309,
      "ÙħØ±Ø§Ø¡": 4310,
      "Ø·Ø¨Ø§Ø¡": 4311,
      "ÙģØ°": 4312,
      "ĠØ¨Ø±ÙĬØ·": 4313,
      "ĠÙĪØ§ÙĦØ°Ùī": 4314,
      "Ø¬ÙĪ": 4315,
      "ĠØªØ³Ø¨Ø¨": 4316,
      "ĠØ§ÙĦÙĪØ¸": 4317,
      "ĠÙħØ¯Ø±ÙĬØ¯": 4318,
      "ĠØ£Ø¯Ùī": 4319,
      "ĠØ¥Ø³Ùħ": 4320,
      "ĠØ§Ø¬ÙħÙĦ": 4321,
      "ĠÙĦØªØŃÙĤÙĬÙĤ": 4322,
      "ØªØ¯Ùī": 4323,
      "ÙĤØ§Ø·": 4324,
      "ØµÙī": 4325,
      "ĠØ¯ÙĬØ³ÙħØ¨Ø±": 4326,
      "ĠØ¬ÙħÙĬÙĦØ©": 4327,
      "ĠØ§ÙĦÙħØ¤ÙħÙĨ": 4328,
      "Ġ#": 4329,
      "ĠÙĪØ§ÙĦØ³ÙĬ": 4330,
      "ĠÙĪÙĦÙĨ": 4331,
      "ĠØ§ÙĦØ§ÙĨØ³Ø§ÙĨ": 4332,
      "ĠØ§ÙĦÙĤØª": 4333,
      "ĠØ¨Ø§ÙĦÙģØ¹ÙĦ": 4334,
      "Ø´Ø§Ø¨": 4335,
      "ĠØ§ÙĦØ±Ø¯": 4336,
      "ĠØ«Ø§ÙĦØ«": 4337,
      "Ø¨ÙĩØ©": 4338,
      "ÙĨÙĥ": 4339,
      "ĠØ¹Ø§Ø¯ÙĦ": 4340,
      "ÙĥØ±Ø±": 4341,
      "ÙĨØ§Ø¦ÙĬØ©": 4342,
      "ĠØ§Ø³ØªØ®Ø¯Ùħ": 4343,
      "ĠÙĬÙĨØ¨ØºÙĬ": 4344,
      "ĠØ§ÙĦØ§ÙĤØªØµØ§Ø¯ÙĬ": 4345,
      "ĠÙħØªÙħ": 4346,
      "ĠÙĦÙģØª": 4347,
      "ĠØµÙĨØ¹": 4348,
      "ÙĤØ±Ø£": 4349,
      "ĠØ§ÙĦØ®Ø§ÙħØ³": 4350,
      "gle": 4351,
      "Ø§Ø¦Ø·": 4352,
      "ĠØ§ÙĦÙĨÙĤÙĦ": 4353,
      "Ø§ÙĬØ§": 4354,
      "ĠØ§ÙĦØªÙĤØ±ÙĬØ±": 4355,
      "ĠØ§ÙĦØªÙĨØ¸ÙĬÙħ": 4356,
      "ĠÙħØ·Ø§Ø±": 4357,
      "ĠÙĦØ¯Ø±": 4358,
      "ĠØ¬ÙħØ§Ø¹Ø©": 4359,
      "ÙĨØ·ÙĨ": 4360,
      "ĠØ§ÙĦÙĨÙĤØ¯": 4361,
      "ĠØ§ÙĦÙĤØ§Ø¦ÙħØ©": 4362,
      "ail": 4363,
      "Ø®Ø±Ø©": 4364,
      "ĠØ§ÙĦØ§Øº": 4365,
      "Ø§Ø¨ÙĬØ¹": 4366,
      "ĠØ§ÙĦÙĤÙĪØ©": 4367,
      "ĠØªØµØ±ÙĬØŃ": 4368,
      "Ġon": 4369,
      "ĠØ§ÙĦØ¹ÙħØ§ÙĦ": 4370,
      "ĠØ¨ÙĬØ§ÙĨØ§Øª": 4371,
      "ĠØ§ÙĦÙĨÙĬÙĦ": 4372,
      "ĠÙĪØ§ÙĦÙħØª": 4373,
      "ĠØ§ÙĦØ¯ÙĪÙĦØ§Ø±": 4374,
      "ĠØ§ÙĦÙģØ±ÙĨØ³ÙĬØ©": 4375,
      "ĠØ§ÙĦØ£ØŃØ¯Ø§Ø«": 4376,
      "ĠÚ": 4377,
      "Ø«ÙĤ": 4378,
      "ĠÙħØŃÙĦ": 4379,
      "ĠØ§ØŃÙĨØ§": 4380,
      "ĠÙĪØ§ÙĨØ§": 4381,
      "ÙĪÙĨØª": 4382,
      "ĠØ®Ø·Ø©": 4383,
      "Ø¸ÙħØ§Øª": 4384,
      "ĠÙĪØµÙĦØª": 4385,
      "ĠØ§ÙĦÙħØ³ÙĦÙħ": 4386,
      "pt": 4387,
      "ĠØ´Ùģ": 4388,
      "ĠØ§ÙĦÙĪØ³": 4389,
      "ĠÙħÙĤØ§Ø±ÙĨØ©": 4390,
      "ĠØ¨ÙĦØ§Ø¯": 4391,
      "ĠØ§ÙĦØ§ÙĪÙĦÙī": 4392,
      "ĠPM": 4393,
      "ĠØ§ÙĦØ¬ÙĩØ§Øª": 4394,
      "ĠØ§ÙĦØŃØ±Ø§Ø±Ø©": 4395,
      "ĠÙĦÙĦØ¨": 4396,
      "ĠØ§ÙĦØ³ÙĥØ±": 4397,
      "ĠØ§ÙĦÙĨØ²": 4398,
      "ĠØ§ÙĦØ¬ÙĨÙĪØ¨": 4399,
      "ĠØ§ÙĥØ¨Ø±": 4400,
      "ĠÙĪØ¨Ø±": 4401,
      "ĠX": 4402,
      "ĠØ§ÙĦÙħÙħÙĥÙĨ": 4403,
      "Ø¹Ø¨ÙĬØ±": 4404,
      "ÙĪÙĨÙī": 4405,
      "ĠØ§ÙĦØ¬Ø§Ø±ÙĬ": 4406,
      "ĠØ§ÙĦÙĥØ§ØªØ¨": 4407,
      "ĠØ§ÙĦØºØ°Ø§Ø¦ÙĬØ©": 4408,
      "Ø°Ø¬": 4409,
      "ĠØ§ÙĦØŃØ§ÙĦÙĬØ©": 4410,
      "Ġ29": 4411,
      "ĠØªÙħÙĥÙĨ": 4412,
      "ĠÙĪÙĦÙĥÙĨÙĩ": 4413,
      "ĠØ£ØµÙĦ": 4414,
      "ĠÙħÙĨØŃ": 4415,
      "ĠØ¥Ø³": 4416,
      "Ø§Ø²ÙĨ": 4417,
      "ĠÙĥÙĪØ¨": 4418,
      "ĠÙĪÙħØŃÙħØ¯": 4419,
      "ĠØªÙĪØ§Ø¬Ùĩ": 4420,
      "ĠØ§ÙĦÙĤØ¯ÙĬÙħ": 4421,
      "ĠÙĤØ¶": 4422,
      "ĠØ§ÙĦØŃØ§ÙĦ": 4423,
      "ĠØ§ÙĦØ£Ø¹ÙĦÙī": 4424,
      "ĠØ§ÙĦÙħØ´Ø§Ø±": 4425,
      "ĠØ§ÙĦØ¨Ø§ØŃØ«": 4426,
      "Ø¹Ø¯ÙĬÙĦ": 4427,
      "ĠÙĤØ±Ø±": 4428,
      "ĠÙģÙĥØ§ÙĨ": 4429,
      "ÙĪÙģÙĬ": 4430,
      "ĠØ§ÙĦÙħØ¯ÙĨ": 4431,
      "ct": 4432,
      "Ø§Ø±Ø¨Ø©": 4433,
      "ĠØ§ÙĦØ±Ø¦ÙĬØ³ÙĬ": 4434,
      "ĠÙģØ±ÙĤ": 4435,
      "ĠØ§ÙĦØ¹ØµØ±": 4436,
      "ĠØ¶ØºØ·": 4437,
      "ÙĨØ¯ÙĬØ©": 4438,
      "ĠÙĨÙĤØµ": 4439,
      "40": 4440,
      "ĠÙĪØ§Ø¨": 4441,
      "ÙĥÙħÙĦ": 4442,
      "ĠÙĩØ§Ùħ": 4443,
      "ĠÙĤØª": 4444,
      "ĠØ³ÙĬØ§Ø±Ø©": 4445,
      "art": 4446,
      "ØªØ¨Ø§Ø·": 4447,
      "ĠHotel": 4448,
      "ĠØ¹ÙĩØ¯": 4449,
      "ØŃØ¯Ø§Ø«": 4450,
      "ĠÙħÙĪØ§Ø¯": 4451,
      "Ġ2008": 4452,
      "ÙħØŃ": 4453,
      "ĠÙħÙĦØ§ÙĬÙĬÙĨ": 4454,
      "ĠÙģØ§Ø±": 4455,
      "ĠØ¬ÙĬØ¯Ø©": 4456,
      "ĠØ§ÙĦØ¥Ø¹ÙĦØ§ÙĨ": 4457,
      "ĠØ§ÙĦØ§ÙħØ±": 4458,
      "Ø§Ø¯Ø¦": 4459,
      "ĠÙħØ³Ø±ØŃ": 4460,
      "ĠØªÙĤÙĬ": 4461,
      "ĠØ§ÙĦØ¹ÙħÙĦÙĬØ§Øª": 4462,
      "ĠØ³ÙĦÙĬÙħØ§ÙĨ": 4463,
      "ĠÙĬØ¨Ø¯Ø£": 4464,
      "ÙĪØ¯Ø§": 4465,
      "ĠØ§ÙĦØ±ÙĬØ§Ø¶Ø©": 4466,
      "ÙĨØ¯ÙĬ": 4467,
      "ÙĤØ·Ø§Ø¹": 4468,
      "ĠØ£ØŃØ¯Ø«": 4469,
      "ĠÙĪØ§ÙĦØªÙĨ": 4470,
      "ĠØ£Ø·": 4471,
      "ĠØ´Ø±Ø§Ø¡": 4472,
      "ĠØ¹ÙĨØ¯Ùĩ": 4473,
      "ĠØ§ÙĦØ¨Ø±ÙĦÙħØ§ÙĨ": 4474,
      "ĠÙħÙĥØ§ÙģØŃØ©": 4475,
      "ĠÙĦØ¯ÙĬÙĥ": 4476,
      "ĠÙĦÙĬÙĨ": 4477,
      "ĠÙĦØ¹ÙħÙĦ": 4478,
      "ĠÙħØ¹ÙĨØ§": 4479,
      "ĠØ§ÙĦØ·Ø¨ÙĬØ¹ÙĬ": 4480,
      "ĠÙĪØ¹ÙĨØ¯ÙħØ§": 4481,
      "ĠØ³ÙħÙĪ": 4482,
      "ÙĬØªÙĬ": 4483,
      "ĠÙĪØ¨Ø¯": 4484,
      "ĠØ£Ø¬Ø±": 4485,
      "Ø§ØªÙĦ": 4486,
      "ØºØ§ÙĨ": 4487,
      "ĠØ§ÙĦØ¨Ø±ÙĪ": 4488,
      "Ø¹Ø¯Ø¯": 4489,
      "ĠØ§ÙĦØ´Ø§Ø¨": 4490,
      "ÙĥØ±Ùħ": 4491,
      "ÙĬÙĥÙĬ": 4492,
      "ĠØ§ÙĦØ¹ÙĦÙħÙĬ": 4493,
      "ĠÙģØ±Ø¶": 4494,
      "ĠØ§ÙĦÙĦÙĬÙĦ": 4495,
      "ĠÙĪØ§Ø±": 4496,
      "ĠÙĦÙħØ±": 4497,
      "ĠØ§ÙĦÙĦÙĩÙħ": 4498,
      "ĠÙħØ¯Ø§Ø±": 4499,
      "Ø§ÙĤÙĩ": 4500,
      "ĠØ§ÙĦÙĨØ¬Ø§ØŃ": 4501,
      "ĠÙħØ±ÙĪØ±": 4502,
      "ĠÙħØ¯Ø±Ø³Ø©": 4503,
      "ÙĤØ§Ùħ": 4504,
      "ĠØ¥Ø¶Ø§Ùģ": 4505,
      "ĠÙĪØ§ÙĦØ³ÙĦØ§Ùħ": 4506,
      "ĠØ§ÙĦÙģØµÙĦ": 4507,
      "ĠØ§ÙĦØ£Ø³Ø¯": 4508,
      "Ø·Ø¨ÙĬÙĤ": 4509,
      "ĠØ§ÙĦØ³Ø¬": 4510,
      "ĠØ®Ø·Ø±": 4511,
      "ĠØµØ§Ø±": 4512,
      "Ġâ": 4513,
      "ĠÙĩØ§": 4514,
      "ĠØ§ÙĦØ¥ØµØ§Ø¨Ø©": 4515,
      "ĠØ£ÙĥØªØ±": 4516,
      "ÙĪØªÙĬ": 4517,
      "ØªØ§ÙĨ": 4518,
      "ĠÙĨÙĨ": 4519,
      "ĠØºØ±Ø¨": 4520,
      "ÙĬÙĥÙĬØ©": 4521,
      "ont": 4522,
      "Ø«Ø±Ø©": 4523,
      "ĠØªØŃÙĪÙĬÙĦ": 4524,
      "ÙĤÙĬØ§Ùħ": 4525,
      "ĠØ§ÙĦØ§Ø³ØªØ«ÙħØ§Ø±": 4526,
      "ĠÙĦÙĬÙĦØ©": 4527,
      "ĠØ¹Ø·": 4528,
      "ĠØ§ÙĦÙĤØ³Ùħ": 4529,
      "ĠØºØ±ÙģØ©": 4530,
      "ĠAl": 4531,
      "ĠÙħÙĨØ²": 4532,
      "ĠÙĪØ£Ø®": 4533,
      "ĠØ£Ø¨Ø·Ø§ÙĦ": 4534,
      "ĠØ§ÙĦØ¨ÙĦØ¯Ø§ÙĨ": 4535,
      "ĠÙĦØ§Ø¨Ø¯": 4536,
      "ĠØ§ÙĦØ¹ÙĪØ¯Ø©": 4537,
      "ĠØ¥ÙĨÙĬ": 4538,
      "ĠØ¨Ø§Ø³": 4539,
      "ØŃÙĬØ§Ø©": 4540,
      "ĠØ§ÙĦØ³ÙĨÙĪØ§Øª": 4541,
      "ĠØ§ÙĦØŃØ¯ÙĬØ¯": 4542,
      "ĠØ§ÙĦÙĤØ¶ÙĬØ©": 4543,
      "ĠØ§ÙĦÙħØªØŃØ¯Ø«": 4544,
      "ĠØ§Ø®ØªØ¨Ø§Ø±": 4545,
      "ĠØ§ÙĦØªØ¹ÙĦÙĬÙħÙĬØ©": 4546,
      "Ø³ÙĬÙħ": 4547,
      "ØŃØ³Ø¨": 4548,
      "ĠØ§ÙĦØ¥ÙħØ§Ùħ": 4549,
      "ĠØ²ÙĪØ¬ÙĩØ§": 4550,
      "Ø§Ø¨ÙĬÙĨ": 4551,
      "Ø§ÙĦÙĬÙĩ": 4552,
      "ĠÙħØ¹ÙĬÙĨ": 4553,
      "ĠÙĪØ¨Ø¹Ø¶": 4554,
      "ĠÙĦÙĦØµ": 4555,
      "ĠØ§ÙĨØªØ´Ø§Ø±": 4556,
      "Ġ2009": 4557,
      "ĠØ§ÙĦØ«ÙĤØ§ÙģØ©": 4558,
      "Ø¨Ø§ÙĨ": 4559,
      "Ø°Ùģ": 4560,
      "ĠØ§ÙĦÙĨÙĬ": 4561,
      "ĠØ§ÙĦØ®Ø±": 4562,
      "ĠØ§ÙĦØ·Ø¨ÙĬØ¨": 4563,
      "Ø§Ø±ØªÙĩ": 4564,
      "ĠÙĥÙĪØ±": 4565,
      "ĠØ¨ÙħØ³": 4566,
      "Ø¶ÙĬØ±": 4567,
      "Ø§ØŃÙĩ": 4568,
      "ĠØ§ÙĦØ¹Ø§ÙħÙĦÙĬÙĨ": 4569,
      "ØªØµØ§Øµ": 4570,
      "ĠÙģØ¬": 4571,
      "Ø°ÙĪØ±": 4572,
      "ĠØ§ÙĦØŃØ§Ø¬Ø©": 4573,
      "ĠØ§ÙĦÙĨÙĪØ§Ø¨": 4574,
      "oogle": 4575,
      "ÙīØ¡": 4576,
      "Ø§ÙĤØ´Ø©": 4577,
      "ÙĬÙĥØ§": 4578,
      "ĠØªØµÙĪÙĬØ±": 4579,
      "ĠØ§ÙĦÙħØ´Ø§Ø±Ùĥ": 4580,
      "ĠØ§ÙĦÙĥØ§Ùħ": 4581,
      "ĠØ§Ø³ØªØ¹Ø¯Ø§Ø¯": 4582,
      "ĠØ§ÙĦÙħÙħØªØ§Ø²": 4583,
      "ĠØ£ÙħÙĬØ±": 4584,
      "ĠÙĬØŃØ¨": 4585,
      "ĠØ§ÙĦØ¹Ø¸ÙĬÙħ": 4586,
      "ĠØ§ÙĦÙĨØ´Ø§Ø·": 4587,
      "ĠØ§ÙĦØªØ®": 4588,
      "ĠØ§ØªØ®Ø§Ø°": 4589,
      "ĠØ§ÙĦØ³ÙĬØ§Ø±Ø©": 4590,
      "ĠØ§ÙĦØ¹ÙĦÙĪÙħ": 4591,
      "ĠÙĪØ£Ø¶Ø§ÙģØª": 4592,
      "ØªÙĤÙĦ": 4593,
      "Ø¦ÙĬ": 4594,
      "ĠÂ»": 4595,
      "ĠÙĬØ¬ÙĪØ²": 4596,
      "ĠØªØŃØ¯ÙĬØ«": 4597,
      "ĠØ¨ÙĬÙĨÙĩÙħØ§": 4598,
      "ĠÙĪÙĨØŃÙĨ": 4599,
      "ÙĤÙĬØ©": 4600,
      "ĠØ®Ø³": 4601,
      "ĠØ·ÙĨ": 4602,
      "ĠÙħØ³Ø§ØŃØ©": 4603,
      "ĠØ§ÙĦØ¬Ø²ÙĬØ±Ø©": 4604,
      "ÙħÙĪÙĦ": 4605,
      "ĠØ£ÙĬØ©": 4606,
      "ĠÙĪÙħÙĨÙĩØ§": 4607,
      "ĠØ§ÙĦÙħØµØ§Ø¯Ø±": 4608,
      "ĠÙĦÙĦÙĪ": 4609,
      "ĠØŃØ³Ø§Ùħ": 4610,
      "Ø·Ùī": 4611,
      "Ø±ÙĬØ¬": 4612,
      "ĠØ§ÙĨÙģ": 4613,
      "ĠØ§ÙĦØªØº": 4614,
      "ĠØ§ÙĦÙĨÙĩØ§ÙĬØ©": 4615,
      "ÙĨØ¯ÙĨ": 4616,
      "ĠØªÙĪØ²ÙĬØ¹": 4617,
      "ĠØ§ÙĦÙħÙĥØª": 4618,
      "ĠØ§ÙĦÙħØ±ÙĬØ¶": 4619,
      "ØŃÙĤÙĤ": 4620,
      "ĠØ·ÙĪØ§ÙĦ": 4621,
      "ĠØ£ÙĪØ¨": 4622,
      "Ø±Ø¬ÙħØ©": 4623,
      "ĠØ¬Ø§Ø¡Øª": 4624,
      "Ø§ÙĦØ¹": 4625,
      "ĠÙĪÙģØ±": 4626,
      "ĠØ§ÙĦÙħØªØ±": 4627,
      "ĠÙĥÙĪÙħ": 4628,
      "ĠØ³Ø£": 4629,
      "ĠÙĬØ¨ÙĦØº": 4630,
      "ĠØªØ¹Ø²ÙĬØ²": 4631,
      "ĠØ¨ØªØ´": 4632,
      "ĠØ§ÙĦÙħØŃÙĦÙĬ": 4633,
      "________": 4634,
      "ĠÙĨØ¬Ùħ": 4635,
      "ĠÙĦÙĦØªØŃ": 4636,
      "ØªÙħØª": 4637,
      "ĠØ¥ÙĤØ§ÙħØ©": 4638,
      "ĠÙħØ§Ùĩ": 4639,
      "ĠÙĥØ¨Ø§Ø±": 4640,
      "ĠØ§ÙĦØ²ÙĬØª": 4641,
      "Ġe": 4642,
      "ĠØŃÙĤÙĬÙĤØ©": 4643,
      "Ø«ÙĨØ§Ø¡": 4644,
      "ĠØªØ¬Ø¹ÙĦ": 4645,
      "ĠÙģÙĥØ±": 4646,
      "Ø²Ø¹": 4647,
      "ĠØ§ÙĦØ¬ÙĪÙĬØ©": 4648,
      "ĠØ§ÙĦÙĩÙĪØ§Ø¡": 4649,
      "ĠÙģÙĨØ¯ÙĤ": 4650,
      "ĠØ£Ø¶": 4651,
      "ĠØ§ÙĦÙĪÙģ": 4652,
      "ĠØ¨Ø¯ÙĪØ±": 4653,
      "Ø§ÙĥØ±": 4654,
      "Ø£ÙĨØ§": 4655,
      "ĠÙĪØ£Ø¹": 4656,
      "ĠØªÙĤØ¯Ø±": 4657,
      "ØªÙĩØ§Ø¡": 4658,
      "ĠØªÙĨØ¸ÙĬÙģ": 4659,
      "ÙĩÙĬÙĦ": 4660,
      "ÙĤØ§Ø°": 4661,
      "Ø«ÙħØ±": 4662,
      "ĠÙĪØªØ¬": 4663,
      "ĠØ§ÙĦÙħÙĨØ§Ø³Ø¨Ø©": 4664,
      "Ø·Ø±ØŃ": 4665,
      "ĠØ§ÙĦÙĪØ²ÙĬØ±": 4666,
      "ĠØŃØ§Ø¬Ùĩ": 4667,
      "ĠØ£ÙĨÙģØ³": 4668,
      "ÙĥÙħØ§": 4669,
      "ĠØ¯ÙĦÙĬÙĦ": 4670,
      "ÙĦÙĤÙī": 4671,
      "ĠØ§ÙĦØ¥Ø³ÙĥÙĨØ¯Ø±ÙĬØ©": 4672,
      "ÙĬÙĦÙĬ": 4673,
      "ĠØ§ÙĦÙħØªØ¹ÙĦÙĤØ©": 4674,
      "ĠØ§ÙĦØ£ØŃÙĬ": 4675,
      "ĠØ´ÙĨ": 4676,
      "ĠØ§ÙĦØ³Øª": 4677,
      "Ø±Ø¨Ø·": 4678,
      "ĠØ§ÙĦÙĦÙĪØ§Ø¡": 4679,
      "ĠØ§ÙĦÙĪØ²ÙĨ": 4680,
      "ĠØ¯ÙħØ´ÙĤ": 4681,
      "ÙĥÙħØ§ÙĦ": 4682,
      "Ø¬ÙħÙĪØ¹Ø©": 4683,
      "ĠÙĬÙħØª": 4684,
      "ĠØŃØ¶": 4685,
      "ĠØ§ÙĦÙĨØ´Ø±": 4686,
      "ĠØ£ØºÙĨÙĬØ©": 4687,
      "Ø³Ø±Ø§Ø¦ÙĬÙĦÙĬØ©": 4688,
      "ĠØ£ÙħÙĦ": 4689,
      "ĠØ§ÙĦÙħØªÙħ": 4690,
      "ÙħÙĪØª": 4691,
      "ÙħÙĪÙĬØ©": 4692,
      "ĠØ§ÙĦØ£Ø³Ø¹Ø§Ø±": 4693,
      "ĠØ§ÙĦØªÙĤÙĦÙĬ": 4694,
      "ĠØ£Ø¨Ø¯Ø§": 4695,
      "ĠØ§ÙĦØºØ§Ø²": 4696,
      "Ġ2018": 4697,
      "Ø£Ø³ÙĬØ³": 4698,
      "ĠØ§ÙĦØªØ¬Ø§Ø±Ø©": 4699,
      "ast": 4700,
      "Ø§Ø±Ø¶": 4701,
      "ĠØ£ÙĨÙĨØ§": 4702,
      "ĠØ§ÙĦÙģØ±ÙĨØ³ÙĬ": 4703,
      "ĠØ§ÙĦØ§Ø¹ÙĦØ§Ùħ": 4704,
      "ĠÙħÙĤØ¯": 4705,
      "ĠØ¹Ø§Ø¯": 4706,
      "ĠÙĬØ±Ùī": 4707,
      "ĠØ¯Ø§Ø®": 4708,
      "ÙĦÙħÙĬ": 4709,
      "ĠØ§ØªØµØ§ÙĦ": 4710,
      "ÙģØ²": 4711,
      "ĠØµÙĨØ§Ø¹Ø©": 4712,
      "Ø§ÙĨØ¹": 4713,
      "ĠØ§ÙĦØ³ÙĪ": 4714,
      "ĠØ§ÙĦÙĥØªØ¨": 4715,
      "ĠØ¨ÙĨÙĥ": 4716,
      "ĠØ§ÙĦÙħØ³Ø¦ÙĪÙĦ": 4717,
      "Ø§ÙĥÙĨ": 4718,
      "ÙĪØ°": 4719,
      "ĠØ§ÙĦØ£ØµÙĦ": 4720,
      "ĠØ´Ø±ØŃ": 4721,
      "ĠØ§ÙĦÙħØ¤Ø³Ø³Ø©": 4722,
      "ĠØ£Ø´Ø®Ø§Øµ": 4723,
      "ĠÙĪØ£ÙĨÙĩ": 4724,
      "ĠØ§ÙĥØªØ±": 4725,
      "Ø¹ÙĪØ¨Ø©": 4726,
      "ĠÙħÙĨØ§": 4727,
      "Ø¨Ø·ÙĪÙĦØ©": 4728,
      "ĠØªÙĪÙĨØ³": 4729,
      "ØµØ±Ùģ": 4730,
      "ĠÙħØ¹Ø±ÙĪÙģ": 4731,
      "ĠØ¨ØªÙĤØ¯ÙĬÙħ": 4732,
      "ĠØ§ÙĦØ§ØŃØªÙģ": 4733,
      "ĠØ£ØºØ³Ø·Ø³": 4734,
      "ĠØ§ÙĦØ«ÙĦØ§Ø«Ø©": 4735,
      "ĠÙħÙĪØ³Ùī": 4736,
      "av": 4737,
      "ØªØ±Ø§Ùģ": 4738,
      "ĠÙĬØ¬Ø¯": 4739,
      "Ġre": 4740,
      "Ø§ÙĦÙĬØ¨": 4741,
      "ĠÙĪØ§ÙĦÙħØ¯": 4742,
      "ĠØ¯ÙĤØ§Ø¦ÙĤ": 4743,
      "Ø±ÙĪÙģØ©": 4744,
      "ĠØ§Ø³ØªØº": 4745,
      "ĠÙĨØ³Ø®Ø©": 4746,
      "ĠÙĤÙĦÙĬÙĦØ©": 4747,
      "Ø§Ø¯ÙĩØ§": 4748,
      "ĠØ§ÙĦÙģØ¹": 4749,
      "Ġ2019": 4750,
      "ĠØ§ÙĦØ±Ùĥ": 4751,
      "ÙĩÙĦÙĥ": 4752,
      "ĠÙĦØ¬ÙħÙĬØ¹": 4753,
      "ĠØ£Ø±Ø¨Ø¹": 4754,
      "ĠØ§ÙĦÙĤÙĪÙī": 4755,
      "ĠÙĪØ¥ÙĨÙħØ§": 4756,
      "ĠØ§ÙĦØ§ÙĨØªÙĤ": 4757,
      "ĠØ§ÙĦØ£Ø³Ø±": 4758,
      "ĠØ§ÙĦØ¹ÙĤÙĦ": 4759,
      "ĠØ§ÙĦØ¨Ø±ÙĬØ¯": 4760,
      "ĠØ§ÙĦÙģÙĬØ³": 4761,
      "Ġ((": 4762,
      "ĠØ§ÙĦÙģØ¶": 4763,
      "Ø§Ø·ÙĬ": 4764,
      "ĠØ§ÙĦÙĪØŃØ¯Ø©": 4765,
      "ÙĥØªØ§Ø¨": 4766,
      "ĠØ§ÙĦÙħÙĨØ§Ùģ": 4767,
      "ĠØŃÙĤÙĤ": 4768,
      "ĠÙĤØ±Ø§Ø¡Ø©": 4769,
      "ĠØ§Ø³ØªÙħØ±Ø§Ø±": 4770,
      "ĠØµÙģÙĪÙģ": 4771,
      "ĠØªØŃØ±ÙĬØ±": 4772,
      "ØªÙħÙĨÙī": 4773,
      "Ø¢Øª": 4774,
      "ĠÙĦÙĥÙĨÙĩØ§": 4775,
      "Ø°ÙĬÙĨ": 4776,
      "Ø±ÙĬØŃØ©": 4777,
      "ĠØ§ÙĦÙĤØ§Ø¹Ø¯Ø©": 4778,
      "ĠØ§ÙĦÙģØ±Ø¯": 4779,
      "ĠØ§ÙĦÙĥÙĦÙĬØ©": 4780,
      "ĠÙĪØ§ÙĦØªØŃ": 4781,
      "ĠØ§ÙĦØ£Ø³ØªØ§Ø°": 4782,
      "ĠØ¥ÙĨÙĥ": 4783,
      "ĠÙģØµÙĦ": 4784,
      "ĠØ³ÙĬØ§Ø±Ø§Øª": 4785,
      "ĠØ§ÙĦØªÙĨÙģÙĬØ°": 4786,
      "ĠØ§ÙĦØ¨Ø±ÙĬØ·Ø§ÙĨÙĬØ©": 4787,
      "ĠØ§ÙĦÙĨØ¨Ø§Øª": 4788,
      "ĠØ§ÙĦÙĩÙĦØ§ÙĦ": 4789,
      "Ø¶Ø±ÙĪØ±Ø©": 4790,
      "Ø³Ø§Ø¯": 4791,
      "ĠÙģØ±ØŃ": 4792,
      "ĠØªØ§Ø¨Ø¹": 4793,
      "ĠØ³Ùĥ": 4794,
      "Ġfor": 4795,
      "ĠØ§ÙĦØ´Ø±ÙĤÙĬØ©": 4796,
      "Ġ>": 4797,
      "ÙĤÙģ": 4798,
      "ĠØ§ÙĦÙĥÙĩØ±Ø¨Ø§Ø¡": 4799,
      "ÙĬØ§Ø¯": 4800,
      "Ø¯Ø®ÙĦ": 4801,
      "ĠÙĪØ§ÙĦØ¹ÙħÙĦ": 4802,
      "Ø«ÙħØ§ÙĨ": 4803,
      "ĠØ´ÙĩØ§Ø¯Ø©": 4804,
      "ÙĪØ¯ÙĬ": 4805,
      "ĠÙĪÙħØ³Øª": 4806,
      "ĠØ³ØªØ©": 4807,
      "ĠÙĦØŃØ¸Ø©": 4808,
      "Ø±Ø®": 4809,
      "ĠØ¹Ø¯Ø¯Ø§": 4810,
      "ĠÙģØ§Ø²": 4811,
      "ĠØ¬Ø§Ùĩ": 4812,
      "Ø±Ø¬Ùī": 4813,
      "ĠÙĪØ§Ø¶ØŃ": 4814,
      "ĠØ¨Ø¬Ø¯": 4815,
      "Ø²ÙĬÙĦ": 4816,
      "ÙĨØ§ÙĬØ©": 4817,
      "ĠÙĪØ£Ø³": 4818,
      "ĠØ´Ø¨Ùĩ": 4819,
      "Ø§Ø·Ø¦": 4820,
      "ĠÙħØµØ±ÙĬ": 4821,
      "ĠØ§ÙĦØªÙģØ§ØµÙĬÙĦ": 4822,
      "ĠØ§ÙĦØµÙģØŃØ©": 4823,
      "ĠÙĪÙĬÙĦ": 4824,
      "Ø«Ø§ÙĦ": 4825,
      "ĠØµÙĦØ§Ø©": 4826,
      "ĠØ§ÙĦÙħÙĪØ¬ÙĪØ¯": 4827,
      "ĠÙħØ¹Ø±Ø¶": 4828,
      "ews": 4829,
      "ðŁ": 4830,
      "ĠØªØ¶Ùħ": 4831,
      "ĠØºÙĬØ§Ø¨": 4832,
      "ĠØ§ÙĦÙħØªÙĪÙĤØ¹": 4833,
      "ĠÙħØ¯Ø±Ø¨": 4834,
      "Ø§ÙĪÙĦØ§Øª": 4835,
      "oft": 4836,
      "ĠØªØ¬ÙħØ¹": 4837,
      "Ø®ØµÙĪØµ": 4838,
      "ĠY": 4839,
      "ĠÙħÙħØ§Ø±Ø³Ø©": 4840,
      "ĠÙĦÙĪÙĨ": 4841,
      "ĠÙĨØ·Ø§ÙĤ": 4842,
      "ĠØµØŃÙĬ": 4843,
      "ĠØ§ÙĦÙĬÙĪÙĨ": 4844,
      "ĠØ¹Ø¨Ø§Ø³": 4845,
      "Ø±Ø£": 4846,
      "ĠØ§ÙĦØ±Ø¦": 4847,
      "ĠØ¹Ø§ÙĪØ²": 4848,
      "Ø°Ø§Ø¨": 4849,
      "ĠØ±Ø§Ø¦Ø¹Ø©": 4850,
      "ĠØ§ÙĦØ¥Ø³Ø±Ø§Ø¦ÙĬÙĦÙĬØ©": 4851,
      "ĠÙĥØªØ§Ø¨Ø©": 4852,
      "ÙĬØ·Ø§ÙĨ": 4853,
      "ĠÙħØ®Øª": 4854,
      "ĠØ´Ø±ÙĪØ·": 4855,
      "ĠØ§ÙĦØŃØ¬": 4856,
      "ĠØ§ÙĦØ±Ø§Ø¨Ø·": 4857,
      "ÙĦØ§ÙĦØ©": 4858,
      "ĠØ§ÙĦÙħØªÙĪØ³Ø·": 4859,
      "ĠØ¥ÙħÙĥØ§ÙĨÙĬØ©": 4860,
      "ĠØ¨ØµÙģ": 4861,
      "ĠÙĪÙĦØ°ÙĦÙĥ": 4862,
      "out": 4863,
      "ĠØªÙĪÙĤØ¹": 4864,
      "ĠØµÙĨØ¯ÙĪÙĤ": 4865,
      "Ø³ÙħØ¹": 4866,
      "ÙĪØ¶Ø§Ø¹": 4867,
      "ĠØ§ÙĦÙħØ§Ø¶Ùī": 4868,
      "ĠÙħÙĩØ±Ø¬Ø§ÙĨ": 4869,
      "ĠØ¨ÙĬÙĩ": 4870,
      "ĠÙĦÙī": 4871,
      "ÙĪØ±Ø¬": 4872,
      "ĠØ´Ø§Ø±": 4873,
      "ØµØ±ÙĬØ©": 4874,
      "ros": 4875,
      "ĠÙģÙĬØªØ§ÙħÙĬÙĨ": 4876,
      "ĠØ§ÙĩØªÙħØ§Ùħ": 4877,
      "Ø¯Ø¯Ø§": 4878,
      "ĠØ§ÙĦÙħÙĨØ§Ø³Ø¨": 4879,
      "ĠØ§ÙĦØŃÙĤÙĪÙĤ": 4880,
      "ĠØ§ÙĦØ«Ø§ÙĨÙĪÙĬØ©": 4881,
      "ĠØ§ÙĦÙģÙĥØ±": 4882,
      "ÙħØ§ÙĦÙĬ": 4883,
      "ĠØ¨Ø¹ÙĬØ¯Ø§": 4884,
      "ĠØ§ÙħØ±Ø£Ø©": 4885,
      "ĠØ§ÙĦÙĪØ¬": 4886,
      "ĠØ¨Ø¹ÙĨ": 4887,
      "Ø±Ø¯Ø´Ø©": 4888,
      "ĠØªØ±Ùī": 4889,
      "ĠÙħÙĪØ¬": 4890,
      "ĠØ¥Ø³ÙĦØ§Ùħ": 4891,
      "Ø§ÙĤØ¨": 4892,
      "ØªÙĩÙī": 4893,
      "ĠØ§ÙĦØ£ÙħØ±Ø§Ø¶": 4894,
      "28": 4895,
      "ØªØ±ÙĬ": 4896,
      "ĠÙĪÙħÙĦ": 4897,
      "ĠØ£Ø®Ø±": 4898,
      "Ø§Ø¶Ø±": 4899,
      "ĠØ§ÙĬØ¬": 4900,
      "Ø·Ø¨Ø®": 4901,
      "ĠØ¨ÙħØ¯ÙĬÙĨØ©": 4902,
      "ĠØ§ÙĦØ£Ø¹Ø¶Ø§Ø¡": 4903,
      "ĠØ²ÙĪØ¬ØªÙĩ": 4904,
      "ĠÙĬÙĦÙĬ": 4905,
      "ĠØ§ÙĦØ´ÙĥÙĦ": 4906,
      "ĠØ§ÙĦÙħØ«Ø§ÙĦ": 4907,
      "ĠÙģÙĬÙĨ": 4908,
      "ĠÙĤÙĪÙĬ": 4909,
      "ĠÙĦÙĦØ£Ø³": 4910,
      "ĠØ§ÙĦØ¥ÙĨØ³Ø§ÙĨÙĬØ©": 4911,
      "27": 4912,
      "ÙĦÙĪ": 4913,
      "ĠØ¥Ø¹Ø¯Ø§Ø¯": 4914,
      "ĠØŃØ¨ÙĬØ¨": 4915,
      "ĠÙĪØªÙģ": 4916,
      "ĠØ§ÙĦÙħØ¯ÙĨÙĬ": 4917,
      "ØªØµØ§Ø±": 4918,
      "ÙĩÙĪÙħ": 4919,
      "ĠÙĪØ¨Ø¯Ø£": 4920,
      "ĠØŃÙħÙĦØ©": 4921,
      "ĠØ§ÙĦØ¨Ø´": 4922,
      "Ø´Ø±Ø§Ø¡": 4923,
      "ĠØ§ØºÙĨÙĬØ©": 4924,
      "Ø§Ø¬Ø¦ÙĬÙĨ": 4925,
      "ĠÙĦÙĬØª": 4926,
      "ĠØ£Ø´Ø§Ø±": 4927,
      "ØªÙħØ§ÙĦ": 4928,
      "Ø±ÙĤØ§Ùħ": 4929,
      "ĠÙħØ¬Ùĩ": 4930,
      "ĠÙĦÙĨÙģØ³": 4931,
      "ĠØ§ÙĦÙħÙĩÙĨØ¯Ø³": 4932,
      "ĠØ§ÙĦØ¥Ø®ÙĪØ§ÙĨ": 4933,
      "ÙĦÙģØ²ÙĬÙĪÙĨ": 4934,
      "Ø¬ÙĬØ¨": 4935,
      "Ø²Ø§Ø¨": 4936,
      "ÙĬØ¯Ø§ÙĨ": 4937,
      "ĠØ±ØŃÙĦØ©": 4938,
      "ĠØ§ÙĦÙĥØ§ÙħÙĦØ©": 4939,
      "ĠØ§ÙĦØªÙĩ": 4940,
      "ĠØ¬ÙĪÙĨ": 4941,
      "ĠØ§ÙĦÙĪØ§ÙĤ": 4942,
      "ĠØ§ÙĦØ¸Ø±ÙĪÙģ": 4943,
      "ĠØ§ÙĨØªÙĩØ§Ø¡": 4944,
      "ĠØ¨Ø¹Ø¶ÙĩØ§": 4945,
      "ĠÙħÙĪÙĤØ¹Ùĥ": 4946,
      "ĠØ§ÙĦØªØŃØ±ÙĬØ±": 4947,
      "ÙĪØ¯ÙĬØ©": 4948,
      "ĠØ¨Ø·ÙĦ": 4949,
      "Ø£Ùħ": 4950,
      "Ø±ÙĥÙĩ": 4951,
      "ĠØ´Ø®ØµØ§": 4952,
      "ĠØ¥Ø¬Ø±Ø§Ø¡Ø§Øª": 4953,
      "ĠÙĨØ¬Ø¯": 4954,
      "ĠØ·ÙģÙĦ": 4955,
      "ĠÙħÙĨØªØµÙģ": 4956,
      "ĠØ§ÙĦÙĨØ¨": 4957,
      "ĠØ§Ø¨Ø±": 4958,
      "Ġ60": 4959,
      "ĠÙĪØ§Ø³Ø¹Ø©": 4960,
      "ĠÙĪØ¬ÙĦ": 4961,
      "ĠØ§ÙĦØ£ÙģØ±ÙĬÙĤ": 4962,
      "ĠØ§ÙĦØµØºÙĬØ±": 4963,
      "ĠÙĦÙħØ´": 4964,
      "ĠÙĦØ¯ÙĬÙĩÙħ": 4965,
      "ver": 4966,
      "ĠØ§ÙĦÙħÙģØª": 4967,
      "ĠØ§ÙĦØ¨ÙĪÙĦ": 4968,
      "ĠØ§ÙĦÙĨØ§Øª": 4969,
      "Ø±Ø¨Øª": 4970,
      "Ø§ÙĪØ¶Ø§Øª": 4971,
      "ĠÙĪØ§Øµ": 4972,
      "ĠÙħØ³ÙĦ": 4973,
      "ĠØ£Ø±Ø¯": 4974,
      "ĠØ¨Ø§ÙĦØº": 4975,
      "ÙĪØ³Ø¹": 4976,
      "ĠØ§ÙĦØ¹Ø±Ø¨Ùī": 4977,
      "ĠØªØ´ÙħÙĦ": 4978,
      "ĠØ§ÙĦØªØ¨": 4979,
      "ĠØ§ÙĦØ£Ø¬ÙĨ": 4980,
      "ĠØªØŃÙĪÙĦ": 4981,
      "Ø´Ùĩ": 4982,
      "ĠØ¥Ø¹ÙĦØ§ÙĨ": 4983,
      "ĠØ§ÙĦØŃØ§Ø¯Ø«": 4984,
      "ĠØ³ÙĬØ§Ø³Ø©": 4985,
      "Ø¹ØªØ¨Ø±": 4986,
      "ĠØ§ÙĦØ§Ø±Ø¶": 4987,
      "ÙħØ§ÙĥÙĨ": 4988,
      "ĠØºØ±": 4989,
      "ĠÙħØªÙĪØ³Ø·": 4990,
      "ĠØ§ÙĦÙħØ³ØªØ´ÙģÙī": 4991,
      "ĠØ§ÙĦØ£Ø³Ø±Ø©": 4992,
      "ĠØ§ÙĦØ¨ÙĬØ¦Ø©": 4993,
      "ĠÙĤÙĬØ§Ø¯Ø©": 4994,
      "ĠÙĪØ¹ÙĦ": 4995,
      "ĠØ¨ÙĨØ§": 4996,
      "ĠØ§ÙĦØªÙĤØ¯Ùħ": 4997,
      "ĠØ§ÙĦØ¹Ø¯Ø¯": 4998,
      "ØªØ±Ùħ": 4999,
      "ĠØªØŃØ³ÙĬÙĨ": 5000,
      "ĠÙĪØ¹ÙħÙĦ": 5001,
      "Ø§Ø¦Ùĥ": 5002,
      "ĠØ£ÙħÙĬÙĨ": 5003,
      "ØªØ³": 5004,
      "ĠÙĥØ£ÙĨ": 5005,
      "ĠØ§ÙĨÙĪØ§Ø¹": 5006,
      "ĠÙħØªØ§Ø¨Ø¹Ø©": 5007,
      "ĠRe": 5008,
      "Ø§ÙĦÙĬØ¯": 5009,
      "ĠØ³ÙĬÙģ": 5010,
      "ĠØ§ÙĦØ°Ùĩ": 5011,
      "ĠÙĪØ³ÙĪÙģ": 5012,
      "ĠØ§ÙĦÙħÙĪØ§ÙģÙĤ": 5013,
      "ĠÙĦØ£ÙĬ": 5014,
      "ĠØ§ÙĦØ¶ÙĪØ¡": 5015,
      "Ġth": 5016,
      "ĠÙĦØµØ§ÙĦØŃ": 5017,
      "Ø§ÙĬØª": 5018,
      "ĠØ¨Ø¯Ø§": 5019,
      "ĠØ§ÙĦØŃÙģÙĦ": 5020,
      "ÙĩÙĪØ©": 5021,
      "ĠÙĦÙĤØ¨": 5022,
      "ĠÙĪØ§ÙĦÙħØ¤": 5023,
      "ate": 5024,
      "ĠØ§ÙĦØ£ÙħÙĬØ±ÙĥÙĬ": 5025,
      "ĠÙĦÙĬÙģ": 5026,
      "ĠØ¨ÙĬØŃ": 5027,
      "ĠØ§ÙĦØŃÙĬÙĪØ§ÙĨØ§Øª": 5028,
      "ĠÙĤØ§Ø¦Ø¯": 5029,
      "ĠØ±Ø£Ùī": 5030,
      "ÙģØ§Ø¡Ø©": 5031,
      "ĠØ¨Ø§Ùĥ": 5032,
      "ĠÙĤÙĦÙĬÙĦ": 5033,
      "ĠØ¬Ø§Ø¦Ø²Ø©": 5034,
      "ĠØ«ÙĪØ±Ø©": 5035,
      "Ø¯ÙĬÙĤØ©": 5036,
      "ĠØ¨ÙĤÙĬØ§Ø¯Ø©": 5037,
      "Ġ%": 5038,
      "ÙĨÙĬÙĩ": 5039,
      "ĠØ§ÙĦØ¯Ø±Ø¬": 5040,
      "ĠØ§ÙĦÙħØªÙĨ": 5041,
      "ÙĪØ§Ø¬Ø¯": 5042,
      "ÙĦØ·": 5043,
      "ĠØ¨Ø¬Ø§ÙĨØ¨": 5044,
      "ĠØ§Ø³ØªØ¹ÙħØ§ÙĦ": 5045,
      "ĠØªÙĦØ¨ÙĬØ³": 5046,
      "ØªØªØ§ØŃ": 5047,
      "ĠØ§ÙĦØ³ÙĬÙĨÙħØ§": 5048,
      "ĠØ§ÙĦÙħØ·ÙĦÙĪØ¨": 5049,
      "ĠØ«Ø§ÙĨÙĬØ©": 5050,
      "ĠØ§ÙĦÙħÙĨØªØ¬Ø§Øª": 5051,
      "ĠHD": 5052,
      "Ø§ÙģÙī": 5053,
      "ĠÙĪØ§Ø´ÙĨØ·ÙĨ": 5054,
      "ĠØ£ÙĪØ¨Ø§ÙħØ§": 5055,
      "ÙĪØªÙĩ": 5056,
      "ĠÙģÙĪØ±": 5057,
      "ĠÙģØ±Ø¯": 5058,
      "Ø¬ÙĬØ¹": 5059,
      "ĠØŃÙĥÙĪÙħ": 5060,
      "ĠØ¯Ø§ÙĬ": 5061,
      "ĠØ§ÙĦÙĨØªÙĬØ¬Ø©": 5062,
      "ĠÙĪÙĩÙĦ": 5063,
      "ĠÙħØ±Ùĩ": 5064,
      "ĠÙĪØ§ÙĦÙħØŃ": 5065,
      "ĠØ§ÙĦØºÙĬØ±": 5066,
      "Ø¹ÙħØ§Ø±": 5067,
      "ØµØ¯ÙĤ": 5068,
      "ĠÙģÙĩØ°Ø§": 5069,
      "ĠGoogle": 5070,
      "ĠØ§ÙĦÙħÙĥØªØ¨": 5071,
      "ĠØ§ÙĦØ§ØªØµØ§ÙĦØ§Øª": 5072,
      "ĠØ£ÙħØ±ÙĬÙĥ": 5073,
      "Ø¨Ø¹Ø§Ø¯": 5074,
      "Ø§ÙĨØ³": 5075,
      "ĠØ§ÙĦØ®ÙĦØ§ÙĬØ§": 5076,
      "ĠØŃØ¶ÙĪØ±": 5077,
      "ĠØ³Ø·ØŃ": 5078,
      "ĠØ§ÙĦØºØ±Ùģ": 5079,
      "Ø·ÙĦØ§Ø¨": 5080,
      "ĠØ³Ø¨ØŃØ§ÙĨÙĩ": 5081,
      "ĠØ£Ø²ÙħØ©": 5082,
      "Ø§ØµÙģØ§Øª": 5083,
      "ĠØ§ÙĦØ³ÙĬØ§Ø³Ø©": 5084,
      "Ø²Ø§ÙĬØ¯": 5085,
      "ĠÙħØ¹ÙĩÙħ": 5086,
      "ĠÙħØªØ¹Ø¯Ø¯Ø©": 5087,
      "ĠÙĦØ£ÙĪÙĦ": 5088,
      "ĠØ§ÙĦÙħÙĪØ§Ø·ÙĨ": 5089,
      "Ø´ÙĥÙĦ": 5090,
      "ĠØ³ÙĪ": 5091,
      "ĠØ§ÙĦØ±ÙĤ": 5092,
      "ĠØ§ÙĦØ¥ÙĤÙĦÙĬÙħ": 5093,
      "ĠÙĪÙĦÙħØ§": 5094,
      "ÙģØ¹ÙĬÙĦ": 5095,
      "ment": 5096,
      "ĠØ¨ÙĬØ³": 5097,
      "ĠØ¨ØªØ¹": 5098,
      "ØµØ§Øª": 5099,
      "ĠØ§ÙĦØ±Ø§Ø¨Ø¹Ø©": 5100,
      "ĠØ§ÙĦØ°Ø§Øª": 5101,
      "ĠØ§ÙĦÙħØ³Ø¬Ø¯": 5102,
      "ĠØ§ÙĦÙħØ±ÙĥØ²ÙĬ": 5103,
      "Ø¨Ø±ÙĬ": 5104,
      "Ø±ÙĪØ¹Ø§Øª": 5105,
      "ĠØ§ÙĦØµÙĬÙģ": 5106,
      "ĠØ§ÙĬØ§Ùħ": 5107,
      "ØŃØªØ§Ø¬": 5108,
      "ĠØ§ÙĦØªØ±Ø¨": 5109,
      "ĠÙĦÙĦØ³ÙĬ": 5110,
      "ĠÙħØ¹Ø¯ÙĦ": 5111,
      "ĠØ§ÙĦÙĨØ§Ø¦Ø¨": 5112,
      "ĠÙģÙģÙĬ": 5113,
      "Ø¤ÙĬØ©": 5114,
      "Ø¯Ø±Ø³": 5115,
      "ĠØ¨Ø³ÙĩÙĪÙĦØ©": 5116,
      "ĠØ§ÙĦØ¯ÙĬÙĨÙĬØ©": 5117,
      "ill": 5118,
      "ĠØ¬ÙĪØ¬ÙĦ": 5119,
      "Ø§ÙĤØªØµ": 5120,
      "ĠØªØ¹Ø±ÙĬÙģ": 5121,
      "ĠØ£ØŃØ¨": 5122,
      "Ø´ÙĬØ§Ø¡": 5123,
      "ĠØ§ÙĦØ¹Ø§ÙĦÙĬ": 5124,
      "ĠÙĤØ±ÙĬØ©": 5125,
      "ĠØ§ÙĦÙħÙĤØ§ÙĦ": 5126,
      "ob": 5127,
      "ĠÙħÙĬØ§Ùĩ": 5128,
      "Ø¶Ø§Ø¹": 5129,
      "ĠØ´Ø§Ø±Ø¹": 5130,
      "ĠØ§ÙĦØ¯Ø³ØªÙĪØ±": 5131,
      "Ø§Ø¹ÙĦ": 5132,
      "ĠØ§ÙĦÙĤØ¶": 5133,
      "ĠØ§ÙĦØ¥Ø¬Ø±Ø§Ø¡Ø§Øª": 5134,
      "ÙĪÙĤØ©": 5135,
      "ĠØ§ÙĦÙħÙĪØ§Ø¶ÙĬØ¹": 5136,
      "Ø´Ø±Ø§Ùģ": 5137,
      "Ø§ÙģØ±ÙĬÙĨ": 5138,
      "Ġi": 5139,
      "ĠÙ¡Ù": 5140,
      "Ø±Ø§Ø¯": 5141,
      "ĠÙħØ¨Ø±": 5142,
      "ÙĩÙħÙĬØ©": 5143,
      "ĠØªÙħØ§Ùħ": 5144,
      "ĠÙħØ³ØªØ´ÙģÙī": 5145,
      "ĠÙĪØ¹Ø¯Ø¯": 5146,
      "ĠÙĨØµØ±": 5147,
      "Ø§ØŃØ¸Ø©": 5148,
      "ĠØ§ÙĦØ¥Ø«": 5149,
      "Ø¹ÙĦÙĩ": 5150,
      "ĠØ§ØŃØª": 5151,
      "ĠØ§ÙĦØµØŃÙģÙĬ": 5152,
      "ĠÙĤÙĦØ¨ÙĬ": 5153,
      "ĠØ§ÙĦÙħÙĩÙħØ©": 5154,
      "ĠÙĦÙĦØ²": 5155,
      "Ø§ÙĦØ¨Ø©": 5156,
      "ĠØ°Ø§ØªÙĩ": 5157,
      "Ø§ÙĥØ±Ø©": 5158,
      "ĠÙħÙĦØ¹": 5159,
      "ĠØŃØµÙĦØª": 5160,
      "Ø§Ø¬ØªÙħØ§Ø¹": 5161,
      "ĠÙĥÙĦÙħØ§": 5162,
      "ÙĬÙĤØ§Ùģ": 5163,
      "ĠØ£ÙĤÙĪÙĦ": 5164,
      "ÙĬØªÙĬÙĨ": 5165,
      "ĠØºØ§ÙĦØ¨Ø§": 5166,
      "ÙĨØ³Ø§Ø¡": 5167,
      "ĠÙħÙĤØªÙĦ": 5168,
      "Ø®Ø·Ø§Ø¡": 5169,
      "ows": 5170,
      "ØªÙĪÙĨ": 5171,
      "ĠØ§ÙĦÙħØ¦Ø©": 5172,
      "ĠØ°Ùĩ": 5173,
      "ĠÙĪØ§ÙĦØ¨Ø±": 5174,
      "ĠØºÙĬØ±ÙĩØ§": 5175,
      "ĠØªÙĤÙĬÙĬÙħ": 5176,
      "ĠÙħÙĪÙĦ": 5177,
      "ĠÙħÙĨØ²ÙĦ": 5178,
      "ĠØ³ÙģØ±": 5179,
      "ĠØ§ÙĦØŃÙģØ§Ø¸": 5180,
      "ĠØ¨ÙĬÙĩØ§": 5181,
      "ĠÙĪÙĥØ£ÙĨ": 5182,
      "Ø¨ÙĥØ§Øª": 5183,
      "ĠØ¨Ø³ÙĬØ·Ø©": 5184,
      "ÙĩÙĦØ§Ùĥ": 5185,
      "ĠØ£Ø³ÙħØ§Ø¡": 5186,
      "ĠØ§ÙĦÙħØ±Ø©": 5187,
      "ĠØ¯ÙĪØ±ÙĬ": 5188,
      "ĠÙĦØ§ÙĨÙĩ": 5189,
      "ĠÙħØ·ÙĦ": 5190,
      "Ø¬Ø§Ø¨Ø©": 5191,
      "ĠØ§ÙĨÙĩÙħ": 5192,
      "ĠØªØ´ÙĥÙĦ": 5193,
      "Ø§ÙĪÙĨ": 5194,
      "ĠÙĪØ±ÙĤ": 5195,
      "ĠÙĬØµØ¨ØŃ": 5196,
      "ĠØµØ¨Ø§ØŃØ§": 5197,
      "ĠÙģÙĬÙĩÙħ": 5198,
      "ĠØ§ÙĦØ³Ø¹Ø±": 5199,
      "ĠØ±Ø¤ÙĬØ©": 5200,
      "ĠØ¨Ø±ÙĬØ·Ø§ÙĨÙĬØ§": 5201,
      "ĠÙħÙĨÙĬ": 5202,
      "ĠÙĥØ¯Ø©": 5203,
      "ĠØ³Ø§ÙĨ": 5204,
      "ÙĦØ§ÙĪØ©": 5205,
      "ĠÙĪØ§ÙĦÙħØ´": 5206,
      "ĠÙĪÙĦØ§ÙĬØ©": 5207,
      "ĠAM": 5208,
      "ÙĪÙĦØ§ÙĬØ©": 5209,
      "Ø¯ÙĪØ§Øª": 5210,
      "ÙĤÙĪÙħ": 5211,
      "ĠØµØ¹Ø¨": 5212,
      "Ø´Ø±ÙĤ": 5213,
      "ÙĪØ·ÙĨ": 5214,
      "ĠØ§ÙĦØ£ÙĥØ¨Ø±": 5215,
      "ĠØ¹ÙĦÙĬØ§": 5216,
      "ĠØ§Ø³Ø¹Ø§Ø±": 5217,
      "ĠÙĪØ§Ùĥ": 5218,
      "Ø³ØªÙĬØ±": 5219,
      "Ġ2020": 5220,
      "ĠØ³ÙħØ¹": 5221,
      "03": 5222,
      "ĠØºØ¯Ø§": 5223,
      "ĠØ§Ø³ØªØ·Ø§Ø¹": 5224,
      "ĠØ§ÙĦØªØŃÙĥÙħ": 5225,
      "ĠØ¨Ø§Ø±ÙĬØ³": 5226,
      "ĠØ§ÙĦØ£Ø±Ø§Ø¶ÙĬ": 5227,
      "ĠØµÙĬ": 5228,
      "ĠØ¹Ø³ÙĥØ±ÙĬØ©": 5229,
      "ĠØ®ÙĦØ§Ùģ": 5230,
      "ĠØªØ¹ØªÙħØ¯": 5231,
      "ĠÙĪÙĦÙĥÙĨÙĩØ§": 5232,
      "ĠØ§Ø¶Ø·Ø±": 5233,
      "qu": 5234,
      "ĠØ¬ÙĪØ²": 5235,
      "ĠØ²ÙħØ§ÙĨ": 5236,
      "ĠØ¹Ø§ÙħÙĦ": 5237,
      "ĠØªØ£ØªÙĬ": 5238,
      "ĠÙĬØ³ÙħÙī": 5239,
      "ĠÙĬØ²Ø§ÙĦ": 5240,
      "ĠÙĪÙĬÙģ": 5241,
      "ĠÙĦØ³Ùĩ": 5242,
      "ĠØ´ÙĥØ±Ø§": 5243,
      "ĠØ¨Ø§ÙĦØµ": 5244,
      "ĠØ§ÙĦÙĪØ«": 5245,
      "ĠØ§ÙĦØ¶Ø±": 5246,
      "Ø¬Ø²Ø§Ø¡": 5247,
      "ĠØ£ÙĦÙħØ§ÙĨÙĬØ§": 5248,
      "29": 5249,
      "ĠØ¨Ø¹ÙĨÙĪØ§ÙĨ": 5250,
      "ĠÙĦØºØ©": 5251,
      "Ø£Ø«Ø±": 5252,
      "ĠØªØ¹ÙĪØ¯": 5253,
      "ĠØ§ÙĦÙĬÙĪÙħÙĬØ©": 5254,
      "ĠØ§Ø¹ØªØ¨Ø§Ø±": 5255,
      "ĠØ§ÙĦÙħÙĤØ§ÙĦØ©": 5256,
      "ĠØªÙĪÙĬØªØ±": 5257,
      "ĠØ§ÙĦØ¨ÙĨØ§Øª": 5258,
      "ĠØ§Ø·ÙĦ": 5259,
      "ÙĪÙģØª": 5260,
      "ĠÙħØ³ØªÙĪÙĬØ§Øª": 5261,
      "ĠÙĤØµØµ": 5262,
      "ĠØ±ÙĪØ§ÙĬØ©": 5263,
      "ĠØ·Ø§Ø±ÙĤ": 5264,
      "ĠØ¸ÙĩØ±Øª": 5265,
      "ĠØ¨ÙĦØºØª": 5266,
      "ÙĤÙĦØ©": 5267,
      "ĠØ¨ÙĬÙĥ": 5268,
      "Ø§Ø¹ÙĬØ¯": 5269,
      "ĠØ§ÙĦØ´Ø¨ÙĥØ©": 5270,
      "ĠØ¶Ø¹Ùģ": 5271,
      "ap": 5272,
      "ĠØ§ÙĦØªØºÙĬÙĬØ±": 5273,
      "Ø§Ø¶Ø§ÙģØ©": 5274,
      "ĠØ²ÙĬÙĨ": 5275,
      "ĠØ§ÙĦØ´Øª": 5276,
      "ĠØ¬ÙĩÙĪØ¯": 5277,
      "Ø¬ØªÙħØ¹": 5278,
      "ĠØ°ÙĪ": 5279,
      "ĠÙħØ¬ØªÙħØ¹": 5280,
      "ĠØ§ÙĦÙħÙĦÙģØ§Øª": 5281,
      "ÙĪÙĬÙħ": 5282,
      "ĠÙħØ§Ø²": 5283,
      "Ø§ÙĬÙħ": 5284,
      "Ø·Ø§": 5285,
      "ÙĪÙħÙĩ": 5286,
      "ĠØ§ÙĪØ±": 5287,
      "ÙħÙĪØ¶ÙĪØ¹": 5288,
      "ĠØ§ÙĦÙĤØ§ÙĨÙĪÙĨÙĬØ©": 5289,
      "ĠØ±ØŃÙħÙĩ": 5290,
      "Ø°Ø§Øª": 5291,
      "ĠØ§ÙĦØªÙĪÙĨ": 5292,
      "ĠÙħØªÙĪ": 5293,
      "ĠØ§ÙĦØ§ÙĩØªÙħØ§Ùħ": 5294,
      "ĠØ£ÙĬÙĨ": 5295,
      "ÙĪØ³Ø·Ø©": 5296,
      "ÙĦÙĬÙģØ²ÙĬ": 5297,
      "ĠÙĪØ¸Ø§Ø¦Ùģ": 5298,
      "Ø§Ø¦Øµ": 5299,
      "ĠØ§ÙĦØ®ÙĦÙģ": 5300,
      "ÙĥÙĦÙģ": 5301,
      "ĠØ§ÙĦØªÙģÙĥÙĬØ±": 5302,
      "Ø§ÙĦØ´": 5303,
      "ĠÙħÙĨØ§Ø³Ø¨Ø©": 5304,
      "ĠØ§ÙĦØŃÙĪ": 5305,
      "ĠØ§ÙĦØ·Ø§Ø¦Ø±Ø©": 5306,
      "ĠÙĪØ§ÙĦÙħØ³Øª": 5307,
      "ĠØ¹ÙħÙĦÙĩ": 5308,
      "ØŃØ§ÙĬØ§": 5309,
      "ĠØ§ÙĦØ§Ø«Ø§Ø«": 5310,
      "ØµØ±ÙĬ": 5311,
      "ĠØ¹ÙĦÙħØ§": 5312,
      "ĠØ®Ø·ÙĪØ©": 5313,
      "ĠØ£ÙģÙĦØ§Ùħ": 5314,
      "ĠØ§ÙĦÙħÙĪÙĤÙģ": 5315,
      "ĠØ¥Ø«": 5316,
      "ĠØ³ÙĤÙĪØ·": 5317,
      "ĠØ§ÙĦÙħØªÙĩÙħ": 5318,
      "ard": 5319,
      "ram": 5320,
      "ØªØŃØ§ÙĨØ§Øª": 5321,
      "ĠØ§ÙĦØ³ÙĬØ·Ø±Ø©": 5322,
      "ĠÙħÙħÙĬØ²": 5323,
      "ĠØ§ÙĦØŃØ±ÙĬØ©": 5324,
      "ĠØ§ÙĦØ³Ø§Ø¯Ø³": 5325,
      "ĠØ¥Ø´": 5326,
      "ĠÙĪØ§ÙĦØ§Øª": 5327,
      "ĠØ§ÙĦØ´Ø§Ø¹Ø±": 5328,
      "ĠØ§ÙĦÙħÙĤØ§ÙĪÙħØ©": 5329,
      "ĠÙĨÙĬÙĪØ²": 5330,
      "ĠØ§ÙĦÙĤÙĨØ§Ø©": 5331,
      "ĠÙħØ§Ø¡": 5332,
      "ÙĬØ¯Ùĩ": 5333,
      "ØŁ!": 5334,
      "ÙĤÙĦØ§ÙĦ": 5335,
      "ĠØ§ÙĨÙĬ": 5336,
      "ĠØ§ÙĦØµØŃÙĬÙģØ©": 5337,
      "ĠØ§ÙĦØ£Ø®Ø¨Ø§Ø±": 5338,
      "ÙĬØ§Ø¯Ø©": 5339,
      "Ø¤Ø§Ø¯": 5340,
      "ĠØ¶Ùħ": 5341,
      "ĠØ§ÙĦÙħØ¹Ø±ÙĪÙģ": 5342,
      "Ø±Ø¬Ø§ÙĦ": 5343,
      "ack": 5344,
      "ĠØ§ÙĦØ¨ÙĨØ§Ø¡": 5345,
      "ĠØ§ÙĦÙĨØ¬ÙĪÙħ": 5346,
      "ĠØ³ÙħÙĬØ±": 5347,
      "26": 5348,
      "Ø¨ØŃØ§Ø«": 5349,
      "ĠØŃÙħØ§Ø³": 5350,
      "ĠØ¹Ø±ÙĪØ¶": 5351,
      "Ø§Ø¯ÙĬÙħÙĬØ©": 5352,
      "ĠÙĩØ´": 5353,
      "ĠÙĩØ¬ÙĪÙħ": 5354,
      "ĠÙĦÙĦØ§Øª": 5355,
      "ĠØ±Ø³Ø§Ø¦ÙĦ": 5356,
      "ĠØ§ÙĦÙħØ³ÙĬØŃ": 5357,
      "ĠØ§ÙĦØªØ¹ÙĦÙĬÙĤØ§Øª": 5358,
      "33": 5359,
      "ĠÙĬØªØŃØ¯Ø«": 5360,
      "ĠØ³ÙĬØ§Ø³ÙĬØ©": 5361,
      "ĠØ§ØªØ¬Ø§Ùĩ": 5362,
      "ĠØŃØ±Øµ": 5363,
      "ĠØŃÙģ": 5364,
      "ĠØ§ÙĦÙĤÙĬØ§Ø¯Ø©": 5365,
      "ĠØ§ÙĨØªÙĩÙī": 5366,
      "ÙĨØ§Ø¦ÙĬ": 5367,
      "Ø³ÙĬØ§": 5368,
      "ĠØªØ²ÙĬØ¯": 5369,
      "ÙĬØ±ÙĬØ§": 5370,
      "ĠØ§ÙĦØ±Ùħ": 5371,
      "ØªØ¨Ø§Ùĥ": 5372,
      "ĠØ³Ø§Ø¨ÙĤØ§": 5373,
      "ĠØ£Ø¹Ø¯": 5374,
      "ØµØ§Øµ": 5375,
      "ĠÙĥÙĩØ±Ø¨": 5376,
      "ĠØªØ¹ÙĬØ´": 5377,
      "ĠØ¥ÙĨÙĨØ§": 5378,
      "ĠØ«Ø§ÙĨÙĬØ§": 5379,
      "ĠÙĦÙĦØªÙĨ": 5380,
      "Ø§Ø§Ø§Ø§Ø§Ø§Ø§Ø§": 5381,
      "nd": 5382,
      "ĠØ¥Ùħ": 5383,
      "ĠÙĪØ§ÙĦØ¯Ùĩ": 5384,
      "ĠØ§ÙĦØ¨Ø®": 5385,
      "ĠÙħØŃÙĥÙħØ©": 5386,
      "ĠÙĬØ´Ø¹Ø±": 5387,
      "df": 5388,
      "ØŃÙĥ": 5389,
      "ØºØ§Ø±": 5390,
      "ĠÙĪØ£Ùģ": 5391,
      "ĠØ±Ø£ÙĬ": 5392,
      "ÙĪØµÙĦ": 5393,
      "ĠØ£Ø·ÙģØ§ÙĦ": 5394,
      "ĠØ§ÙĦÙĨØ¸": 5395,
      "ĠÙħØŃØ§ÙģØ¸": 5396,
      "ĠÙħÙħØ«ÙĦ": 5397,
      "ØªÙĬØ©": 5398,
      "ĠÙĪØ§Ùģ": 5399,
      "ÙĤØ§ÙħØ©": 5400,
      "ĠØªÙģØ³ÙĬØ±": 5401,
      "ĠÙħØ¹Ø§Ùĥ": 5402,
      "ĠØ§ÙĦØ¥Ø³Ùħ": 5403,
      "ĠØºÙĬØ±Ùĩ": 5404,
      "Ø¸Ø¨ÙĬ": 5405,
      "ĠØ§ÙĦØ´Ø¯ÙĬØ¯": 5406,
      "ĠØ§ÙĦØµØ¨Ø§ØŃ": 5407,
      "ØªØ±Ø§Ø¶": 5408,
      "ĠØ¨ØªØ§Ø±ÙĬØ®": 5409,
      "Ø§ÙĥÙħØ©": 5410,
      "ĠØ§ÙĦØ´ÙĪØ·": 5411,
      "ĠØ§ÙĦØ®Ø¶": 5412,
      "ĠØ¥ÙĨÙħØ§": 5413,
      "ĠØ£Ø¹ÙĦÙħ": 5414,
      "Ġ194": 5415,
      "ĠÙĪÙĨØª": 5416,
      "ĠÙĨØ§Ø±": 5417,
      "ĠØ¨Ø§ÙĦØ°ÙĥØ±": 5418,
      "ĠØªØ¬Ø§ÙĪØ²": 5419,
      "ĠÙĪØ£ÙĨØª": 5420,
      "ĠÙĪØ£ÙĬØ¶Ø§": 5421,
      "ĠÙĥØ£": 5422,
      "Ø²Ø§ÙĦ": 5423,
      "ÙĬØ¯Ø§Øª": 5424,
      "ĠØ¨Ø£ÙĬ": 5425,
      "ĠØŁØŁ": 5426,
      "ĠÙĬØ´ÙĥÙĦ": 5427,
      "Ø°ÙĬØ¨": 5428,
      "ĠØ§ÙĦØªÙħÙĪ": 5429,
      "Ø§Ø¦ÙĨØ§": 5430,
      "ÙĬØ¯ÙĬØ§": 5431,
      "Ø¸Ø§Ùĩ": 5432,
      "ĠØ§ÙĦÙĤÙĪ": 5433,
      "ĠØ¹ÙĨØ¯Ùĥ": 5434,
      "ĠÙģÙĪØ§Ø¦Ø¯": 5435,
      "):": 5436,
      "ĠØ¹Ø²ÙĬØ²": 5437,
      "ĠØªÙĪØ¬ÙĬÙĩ": 5438,
      "ĠØ¨ÙĤÙĪØ©": 5439,
      "Ø´ÙĦÙĪÙĨØ©": 5440,
      "ĠØ³ÙĪØ±Ø©": 5441,
      "ĠØ§ÙĦØ¬ÙħØ§ÙĩÙĬØ±": 5442,
      "ÙĦÙģØª": 5443,
      "Ø§ÙĦØªØ²Ø§Ùħ": 5444,
      "ĠØ¹Ø¨Ø¯Ø§ÙĦØ¹Ø²ÙĬØ²": 5445,
      "ĠÙĬÙĪÙģØ±": 5446,
      "ĠÙĨØ§Ø¬": 5447,
      "ĠØ¯Ø±Ø¬Ø§Øª": 5448,
      "Ø±ÙĪÙĬØ¯": 5449,
      "ĠÙĪØªØµ": 5450,
      "ĠÙĪÙĤØªÙĩØ§": 5451,
      "ĠØ¨Ø±Ø¶": 5452,
      "ĠØ§ÙĦØ¨Ø¹": 5453,
      "Ø¶ÙħØ§Ùħ": 5454,
      "ost": 5455,
      "ĠÙħÙĪØ¬ÙĪØ¯Ø©": 5456,
      "ĠÙĤØ¯Ø±Ø©": 5457,
      "ĠØ£ØºÙĦØ¨": 5458,
      "ÙĩØ©": 5459,
      "ĠÙħÙģÙĬØ´": 5460,
      "ĠØ¨Ø§Ø®": 5461,
      "ĠØ¨ÙĥØ±": 5462,
      "ØºØ¨Ø©": 5463,
      "ĠÙĪØ¬ÙĩØ©": 5464,
      "ĠÙĤØµÙĬØ±Ø©": 5465,
      "ĠØ§ÙĦÙĥÙĨÙĬØ³Ø©": 5466,
      "ÙĨÙĬØ¹": 5467,
      "Ø¨Ø§Ùĥ": 5468,
      "ĠØ§ÙĦÙĤØµØ©": 5469,
      "ĠØ£ÙħØ±ÙĬÙĥØ§": 5470,
      "ĠØ§ÙĦÙħØ³Ø§Ø¹Ø¯": 5471,
      "ĠØ§ÙĦØ³ÙĬØ§ØŃØ©": 5472,
      "ÙħØªØ¹": 5473,
      "Ø§ÙĩÙħØ©": 5474,
      "ĠÙħØ¶ÙĬÙģØ§": 5475,
      "th": 5476,
      "ĠÙĦÙĪÙĥ": 5477,
      "ĠÙĦÙĨØ¯ÙĨ": 5478,
      "ĠØŃØ§Ùħ": 5479,
      "ĠÙĬØ¹ØªÙħØ¯": 5480,
      "ĠØ¨ØŃÙĤ": 5481,
      "ĠÙĪØ§ÙĬ": 5482,
      "ÙĦÙĬÙĦØ©": 5483,
      "ĠØ§ÙĦÙĤØ°": 5484,
      "ĠØ§ÙĨØ³": 5485,
      "ĠÙħØ´Ø§Ø±Ùĥ": 5486,
      "ĠØ¨Ø§ÙĦÙĦØºØ©": 5487,
      "ĠØ§Ø³Ø±Ø§Ø¦ÙĬÙĦ": 5488,
      "ĠØ§ÙĦÙĤÙħØ±": 5489,
      "ĠØ¢Ø«Ø§Ø±": 5490,
      "ÙĦÙĤØ§Ø¡": 5491,
      "ĠØ¨ØŃØ§Ø¬Ø©": 5492,
      "ĠØ§ÙĦØ¬ÙħØ§Ø¹Ø©": 5493,
      "ÙĦÙĬÙĪÙĨ": 5494,
      "ĠØ¨Ø¹Ø¯Ùħ": 5495,
      "ĠØ§ÙĦØ¬Ø§ÙħØ¹Ø§Øª": 5496,
      "06": 5497,
      "Ø±Øµ": 5498,
      "ĠÙĬØ®Ø±Ø¬": 5499,
      "ØºÙĪØ·": 5500,
      "ĠÙĪØªØ±Ùĥ": 5501,
      "ĠÙĪØ£ØŃÙħØ¯": 5502,
      "ĠÙĪØ§Ø¶ØŃØ©": 5503,
      "ĠØ§ÙĦØ¹ÙĤØ¯": 5504,
      "ĠØ§ÙĦØ±Ø§ØŃØ©": 5505,
      "Ø¬ÙħÙĬÙĦ": 5506,
      "ĠØ§ÙĦÙħØ³Ø§Ø¹Ø¯Ø©": 5507,
      "ĠØ³Ø±Ø¹Ø©": 5508,
      "ĠØ¹Ø§Ø±": 5509,
      "ĠØ¹ÙĪØ¯Ø©": 5510,
      "ĠØ³ÙĨÙĬÙĨ": 5511,
      "ĠØ§ÙĦØµØŃÙĬØŃ": 5512,
      "ĠÙĪÙħØ¤": 5513,
      "ĠØ¨Ø§ÙĦÙĤØ±Ø¨": 5514,
      "ĠØ§ÙĦÙĤØ¶Ø§ÙĬØ§": 5515,
      "ĠØ£ÙħØ§ÙĥÙĨ": 5516,
      "ĠØ§ÙĦØµÙĨØ§Ø¹ÙĬØ©": 5517,
      "ĠØ¨ØªØ±": 5518,
      "ĠÙĤØ§Ø¯": 5519,
      "ØªÙħØ¹Ø§Øª": 5520,
      "ĠØ§ÙĦØ·ÙĬØ±Ø§ÙĨ": 5521,
      "ĠØ§ÙĦÙħØ³ØªØ´Ø§Ø±": 5522,
      "ĠØ§Ø¹Øª": 5523,
      "ĠØ§ÙĦØ³ÙĬØ§ØŃÙĬØ©": 5524,
      "ĠØ¸Ø±ÙĪÙģ": 5525,
      "ĠØ§ÙĤØªØ±": 5526,
      "ĠØ§ÙĦÙħÙĨØªØ¬": 5527,
      "ĠØ£Ø¬ÙħÙĦ": 5528,
      "ĠÙĬØªØ±": 5529,
      "ĠØ§ÙĦØ£ÙħØ©": 5530,
      "ĠØ¨Ø±Ø¦Ø§Ø³Ø©": 5531,
      "ĠØ§ÙĦØ´Ø±Ø¹ÙĬØ©": 5532,
      "ĠØ¨Ø§ÙĦÙĥØ§ÙħÙĦ": 5533,
      "ĠØ§ÙĦØ§Ø¶": 5534,
      "ĠÙĦØ¨Ø¹Ø¶": 5535,
      "ĠØ§ÙĦÙħØ®Ø±Ø¬": 5536,
      "ĠØ¥ÙĦÙĩ": 5537,
      "ĠØ§ÙĦØ£ÙģØ¶ÙĦ": 5538,
      "ÙĬØ§ØªÙĩ": 5539,
      "ÙĦÙĤØª": 5540,
      "ÙĪØ§Ø¦ÙĬØ©": 5541,
      "ĠÙħØ§ÙĦÙĥ": 5542,
      "Ø®ÙĬÙĨ": 5543,
      "ĠØ³Ø§Ø®": 5544,
      "ĠØ§ÙĦØ¯ÙĪÙĦÙī": 5545,
      "ÙģÙĬØ°ÙĬ": 5546,
      "ĠØ§ÙĦØ£Ø³ÙĪØ§ÙĤ": 5547,
      "ĠØ§ÙĦØ§Ø³Ø¨ÙĪØ¹": 5548,
      "ĠÙĪØ±Ø¨ÙħØ§": 5549,
      "Ø§ÙĦØªÙĩ": 5550,
      "Ø¯Ø±ÙĬØ¨": 5551,
      "ĠØ¹ÙħØ§": 5552,
      "ĠØ§ÙĦÙĥØ´Ùģ": 5553,
      "ÙĪØªÙĬÙĨ": 5554,
      "ĠØ§ÙĦØ¬ÙħÙĬÙĦØ©": 5555,
      "ĠØ´Ø±Ø·Ø©": 5556,
      "ĠØ§ÙĦØªØ´ØºÙĬÙĦ": 5557,
      "ĠØ§ÙĦØ´ÙħØ§ÙĦÙĬØ©": 5558,
      "ĠØ¨ÙĥÙħ": 5559,
      "ĠØ¨Ø§ÙĤÙĬ": 5560,
      "Ø²ÙĬØ©": 5561,
      "Ø§Ø¹Ùī": 5562,
      "Ø§Ø²Ø©": 5563,
      "ĠØªØ´ÙĬØ±": 5564,
      "Ġ195": 5565,
      "ĠØ§ÙĦØ¹Ø¯ÙĦ": 5566,
      "ĠØ§ÙĦÙħØªØŃ": 5567,
      "ĠØ¬ÙħØ¹ÙĬØ©": 5568,
      "ĠØ§ÙĦÙħØ¬Ø§ÙĦØ§Øª": 5569,
      "ĠØªØ®Ø±Ø¬": 5570,
      "ØµÙĦØ©": 5571,
      "ĠØ§ÙĦØ³ÙĥÙĨ": 5572,
      "35": 5573,
      "ĠÙĤØ±ÙĬØ¨Ø§": 5574,
      "ÙģÙĬØ¶": 5575,
      "ÙĪÙĬÙĪØ±Ùĥ": 5576,
      "ÙĦÙĤÙĬ": 5577,
      "ĠÙĬØŃØ§ÙĪÙĦ": 5578,
      "ÙĤÙĬÙĬÙħ": 5579,
      "ĠØ¨Ø¹Ø¶ÙĩÙħ": 5580,
      "ĠØ§ÙĦØªØŃØ§ÙĦÙģ": 5581,
      "ĠØ§Ø¯Ø§Ø±Ø©": 5582,
      "Ø¹Ø§ÙĨ": 5583,
      "ĠØªØŃÙĤÙĤ": 5584,
      "Ø¬ÙħÙĩÙĪØ±": 5585,
      "ĠØ¨Ø§Ø¹ØªØ¨Ø§Ø±": 5586,
      "se": 5587,
      "ĠÙħØ²ÙĬØ¯": 5588,
      "ĠØ§ÙĦØªÙħØ±": 5589,
      "Ø·ÙĦØ§Ø¹": 5590,
      "Ø¬ÙĩØ§Ø²": 5591,
      "ĠØ§ÙĦÙģÙĬØ±ÙĪØ³": 5592,
      "Ġ35": 5593,
      "ĠØ§ÙĦÙħÙĪØ§Ø±Ø¯": 5594,
      "ĠÙĪØ±ØºÙħ": 5595,
      "ĠÙĤØ±Ø±Øª": 5596,
      "ĠÙĤÙĦÙĬÙĦØ§": 5597,
      "ĠØŃØ§Ø¬": 5598,
      "Ø§Ø¦Ø±ÙĬ": 5599,
      "ĠØ§ÙĦØ°ÙĥØ±": 5600,
      "2013": 5601,
      "ĠÙĬØ±Øª": 5602,
      "Ø£ØªÙĬ": 5603,
      "ĠØµØ±Ùģ": 5604,
      "ÙĬØªÙĩÙħ": 5605,
      "ÙĬØ²Ø§ÙĨ": 5606,
      "ĠÙĦØªØ´": 5607,
      "ĠØªØ´ÙĩØ¯": 5608,
      "ĠØ·ÙĦØ§Ø¨": 5609,
      "Ø£ÙĥÙĬØ¯": 5610,
      "Ø§ÙĬÙĬØ±": 5611,
      "ĠØ§ÙĦØ¹ÙĨØ§ØµØ±": 5612,
      "ĠØ§ÙĦØ¹Ø«ÙĪØ±": 5613,
      "ĠØ¨Ø¶": 5614,
      "ĠØ¨Ø²": 5615,
      "Ø§Ø¯ÙĦØ©": 5616,
      "ĠØ¹ÙħØ±Ùĩ": 5617,
      "ĠÙĬÙħÙĦÙĥ": 5618,
      "ĠÙħÙĨØªØ¯Ùī": 5619,
      "ĠØªÙĪÙĤÙģ": 5620,
      "ĠÙħÙĨÙī": 5621,
      "Ø§Ø¦ÙĬØ§Øª": 5622,
      "ĠØ¨ØªØ³": 5623,
      "ĠØªØ¯ÙĪØ±": 5624,
      "ĠØ§ÙĦØ±ÙĪØ³ÙĬØ©": 5625,
      "ĠÙĬÙħÙĨØ¹": 5626,
      "ĠØ£ØŃÙĬØ§ÙĨØ§": 5627,
      "ud": 5628,
      "ĠØ¢Ø®Ø±ÙĬÙĨ": 5629,
      "80": 5630,
      "Ø¨Ø²": 5631,
      "ĠØ¨Ø¥ÙĨ": 5632,
      "ĠØ§ÙĦÙħØ°Ùĥ": 5633,
      "ĠÙħÙĨØ´": 5634,
      "Ø²ÙĬÙħØ©": 5635,
      "ĠÙħØ¹Ø§Ùĩ": 5636,
      "ÙĬØªÙĥ": 5637,
      "ÙĤÙĦØ§Ø¨": 5638,
      "ĠÙĬÙĦØ¹Ø¨": 5639,
      "Ø¨ÙĪÙĥ": 5640,
      "ÙģØ§Ø±": 5641,
      "ĠÙĦØ²ÙĬ": 5642,
      "ĠØ¹ÙħØ§ÙĨ": 5643,
      "ĠØ£Ø²": 5644,
      "ĠØ§ÙĦØ¥ÙĬØ·": 5645,
      "Ø¢Ø¢": 5646,
      "ĠØ§ÙĦÙħØ¯ÙĨÙĬØ©": 5647,
      "ĠØ´Ø±ÙĬÙģ": 5648,
      "Ø´Ø±Øª": 5649,
      "ĠØ§ÙĦØ§Ø¨ØªØ¯": 5650,
      "ph": 5651,
      "ĠÙģÙĩÙĦ": 5652,
      "ÙĦÙĬÙĩØ§": 5653,
      "ĠØ±Ø§Ø¦Ø¹": 5654,
      "ĠØ§ÙĦØ¨Ø´Ø±Ø©": 5655,
      "Ø§Ø´ÙĬ": 5656,
      "ĠØ£ØµØ¯Ø±": 5657,
      "ĠÙĤÙĦÙĪØ¨": 5658,
      "ĠÙĦÙħÙĪØ§Ø¬ÙĩØ©": 5659,
      "Ø³ÙĬØ¯": 5660,
      "ĠØ§ÙĦØ¨ÙĪ": 5661,
      "ØºØ·ÙĬØ©": 5662,
      "ĠØ§ÙĦØªØ±ÙĥÙĬØ©": 5663,
      "indows": 5664,
      "ÙĬØ±ÙĬÙĨ": 5665,
      "ĠØ§ÙĦÙĤØ§Ø¦Ùħ": 5666,
      "ÙĦØ§Ùĩ": 5667,
      "ÙģØ±Ø¬": 5668,
      "ĠØ¨ØŃØ¶ÙĪØ±": 5669,
      "ĠÙħØ³ØªÙĤØ¨ÙĦ": 5670,
      "ame": 5671,
      "ĠÙĪÙĩÙĨØ§": 5672,
      "ĠØ§ÙĦØºØ±ÙģØ©": 5673,
      "ĠØ§ÙĦØ¹ÙħÙĦØ§Ø¡": 5674,
      "ĠØªØ±ØªÙĬØ¨": 5675,
      "rip": 5676,
      "ĠØŃØ¸": 5677,
      "ĠÙĤØµØ±": 5678,
      "ĠÙĪØ¨ÙĨ": 5679,
      "ĠÙĪÙģØ§Ø©": 5680,
      "ĠÙĪØ§Ø¶Ø§Ùģ": 5681,
      "ĠØ§ÙĦÙĤØ¨Ø¶": 5682,
      "Ġis": 5683,
      "ĠØªØ°ÙĥØ±": 5684,
      "ĠØºØ°": 5685,
      "ĠØ¶Ø¨Ø·": 5686,
      "ĠÙĦØ¹Ø§Ùħ": 5687,
      "Ø¬Ø±Ø¯": 5688,
      "ĠÙĦÙĦØ¨ÙĬØ¹": 5689,
      "Ø¹Ø¯Ø§Ùħ": 5690,
      "Ø¬ÙĦÙĬØ²Ùī": 5691,
      "].": 5692,
      "ĠØ¨Ø£Ø³": 5693,
      "ĠØªØ¨ÙĦØº": 5694,
      "ĠØŃÙĪØ§Ø±": 5695,
      "Ø¹Ø¯ÙĬØ¯": 5696,
      "ĠØªØµØ¨ØŃ": 5697,
      "ĠØ§Ø«ÙĨØ§Ø¡": 5698,
      "ĠØ§ÙĦÙĨÙģØ³ÙĬØ©": 5699,
      "ĠØ¥Ø±Ø³Ø§ÙĦ": 5700,
      "ĠØ¨Ø¯ÙĦ": 5701,
      "ĠØ§ÙĦØ±ÙĪØŃ": 5702,
      "ĠØ§ÙĦØ®Ø§ÙħØ³Ø©": 5703,
      "ĠÙħÙĤØ¯Ùħ": 5704,
      "ĠØ¥Ø¹ÙĦØ§Ùħ": 5705,
      "Ø§ØŃØ¨": 5706,
      "ĠÙģØ¶ÙĦ": 5707,
      "ĠØŃØ§Ø¯Ø«": 5708,
      "Ø«Ø¨Øª": 5709,
      "ĠÙĪØ£ØµØ¨ØŃ": 5710,
      "ØªÙĩÙħØ§": 5711,
      "ĠÙħØ±Ø§ØŃÙĦ": 5712,
      "ĠØ§ÙĦØ£Ø±Ø¯ÙĨ": 5713,
      "ĠÙħØ±Ø§ÙĥØ²": 5714,
      "ĠÙĬØ¬Ø±ÙĬ": 5715,
      "ÙĦÙĪÙĦ": 5716,
      "ĠØ§ÙĦØ°ÙĩØ¨": 5717,
      "ĠØ§ÙĦÙģØ±ØµØ©": 5718,
      "ĠØ§ÙĦØªÙĤÙĨÙĬØ©": 5719,
      "ĠØ§ÙĦÙħØ·ÙĦÙĪØ¨Ø©": 5720,
      "ĠØ§ÙĦÙĦØ¨ÙĨØ§ÙĨÙĬØ©": 5721,
      "ØºØ±Ø¨": 5722,
      "ĠÙĪÙĬÙĥÙĪÙĨ": 5723,
      "ĠØªØªØ¶ÙħÙĨ": 5724,
      "ĠØ§ÙĦÙħØ±Ø¶Ùī": 5725,
      "ĠØªØ®Øµ": 5726,
      "ĠØ®Ø§ÙĦØµ": 5727,
      "ÙĪÙĤØª": 5728,
      "ik": 5729,
      "ÙĪÙĦÙĬØ©": 5730,
      "ĠØ±ÙĤ": 5731,
      "ÙĬÙĪÙģ": 5732,
      "ĠØ®Ø±ÙĪØ¬": 5733,
      "ĠØ«Ø§Ø¨Øª": 5734,
      "ĠÙĪÙĬØ¬Ø¨": 5735,
      "ĠØªØ¤Ø¯ÙĬ": 5736,
      "ÙĨØ¬": 5737,
      "ĠØŃÙĦØ¨": 5738,
      "ÙĪÙģÙĬÙĤ": 5739,
      "Ø®ÙĦØ§ÙĤ": 5740,
      "ĠÙĬØ¯ÙĦ": 5741,
      "ĠØŃØ§Ø¬Ø§Øª": 5742,
      "ĠÙĪØ§ÙĦÙĦÙĬ": 5743,
      "ĠÙĪÙĩÙĥØ°Ø§": 5744,
      "Ġ:-": 5745,
      "ĠØ§ÙĦØ¬ÙĨÙĪØ¨ÙĬØ©": 5746,
      "ĠØ¨Ø¨Ø¹Ø¶": 5747,
      "ĠØ³Ø±ÙĬ": 5748,
      "ĠØ¯ÙĥØªÙĪØ±": 5749,
      "ĠØ¨Ø§ÙĦØ¨": 5750,
      "ĠÙĬØ¹ØªÙĤØ¯": 5751,
      "ĠØªØ·ÙĪØ±": 5752,
      "ĠØ§ÙĦØ¨ÙĨÙĪÙĥ": 5753,
      "ĠÙĨÙĤØ¯Ùħ": 5754,
      "ĠØ´ØºÙĦ": 5755,
      "Ø±ÙĥØ§ØªÙĩ": 5756,
      "ĠÙĤØ§ÙĦÙĪØ§": 5757,
      "ÙģØ§Ø¹ÙĦ": 5758,
      "ĠØ¯Ø¹ÙĪØ©": 5759,
      "ĠØ§ÙĦØŃÙĤÙĬÙĤÙĬ": 5760,
      "ĠØ§ÙĨØªØ®Ø§Ø¨Ø§Øª": 5761,
      "Ø§ÙĦÙĦÙĩ": 5762,
      "ĠÙĬØ³Ø¨Ø¨": 5763,
      "ĠØ§ÙĦÙģØ³Ø§Ø¯": 5764,
      "ĠØªØŃØµÙĦ": 5765,
      "ÙĦÙĤØ§Øª": 5766,
      "ĠØ£ØŃØ³ÙĨ": 5767,
      "ĠØ®Ø·ÙĪØ§Øª": 5768,
      "ĠØ¬Ø²ÙĬØ±Ø©": 5769,
      "ĠØ¯Ø§Ø¦Ø±Ø©": 5770,
      "ĠØ¬ÙĦØ³Ø©": 5771,
      "ĠØ§ÙĦØ²Ø±Ø§Ø¹Ø©": 5772,
      "60": 5773,
      "ĠÙĬÙĦØª": 5774,
      "ĠÙĦÙĦÙģØ±ÙĬÙĤ": 5775,
      "Ø§ÙģÙĬØ§": 5776,
      "Ø·ÙĦØ¨Ø§Øª": 5777,
      "ĠØ¨ÙģØ¶ÙĦ": 5778,
      "ĠØ³ÙĬÙĦ": 5779,
      "ĠØ¯ÙĪ": 5780,
      "ĠØ§ØŃØªÙģ": 5781,
      "ĠÙĦÙĦÙħØ´": 5782,
      "Ø¶ØŃÙĥ": 5783,
      "ĠØ§ÙĦØ¥Ø¯Ø§Ø±ÙĬØ©": 5784,
      "ĠØ¯Ø§ÙĬÙħØ§": 5785,
      "ĠØ§ÙĦØ¹Ø´": 5786,
      "ĠØ§ÙĦØ£ÙħÙĬÙĨ": 5787,
      "ĠØ§ÙĦØ³ÙĬÙĨÙħ": 5788,
      "ĠÙĩÙĥØ°Ø§": 5789,
      "ĠØ³ÙĪØ¡": 5790,
      "ÙĪØ±ÙĬÙĨ": 5791,
      "ĠØ§ÙĦØŃØµ": 5792,
      "ĠÙħØµØ±ÙĬØ©": 5793,
      "ĠØ¨Ø²ÙĬØ§Ø±Ø©": 5794,
      "ĠÙģØ¦Ø©": 5795,
      "ĠØ·Ø¨ÙĬØ¹ÙĬ": 5796,
      "Ø¯ÙĪÙĨ": 5797,
      "ĠØ¯ÙĪØ±Ø©": 5798,
      "ĠØ§ÙĦØ¬ÙĨØ©": 5799,
      "ĠÙħØ¬ÙĦØ©": 5800,
      "ĠØ§ÙĦØ§Ø³Ø±": 5801,
      "2010": 5802,
      "Ø¯ÙĪØ²": 5803,
      "ĠÙħØ³Ø¨": 5804,
      "ĠØ§ÙĦØ£ÙĩØ¯Ø§Ùģ": 5805,
      "ĠØ§ÙĦØ¯ÙĩÙĪÙĨ": 5806,
      "ĠÙħÙħØªØ§Ø²": 5807,
      "Ø¨ÙĪØ·": 5808,
      "ĠÙĦÙĬÙĥ": 5809,
      "ĠØ¹Ø³ÙĥØ±ÙĬ": 5810,
      "ĠØ§ÙĦØ±Ø§ØŃÙĦ": 5811,
      "ĠÙĪØ£Ø´": 5812,
      "ĠØ´ÙĩØ¯Øª": 5813,
      "ĠØ¬Ø§ÙĨØ¨Ùĩ": 5814,
      "34": 5815,
      "ĠØ¹Ø§Ø¦ÙĦ": 5816,
      "ĠØªÙĪØ¬Ùĩ": 5817,
      "ĠÙĥÙĪÙĦ": 5818,
      "ĠØ´Ø§Ø¨": 5819,
      "Ġvs": 5820,
      "ib": 5821,
      "ĠØ§ÙĦØŃØ±Ø©": 5822,
      "ĠØ§ÙĦÙĥÙĪÙħ": 5823,
      "net": 5824,
      "ĠØ§ÙĦÙħÙĤØ¯ÙħØ©": 5825,
      "Ø®ÙĬØ±": 5826,
      "ĠØ§ÙĨØ®ÙģØ§Ø¶": 5827,
      "ĠÙĥØ§ÙĨÙĪÙĨ": 5828,
      "ĠÙĪÙĤØ¨ÙĦ": 5829,
      "ant": 5830,
      "ĠØ§ÙĦØ¯ÙħØ§Øº": 5831,
      "ĠØ§ÙĦØ±Ø³Ø§ÙĦØ©": 5832,
      "01": 5833,
      "ĠÙĪØ§ÙĦÙħÙĦ": 5834,
      "ĠØ¬ÙĦØ§ÙĦ": 5835,
      "ĠÙħØ§ÙĬ": 5836,
      "ĠØ§Ø¹ØªØ¨Ø±": 5837,
      "ĠØŃØµÙĪÙĦ": 5838,
      "ĠÙĥÙĬÙĦÙĪ": 5839,
      "ly": 5840,
      "Ġ_": 5841,
      "ĠØ§ÙĦØ¹ÙĬØ¯": 5842,
      "Ġ2006": 5843,
      "ĠØ§ÙĦØ¨ÙĦØ¯ÙĬÙĨ": 5844,
      "ÙħØ§Ùĥ": 5845,
      "ĠØ§ÙĦØ±ØŃÙħ": 5846,
      "ÙĪÙģØ§": 5847,
      "ĠØ«Ø§ÙĨÙĬ": 5848,
      "ÙĥØªØ´Ùģ": 5849,
      "Ġ31": 5850,
      "ĠÙĪÙĥÙĬÙĦ": 5851,
      "ĠCh": 5852,
      "Ø§Ø¨ÙĦØ³": 5853,
      "ĠØ£Ø¨Ø±ÙĬÙĦ": 5854,
      "ĠÙĤØ±ÙĬØ¨": 5855,
      "ĠØ§ÙĦØ³Ø§ØŃ": 5856,
      "ĠØ§ÙĦÙģÙĪØ±": 5857,
      "ĠØ¹ÙħÙĦØª": 5858,
      "ĠØªØ±ØºØ¨": 5859,
      "ĠØ§ÙĦØ·ÙĦØ¨Ø©": 5860,
      "Ø¬Ø§Ø±Ø©": 5861,
      "ĠØ¯Ø¹Ø§": 5862,
      "ÙĬØ¨Ùĩ": 5863,
      "ĠÙĪØ¬Ø¯Øª": 5864,
      "ĠØ§ØµØ¨ØŃ": 5865,
      "ĠØ±ÙĪØ§Ùĩ": 5866,
      "ĠØ§ÙĦÙĨÙĪÙĪÙĬ": 5867,
      "ĠØ§ÙĦØ¹ÙħÙĬÙĦ": 5868,
      "ĠÙħØ³Ø§Ø¹Ø¯Ø©": 5869,
      "icros": 5870,
      "ĠØ§ÙĦØ£ÙģÙĦØ§Ùħ": 5871,
      "ĠØ§ÙĦØ²Ø¨": 5872,
      "ĠØ§ÙĦÙĨÙĩØ§Ø±": 5873,
      "ĠØ§ÙĦØ¥ÙĦÙĥØªØ±ÙĪÙĨÙĬØ©": 5874,
      "ĠÙĦØ¶ÙħØ§ÙĨ": 5875,
      "ĠØ§ÙĦÙħØ§Ø¦Ø©": 5876,
      "ĠÙĤÙĪÙī": 5877,
      "ĠØ§ÙĦØ¨ÙĪØ±": 5878,
      "ĠØ°ÙĩØ¨": 5879,
      "Ġ2007": 5880,
      "ĠØ°ÙĥØ±Øª": 5881,
      "Ø¸Ø§ÙĩØ±Ø§Øª": 5882,
      "ÙĤÙĬÙħ": 5883,
      "Ø·ÙĪØ±Ø©": 5884,
      "ĠÙĪØ§ÙĦØ£Ø³": 5885,
      "ĠÙħØ¹Ø±Ùģ": 5886,
      "ĠØ§ÙĦØµØ±": 5887,
      "ĠØªØ¹Ø¯ÙĬÙĦ": 5888,
      "Ø§Ø¶Ùī": 5889,
      "ĠÙħØªØ§Ø¨Ø¹": 5890,
      "ĠØ§Ø¹ÙħØ§ÙĦ": 5891,
      "ĠØ£ÙħØ±Ø§Ø¶": 5892,
      "icrosoft": 5893,
      "ØªØº": 5894,
      "ĠØ§ÙĦÙħÙĥØ±": 5895,
      "ĠÙĪØªØ³Øª": 5896,
      "Ø¹Ø±Ø§ÙĤ": 5897,
      "ĠØ§ÙĦÙģØªØ§Ø©": 5898,
      "Ø²ÙħØ§Øª": 5899,
      "ĠØ§ÙĦØ³ÙħØ§Ø¡": 5900,
      "ect": 5901,
      "Ø³ÙĬÙĦ": 5902,
      "ĠØ§ÙĦØŃÙħØ±Ø§Ø¡": 5903,
      "ĠØ§ÙĦØ¥Ø¹": 5904,
      "ĠØ§ÙĦØ®Ø±ÙĪØ¬": 5905,
      "ÙĬØªØ´": 5906,
      "Ø´Ø±ØŃ": 5907,
      "ĠØªØ±Ø§Ø¬Ø¹": 5908,
      "ĠÙĪØ±Ø¦ÙĬØ³": 5909,
      "ĠØ§ÙĦØ£ÙĪØ±ÙĪØ¨ÙĬØ©": 5910,
      "ĠÙħÙĥÙĨ": 5911,
      "Ø±ÙĬØ´": 5912,
      "ĠØ§ÙĦÙħØ´Ø§ÙĩØ¯": 5913,
      "ĠØ§Ø¶ØºØ·": 5914,
      "ĠØ§ÙĦÙħØ´Ø§Ø±ÙĬØ¹": 5915,
      "ĠÙħÙĪÙĨ": 5916,
      "ĠÙħÙĥØ©": 5917,
      "ĠÙĦØ§Ø¨": 5918,
      "Ø±ÙĪÙĬØ¬": 5919,
      "Ø§ÙĦÙħÙĨ": 5920,
      "ĠØ§ÙĦÙĬØ³": 5921,
      "ĠØ§ÙĦØ§Ø·ÙģØ§ÙĦ": 5922,
      "Ø¹ÙĪØ§": 5923,
      "ĠÙĦØªØ±": 5924,
      "ĠØ§ÙĦÙħØ§ÙĦÙĬ": 5925,
      "ÙĦÙĥÙħ": 5926,
      "ĠØªØ¹Ø¨ÙĬØ±": 5927,
      "ĠØ¢ÙĨ": 5928,
      "ĠØ¨Ø¬ÙĪØ¯Ø©": 5929,
      "ĠØ§ÙĨØªÙĩØª": 5930,
      "ĠØªØ¶ÙħÙĨ": 5931,
      "ĠØ§ÙĦØªÙĨÙģÙĬØ°ÙĬ": 5932,
      "ĠØ¬Ø¯ÙĪÙĦ": 5933,
      "ĠÙĦÙģØªØ±Ø©": 5934,
      "Ø¯Ø§Ø±": 5935,
      "ĠØ§ÙĦØ£Ø³Ø¨Ø§Ø¨": 5936,
      "ĠØ§ÙĦØ±Ø£ÙĬ": 5937,
      "ĠÙĪÙĤØ§Ùħ": 5938,
      "ĠØ§ÙĦÙħØ´ØªØ±Ùĥ": 5939,
      "ĠØ§ÙĦØ§ØŃØ¯": 5940,
      "ice": 5941,
      "ĠØ§ÙĦØ¨ÙĬØ¶Ø§Ø¡": 5942,
      "ah": 5943,
      "ĠÙħÙĥÙĪÙĨ": 5944,
      "ĠÙĬÙĤØ¯Ø±": 5945,
      "Ø§Ø±Ø¦": 5946,
      "ĠØ§ÙĦÙĥÙĦÙħØ§Øª": 5947,
      "ĠØ§ÙĦØ·Ùģ": 5948,
      "ĠÙĪÙĥÙħØ§ÙĨ": 5949,
      "05": 5950,
      "ĠØ®ÙĬØ§Ø±Ø§Øª": 5951,
      "ĠÙĬØ¹Ø±Ø¶": 5952,
      "ĠÙħØ±Ø§Ø¬Ø¹Ø©": 5953,
      "ĠØ¯ÙĪØ±Ùī": 5954,
      "ĠØ±Ø³ÙħÙĬØ§": 5955,
      "ĠØ§ÙĦØ£ÙĦØ¹Ø§Ø¨": 5956,
      "08": 5957,
      "ĠÙĪØ§ÙĦÙĪ": 5958,
      "ang": 5959,
      "ĠÙħØ¨ÙĦØº": 5960,
      "ĠØ§ÙĦÙĨØ³Ø®Ø©": 5961,
      "ĠØ·Ø¨ÙĬØ¹ÙĬØ©": 5962,
      "ĠØ§ÙĦØ±ØŃÙĬÙħ": 5963,
      "ĠØ§ÙĥØªØ´Ø§Ùģ": 5964,
      "ĠØ¥ÙħØ§": 5965,
      "ĠÙĩÙĨØ¯": 5966,
      "ĠØ§ÙĦÙģÙĥØ±Ø©": 5967,
      "ĠØ§ÙĦÙħÙĪØ¸ÙģÙĬÙĨ": 5968,
      "ĠØ³ÙĦØ·Ø§ÙĨ": 5969,
      "Ø§ÙĬØ§Øª": 5970,
      "Ø±ÙĪÙĬØª": 5971,
      "ĠØ£ÙĤÙĬÙħ": 5972,
      "ĠØ§ÙĦÙģÙĦØ³Ø·ÙĬÙĨÙĬÙĬÙĨ": 5973,
      "ĠØ§ÙĦØ¥Ø¹ÙĦØ§ÙħÙĬØ©": 5974,
      "ĠØ³ÙĦØ§ÙħØ©": 5975,
      "ĠÙģØ®": 5976,
      "ĠØ§ÙĦØ³Ø¬ÙĨ": 5977,
      "Ø±ÙĪØ¨Ø§Øª": 5978,
      "âĢĶ": 5979,
      "ĠÙħØ³ØªØ®Ø¯Ùħ": 5980,
      "ĠÙĬØ´Ø§Ø±Ùĥ": 5981,
      "Ø²Ø²": 5982,
      "Ø§Ø³Ùĥ": 5983,
      "ĠØ¨ÙĦØ§Ø¯Ùĩ": 5984,
      "age": 5985,
      "Ú©": 5986,
      "Ġ=": 5987,
      "ĠØ§ÙĦØ§Ø²": 5988,
      "ĠØŃÙħØ§Ùħ": 5989,
      "ĠØ§ÙĦÙģÙĤØ±": 5990,
      "ÙĦØ§ÙħÙĬ": 5991,
      "ĠÙĦÙĦÙħØ±Ø©": 5992,
      "ĠØ§Ø³ÙħÙĩØ§": 5993,
      "ĠØ§ÙĦØ´Ø¹ÙĪØ±": 5994,
      "ĠØ§ÙĦÙģÙĤ": 5995,
      "Ø§Ø´Ø§": 5996,
      "ĠØ¨Ø±Ø´ÙĦÙĪÙĨØ©": 5997,
      "ĠØ³ÙĨÙĪÙĬØ§": 5998,
      "ĠØ§ÙĦØ±ÙĪØ§ÙĬØ©": 5999,
      "ĠØ§ÙĦØ®Ø·ÙĪØ©": 6000,
      "ÙĪØ§ÙĨÙĬ": 6001,
      "ĠØ¨ÙĬØ¨": 6002,
      "Ø°ÙĥØ±Ø©": 6003,
      "ĠØ§ÙĦØ³ÙĬØ¯Ø©": 6004,
      "Ø¤ÙĥØ¯": 6005,
      "ĠØ´ÙĬØ®": 6006,
      "ĠÙħÙģÙĩÙĪÙħ": 6007,
      "ĠØ¥Ø¯Ø±": 6008,
      "âĢĻ": 6009,
      "ĠØ¨ØªÙĪÙĤÙĬØª": 6010,
      "lo": 6011,
      "Ø¹ÙĩØ§": 6012,
      "Ø´ÙĬØ©": 6013,
      "ĠØ§ÙĦØ£Ø´ÙĬØ§Ø¡": 6014,
      "ĠØ§ÙĦØ¨Ø§Ø±": 6015,
      "ĠØ²ÙĪØ§Ø¬": 6016,
      "Ø¬Ø§Ø²Ø§Øª": 6017,
      "ĠØ§ÙĦÙĪØ§ÙĤØ¹Ø©": 6018,
      "ÙĪØ§Ø±ÙĬØ®": 6019,
      "ĠÙĪÙĤØ¹Øª": 6020,
      "ĠØ¢Ø¯Ùħ": 6021,
      "ØªØŃØ§ÙĨ": 6022,
      "ÙĬØ´Ø©": 6023,
      "Ø´ÙģÙĬØ§Øª": 6024,
      "ĠØ§ÙĦØ³ÙĦÙĪÙĥ": 6025,
      "Ø¨ÙĦØ¯": 6026,
      "ÙĩØ±Ø§ÙĨ": 6027,
      "ĠØ¶ÙħØ§ÙĨ": 6028,
      "ĠØ§ÙĦÙħØ¹ÙĦÙħ": 6029,
      "ĠØ§ÙĦØªØµÙĪÙĬØ±": 6030,
      "Ġ@": 6031,
      "ĠØ£Ø¨ÙĨ": 6032,
      "ĠÙĪØ£ØŃ": 6033,
      "ĠØ§ÙĦØµØ¯Ø±": 6034,
      "ĠØ£Ø´Ø±Ùģ": 6035,
      "ĠØ§ÙĦØ¨ØŃØ±ÙĬØ©": 6036,
      "ive": 6037,
      "Ø§ÙĦØŃØ©": 6038,
      "ĠÙģØ¤Ø§Ø¯": 6039,
      "ĠØ¬ÙĪØ¯Ø©": 6040,
      "ĠØ§ÙĦÙħØ¯Ø±Ø¨": 6041,
      "org": 6042,
      "ĠLine": 6043,
      "ĠØ§ÙĦØ§ØµÙĦÙĬ": 6044,
      "ĠØ¹Ø§Ø¦ÙĦØ©": 6045,
      "ĠØ§ÙĦØ£Ø·Ø¨Ø§Ø¡": 6046,
      "ĠØ§ÙĦØ¥ØµÙĦØ§ØŃ": 6047,
      "ĠÙĨØ´Ø±Øª": 6048,
      "ĠØ§ÙĦØ²ÙĪØ¬Ø©": 6049,
      "ĠÙĪØ§ÙĤØ¹": 6050,
      "ĠØ§ÙĦÙħØ±Ùĥ": 6051,
      "Ø¹ÙĦÙĪÙħ": 6052,
      "ØºÙĬØ±Ø§Øª": 6053,
      "ĠØªÙĪØµÙĦ": 6054,
      "ĠØªÙĥÙĪÙĬÙĨ": 6055,
      "Ġst": 6056,
      "ĠÙħÙĨØ§ÙģØ³Ø§Øª": 6057,
      "ÙĬÙħØ§": 6058,
      "ÙĩÙĪ": 6059,
      "ØĮØĮ": 6060,
      "ĠØ¨Ø§ÙĦÙħØ±": 6061,
      "Ø¸Ø§Øª": 6062,
      "ÙĨÙĬÙĥ": 6063,
      "ÙĩØ¯Ø§Ø¡": 6064,
      "Ø§Ø¬ÙĩØ²Ø©": 6065,
      "ĠØ£Ø´ÙĥØ§ÙĦ": 6066,
      "ĠØ§ÙĦØªØ§Ø±ÙĬØ®ÙĬØ©": 6067,
      "ĠØ§ÙĦÙĪÙĦØ§Ø¯Ø©": 6068,
      "ĠØ§ÙĦØ§ÙĦÙĥØªØ±ÙĪÙĨÙĬ": 6069,
      "ĠØ§ÙĦÙĪØ¸Ø§Ø¦Ùģ": 6070,
      "37": 6071,
      "ĠÙĬØ¶Ùħ": 6072,
      "ĠÙĬØªØ¨Ø¹": 6073,
      "Ġ80": 6074,
      "ĠØ§ÙĦÙħÙĦØ¹Ø¨": 6075,
      "ĠØ¹Ø´Ø±Ø§Øª": 6076,
      "ĠØ§Ø¶Ø§ÙģØ©": 6077,
      "Ġde": 6078,
      "ĠØ§ÙĦÙħØ³Ø¤ÙĪÙĦÙĬÙĨ": 6079,
      "ĠØ¹ÙĥØ³": 6080,
      "ĠØ¥ØµØ§Ø¨Ø©": 6081,
      "Ø§Ø¡Ø©": 6082,
      "ĠØ£ÙĬÙĩØ§": 6083,
      "ĠÙħØ¬Ø§ÙĦØ§Øª": 6084,
      "ĠÙĨÙĤÙĪÙĦ": 6085,
      "ĠÙĨØ¬ØŃ": 6086,
      "2011": 6087,
      "ĠØ¯ÙĦÙĪÙĤØªÙĬ": 6088,
      "ĠØ§Ø¨Ø±Ø§ÙĩÙĬÙħ": 6089,
      "Ø§Ø³Ùĩ": 6090,
      "ÙĬØ·Ø§ÙĦÙĬØ§": 6091,
      "ĠØ¯ÙĪØ±Ø§": 6092,
      "Ø·Ø¹ÙħØ©": 6093,
      "ĠÙħØ·Ø§ÙĦØ¨": 6094,
      "ĠØªØ²Ø§ÙĦ": 6095,
      "Ø§Ø±ÙĬÙĨ": 6096,
      "ĠØŃØ§Ø±Ø³": 6097,
      "ĠØ§ÙĦØ±ÙĪØ³ÙĬ": 6098,
      "ØªØ±Ø¨": 6099,
      "ĠÙħÙĪØª": 6100,
      "Ø¹Ùĥ": 6101,
      "ĠÙĨØ¸Ùħ": 6102,
      "ĠÙĦÙĦØ¬ÙħÙĬØ¹": 6103,
      "ÙĨØ§ÙĩØ§": 6104,
      "ĠØ¥ÙĨØ³Ø§ÙĨ": 6105,
      "Ø¯ÙħÙĬØ±": 6106,
      "Ø¬ÙĨØ¨": 6107,
      "ĠØ§ÙĦÙħÙĪØ³ÙĬÙĤ": 6108,
      "Ø·Ø¨ÙĤ": 6109,
      "ĠØ§ÙĦØªÙĦ": 6110,
      "ĠØ§ÙĦØ°ÙĩØ§Ø¨": 6111,
      "ĠØ£ÙĥØ¯Øª": 6112,
      "ĠØ§ÙĦÙħÙĦØ§Ø¨Ø³": 6113,
      "ĠØ´ÙĩÙĪØ±": 6114,
      "ĠØ§ÙĦÙħÙĨØ²": 6115,
      "ĠÙħØ´Ø§Ø±ÙĬØ¹": 6116,
      "ip": 6117,
      "ĠÙĪÙĥÙĬÙģ": 6118,
      "ĠÙħÙĪÙĤØ¹ÙĨØ§": 6119,
      "ĠØ§ÙĦØ¨ØŃØ±ÙĬÙĨ": 6120,
      "ĠÙĦØ¹Ø¯Ùħ": 6121,
      "ĠÙĪØ±ØŃÙħØ©": 6122,
      "ĠÙĩØ§Øª": 6123,
      "ĠØ³ÙĬÙĤ": 6124,
      "ĠØ®Ø¯": 6125,
      "ĠØ§ÙĦØ´ÙĩÙĬØ±": 6126,
      "ÙĨØ³Ø§ÙĨ": 6127,
      "ĠØ¨Ø·Ø§ÙĤØ©": 6128,
      "ĠØ§Ø¬ÙĨ": 6129,
      "ĠÙĤØ¯ÙħØª": 6130,
      "ĠØ¨ÙħÙĨØ·ÙĤØ©": 6131,
      "ĠØ¹Ø±Ø§ÙĤ": 6132,
      "ĠØªØŃÙĦÙĬÙĦ": 6133,
      "ÙĪØ§ØªÙģ": 6134,
      "ĠØ¹ÙĦØ§ÙĤØ§Øª": 6135,
      "ĠØ§ÙĦØªØ¹ÙĦÙħ": 6136,
      "ĠØ¬ÙĩØ§Øª": 6137,
      "ĠTh": 6138,
      "Ø´ÙĬØ®": 6139,
      "Ø§Ø¹ÙĬÙĦÙī": 6140,
      "ĠØ¥Ø³ÙħØ§Ø¹ÙĬÙĦ": 6141,
      "ĠØ§ÙĦÙĩØ±": 6142,
      "ĠÙģØ´ÙĦ": 6143,
      "ĠØ§ÙĦÙĨØµØ±": 6144,
      "ĠØµØ±": 6145,
      "ĠØºØ¶": 6146,
      "Ø±Ø¬ÙĪ": 6147,
      "ÙĪØ§ÙĨØ¨": 6148,
      "Ø§Ø¬ÙĩØ§Øª": 6149,
      "ĠØ®ÙĦØ§Øµ": 6150,
      "ØµÙĬ": 6151,
      "ĠØ§ÙĦÙĨØ§Ø¬": 6152,
      "ĠØ§ÙĦÙĥÙĦÙħØ©": 6153,
      "ĠÙħÙħÙĬØ²Ø©": 6154,
      "ĠØ§ÙĦÙĨÙĩØ§Ø¦ÙĬØ©": 6155,
      "Ø§Ø±ÙĤØ©": 6156,
      "ĠØ³Ø§Ø¹": 6157,
      "ĠØ³ÙĬØ¹": 6158,
      "ĠØ§ÙĦØ¹ÙģØ´": 6159,
      "ĠØ´Ø¹Ø§Ø±": 6160,
      "ĠÙħØªÙī": 6161,
      "ĠØ¹ÙĨØ¯ÙĨØ§": 6162,
      "ĠØ§ÙĦØ£Ø¯ÙĪÙĬØ©": 6163,
      "ĠØ§ÙĦØ«ÙĤØ§ÙģÙĬØ©": 6164,
      "ĠØ¥Ø«Ø±": 6165,
      "ĠØ±ØµÙĬØ¯": 6166,
      "ĠØ§ÙĦØŃÙĪØ«": 6167,
      "ĠØµÙĬØ§ÙĨØ©": 6168,
      "ĠØ³ÙĨÙĩ": 6169,
      "ĠØ§ÙĦÙĪØ·ÙĨÙī": 6170,
      "ĠØ¯Ø®ÙĦØª": 6171,
      "Ġyou": 6172,
      "Ø·ÙĪÙĦ": 6173,
      "ĠØ¥ØµØ¯Ø§Ø±": 6174,
      "Ø°Ùī": 6175,
      "ĠØ§ÙĦØªØ®ÙĦØµ": 6176,
      "Ø§Ø¨Ø·Ø©": 6177,
      "ĠØ§ÙĦØ¹ÙĩØ¯": 6178,
      "ĠØ¹ÙĨÙĩÙħ": 6179,
      "Ø¹ÙĦØ§ÙĨØ§Øª": 6180,
      "ÙĪØ³Ø©": 6181,
      "ØªØ±Ø§ÙĪØŃ": 6182,
      "ĠØ§ÙĦØªØ®ØµØµ": 6183,
      "Ø§Ø·ÙĨÙĬÙĨ": 6184,
      "Ø´Ø±Ø·Ø©": 6185,
      "ĠØ§ØŃØªØ¬": 6186,
      "ĠÙĤÙĪØ§Ø¹Ø¯": 6187,
      "ĠØ§ÙĦÙĤØ±Ø§Ø¡Ø©": 6188,
      "Ø³ÙħÙī": 6189,
      "Ġpdf": 6190,
      "07": 6191,
      "ÙĬÙħÙĨ": 6192,
      "ĠØ§ÙĦØªØ¹Ø¨ÙĬØ±": 6193,
      "Ø§Ø³Ø¨Ø§Øª": 6194,
      "Ø§ÙģÙĦ": 6195,
      "ĠÙħØ´Ø§ÙĩØ¯": 6196,
      "ĠØ¨ÙħØŃØ§ÙģØ¸Ø©": 6197,
      "ĠØ£Ø¹Ø±Ùģ": 6198,
      "ĠØªØ´Ø¹Ø±": 6199,
      "ĠØ§ÙĦØ±Ø³Ø§Ø¦ÙĦ": 6200,
      "ØºØ§ÙĨØ³ØªØ§ÙĨ": 6201,
      "ĠÙĪØ®Øµ": 6202,
      "ĠØ¨Ø§": 6203,
      "Ø®ÙĬÙĦ": 6204,
      "ĠØ§ÙĦÙĨØ§Ø´": 6205,
      "Ø±Ø¨Ùĩ": 6206,
      "ĠÙħØŃØ·Ø©": 6207,
      "ĠØ§ÙĦØ«ÙĤØ©": 6208,
      "ĠØ§ÙĦØªÙĩØ§Ø¨": 6209,
      "ĠØ§ÙĦÙĤÙĪÙħÙĬ": 6210,
      "ÙĬØªØ§ÙħÙĬÙĨ": 6211,
      "ĠØ§ÙĦØ§Ø®Ø¨Ø§Ø±": 6212,
      "Ġ2005": 6213,
      "ĠÙĬØ·ÙĦØ¨": 6214,
      "ĠØ¨Ø§ÙĦØ¹ÙħÙĦ": 6215,
      "Ġ45": 6216,
      "ÙĤÙĨ": 6217,
      "ĠÙĦÙĦÙĬ": 6218,
      "ĠØ¹Ø§Ø¦": 6219,
      "ĠÙĬØ¨ØŃØ«": 6220,
      "ĠÙĪØ§ÙĦØ£ÙĨ": 6221,
      "ĠÙħØªØŃ": 6222,
      "ĠØ§ÙĦØ§Ø³ØªØ®Ø¯Ø§Ùħ": 6223,
      "ĠØŃØ±ÙĬØ©": 6224,
      "ĠØ·Ø¨ÙĬØ¹Ø©": 6225,
      "ĠÙĤØ·Ø¹Ø©": 6226,
      "ĠÙħÙĪØ¯": 6227,
      "Ø³Ø¹ÙĬØ¯": 6228,
      "ØµÙĬØ¨": 6229,
      "ĠØ±Ø§Ùħ": 6230,
      "ĠØ§ÙĦØŃØ±Ùħ": 6231,
      "ĠØ§ÙĨÙĨØ§": 6232,
      "Ġ2000": 6233,
      "ĠØ§ÙĦÙħØŃÙĬØ·": 6234,
      "ide": 6235,
      "ĠØ§ÙĦØ¯Ø¹ÙĪØ©": 6236,
      "Ġk": 6237,
      "ĠÙĥØ±Ø¯": 6238,
      "ĠØ§ÙĦØµØ¹ÙĬØ¯": 6239,
      "ĠØ£ÙĪÙĦÙī": 6240,
      "ĠØ±ÙħØ²": 6241,
      "ĠØ§ÙĦÙħÙĪØ³ÙĬÙĤÙī": 6242,
      "ĠØªØ®ØµØµ": 6243,
      "ĠÙĪØ§ØŃØ¯Ø§": 6244,
      "ĠBl": 6245,
      "ĠÙĬØ¤ÙĥØ¯": 6246,
      "ĠÙĬÙĪØ§Ø¬Ùĩ": 6247,
      "ĠØ®Ø§Ø±Ø¬ÙĬØ©": 6248,
      "04": 6249,
      "Ø·Ø§ÙĦØ¨": 6250,
      "Ø§Ø±ÙĬÙĪ": 6251,
      "ĠØªÙĤÙĨÙĬØ©": 6252,
      "ĠØ§ÙĦØ£Ø³ÙĨØ§ÙĨ": 6253,
      "ĠØ§ÙĦØªØ¬Ø±Ø¨Ø©": 6254,
      "ĠØ§ÙĦØªØµÙħÙĬÙħ": 6255,
      "ĠØ§ÙĦØªØ±ÙĥÙĬ": 6256,
      "ire": 6257,
      "ĠØªØ§ÙĨÙĬØ©": 6258,
      "ĠØ¹ÙĨØ¯ÙĬ": 6259,
      "ĠØ§ÙĦØ¯Ø±Ø¯Ø´Ø©": 6260,
      "ØªÙĬØ§ÙĦ": 6261,
      "ĠÙĬØŃÙĤÙĤ": 6262,
      "ØªØ¨Ø·Ø©": 6263,
      "ĠØ§ÙĦÙħØ±ÙĥØ²ÙĬØ©": 6264,
      "ĠØ¨Ø§ÙĦØ±ØºÙħ": 6265,
      "02": 6266,
      "ĠØ¹Ø«ÙħØ§ÙĨ": 6267,
      "Ø¨ÙĬØ¹Ø§Øª": 6268,
      "ĠÙĪØ¸ÙĬÙģØ©": 6269,
      "ĠØ³Ø§ÙĦÙħ": 6270,
      "ĠÙĤØ§Ø¯Ø±Ø©": 6271,
      "ĠÙĤØ¶Ø§ÙĬØ§": 6272,
      "ĠØ§ÙĦØ¹ÙĦØ§Ùħ": 6273,
      "ĠØ´Ø¯ÙĬØ¯Ø©": 6274,
      "ĠÙĦÙħØµØ±": 6275,
      "up": 6276,
      "ĠØ±Ø¶Ø§": 6277,
      "ĠØ±Ø¨Ø¹": 6278,
      "ØŃØ¯Ø§Øª": 6279,
      "ĠÙħÙĦÙģØ§Øª": 6280,
      "ĠÙħØ³Ø§Ø¨ÙĤØ©": 6281,
      "ĠÙħØ±ÙħÙī": 6282,
      "ĠØ¹ÙĦÙħØ§Ø¡": 6283,
      "ĠØ§ÙĦØªØ±ÙĥÙĬØ²": 6284,
      "ĠØ¨Ø³ÙĬØ·": 6285,
      "ĠÙħØªÙĨÙĪØ¹Ø©": 6286,
      "ĠØ§ÙĦÙĩØ¯": 6287,
      "ĠÙĦØ¨ÙĨ": 6288,
      "ĠØ´ÙĪÙĤ": 6289,
      "ĠØ¥ÙĨØ³": 6290,
      "ĠÙĪØ³ÙĬÙĦØ©": 6291,
      "ĠÙĦÙĬÙĩØ§": 6292,
      "ĠÙĨØ¹Ø±Ùģ": 6293,
      "ĠÙĬØ¶": 6294,
      "ĠÙĤÙħØ©": 6295,
      "Ø±Ø¨Ø§ØŃ": 6296,
      "Ø§Ø´Ø¯": 6297,
      "ĠÙģØ±Ø¹": 6298,
      "xx": 6299,
      "Ø¨ÙĪØª": 6300,
      "ĠÙĪØ§ÙĦØ§Ø¬ØªÙħØ§Ø¹": 6301,
      "ĠÙĨÙĩØ±": 6302,
      "Ø¸ÙĬÙħØ©": 6303,
      "ĠAd": 6304,
      "ĠWindows": 6305,
      "ÙĨØ§Ø¹Ø©": 6306,
      "ĠÙĪØ§Ùħ": 6307,
      "ĠÙĪÙĪÙģ": 6308,
      "ÙĬØ¯Ø²": 6309,
      "Ġ-----------------": 6310,
      "ĠØ¨ØªØµ": 6311,
      "ĠØ³ÙĬÙħØ§": 6312,
      "ĠØŃÙĦÙĪÙĦ": 6313,
      "ĠÙĬØ£Ø®Ø°": 6314,
      "ĠØ§ÙĦÙĤÙĨÙĪØ§Øª": 6315,
      "ĠØ§ÙĦÙħÙĬÙĦØ§Ø¯": 6316,
      "ÙħØ¦": 6317,
      "ĠÙĬØ±Ø¬Ø¹": 6318,
      "Ø²Ø§Ø¡": 6319,
      "ĠØ¥Ø±": 6320,
      "ĠØ®ÙĬØ§Ø±": 6321,
      "ØªÙħÙĬ": 6322,
      "ĠØŃÙĤÙĬÙĤÙĬØ©": 6323,
      "45": 6324,
      "ĠÙĪÙĤØ¯Ùħ": 6325,
      "ĠØ§ÙĦÙĦØ§Ø¬Ø¦ÙĬÙĨ": 6326,
      "ĠØ§ÙĦØ³ÙĪØ¯Ø§Ø¡": 6327,
      "ÙģØ±ÙĬÙĤÙĬØ§": 6328,
      "ĠØ³Ø¹": 6329,
      "ĠØ§ÙĦØ£Ø·Ø±Ø§Ùģ": 6330,
      "ĠÙĬØ¹Ø§ÙĨÙĬ": 6331,
      "ĠØ¨ØŃØ±": 6332,
      "ĠØ§ÙĦØ§ÙĪØ±": 6333,
      "ĠÙħØ¤Ø´Ø±": 6334,
      "ĠÙĤØ§Ø¦ÙĦØ©": 6335,
      "Ø¸Ø§ÙĩØ±ÙĬÙĨ": 6336,
      "ĠØ£Ø¹Ø±Ø§Ø¶": 6337,
      "ĠØªØµÙģ": 6338,
      "ĠÙħØ³ØªÙħØ±": 6339,
      "Ġ500": 6340,
      "Ġ^": 6341,
      "Ø®ÙħØ©": 6342,
      "ĠØ§ÙĦØ¹Ø§Ø¦ÙĦØ©": 6343,
      "ĠØ§ÙĦØ¥Ø³Ø¨": 6344,
      "Ø§ÙĩÙĦ": 6345,
      "ĠØ§ÙĦÙħØ¹ÙĨÙĬØ©": 6346,
      "ĠØ®Ø·Ø£": 6347,
      "ĠÙĬØ±ØºØ¨": 6348,
      "Ø±ÙĪÙĬØªØ±Ø²": 6349,
      "36": 6350,
      "Ø³Ø¹": 6351,
      "ĠØªØ±Ø¬ÙħØ©": 6352,
      "ĠÙĪØ§ÙĦØ¢": 6353,
      "ĠØ³ÙĪØ¯": 6354,
      "Ø§Ø¹Ùħ": 6355,
      "ĠØ¢ÙħÙĨ": 6356,
      "ĠØŃØ±Ø§Ø±Ø©": 6357,
      "ĠÙħÙĦØ¹ÙĤØ©": 6358,
      "ØŃÙĬÙĦ": 6359,
      "ĠØªØ±ÙĬ": 6360,
      "ĠØ§ÙĦÙĪÙĥ": 6361,
      "ĠØ¨Ø±ØµÙĬØ¯": 6362,
      "Ø±Ø§Ø¡Ø§Øª": 6363,
      "ĠØ§Ø¹ØªÙħØ§Ø¯": 6364,
      "ĠØ£Ø¬ÙĨ": 6365,
      "ĠÙħÙĨÙĩÙħØ§": 6366,
      "ĠØ§ÙĦØªØŃØ¯": 6367,
      "ĠØ´Øº": 6368,
      "ĠØ§ÙĦØ«ÙĦ": 6369,
      "ĠØ³ÙĦÙĪÙĥ": 6370,
      "ÙħØ§Ø·": 6371,
      "ÙĪØ§Øµ": 6372,
      "ĠØ§ÙĦØ¹Ø´Ø±ÙĬÙĨ": 6373,
      "ord": 6374,
      "ĠÙĬØ³Ø¹Ùī": 6375,
      "ĠØ§ÙĦØµØŃÙģ": 6376,
      "ĠØ§ÙĦØ£Ø¯Ø§Ø¡": 6377,
      "ĠØ§ÙĦØ®ØµÙĪØµ": 6378,
      "ĠØ§ÙĦØŃÙĤÙĬÙĤÙĬØ©": 6379,
      "Ø§ÙĦÙģØ©": 6380,
      "ĠÙĬÙģØ¶ÙĦ": 6381,
      "ĠØ§ÙĦØªØ§Ø¨Ø¹": 6382,
      "ĠØ§ÙĦØ¬ÙĨÙĬÙĨ": 6383,
      "ÙĥÙĦÙĩ": 6384,
      "ĠØ§ÙĦÙħØ±ÙĪØ±": 6385,
      "ĠØ£Ø¯ÙĪØ§Øª": 6386,
      "ĠÙħÙĨØªØ¬Ø§Øª": 6387,
      "32": 6388,
      "iz": 6389,
      "Ø¬ÙĬØ©": 6390,
      "ĠØ¬Ø±Ø§Ø¡": 6391,
      "ĠØ´Ø±Ùģ": 6392,
      "Ø§Ø¬Ø³ØªÙĬØ±": 6393,
      "ĠØ§ÙĦÙĤÙħØ©": 6394,
      "Ø±ÙĥØ§ÙĨ": 6395,
      "Ø¨Ø±Ø§": 6396,
      "ĠÙĪØ¹Ùħ": 6397,
      "ĠÙĦÙĦÙħØ´Ø§Ø±ÙĥØ©": 6398,
      "ĠÙĪØ¥ÙĦÙī": 6399,
      "ĠEx": 6400,
      "ĠØ³ÙĬÙĨØ§Ø¡": 6401,
      "ĠØªØ®ØªÙĦÙģ": 6402,
      "ĠÙĥØ¯Ø§": 6403,
      "ĠÙĥÙħØ§ÙĦ": 6404,
      "Ø«Ùī": 6405,
      "ĠØ¬Ø¯Ø©": 6406,
      "ĠØ§ÙĦØ³ÙĬØ³ÙĬ": 6407,
      "Ø§ÙĩØªÙħØ§Ùħ": 6408,
      "ÙĥØ±Ø§Ø±": 6409,
      "ĠØ¹ÙĦØ§Ø¡": 6410,
      "ĠØ§ÙĦØ¥ÙĨØ¬ÙĦÙĬØ²ÙĬØ©": 6411,
      "2012": 6412,
      "ĠØªØ±ÙĥÙĬØ¨": 6413,
      "ĠØ§ÙĦØ£ÙĦÙħØ§ÙĨÙĬØ©": 6414,
      "ĠØ¥Ø¶Ø§ÙģÙĬØ©": 6415,
      "Ø±Ø§Ø¶": 6416,
      "ĠØ§ÙĦØ¥Ø´": 6417,
      "ĠØ§ÙĦØ¯ÙĬÙħÙĤØ±Ø§Ø·ÙĬØ©": 6418,
      "ĠÙģØ´": 6419,
      "Ø®ÙĦÙĬ": 6420,
      "ĠÙĥÙĪÙĥ": 6421,
      "ØŃÙĪÙĬÙĦ": 6422,
      "ĠØ§ÙĦÙħØ¤ÙĦÙģ": 6423,
      "ĠÙģØ¹Ø§ÙĦÙĬØ§Øª": 6424,
      "ĠØªØªÙħÙĬØ²": 6425,
      "ĠÙħØ±Ùĥ": 6426,
      "ĠÙĪØ§ÙĦØ§ØŃ": 6427,
      "Ø§ØŃØ¯Ø©": 6428,
      "ĠÙħÙĪØ§Ø¶ÙĬØ¹": 6429,
      "ĠÙħÙĪØ¶ØŃØ§": 6430,
      "ĠÙĪÙĪØ¶Ø¹": 6431,
      "ĠÙģØµ": 6432,
      "ĠØ¹ÙħØ§ÙĦ": 6433,
      "ĠØªØ´Ø±ÙĬÙĨ": 6434,
      "Ø«ÙħØ§Ø±Ø§Øª": 6435,
      "ĠØ¬ÙħØ§ÙĩÙĬØ±": 6436,
      "ĠØ§ÙĦØ¥ØŃ": 6437,
      "ĠÙħØŃØªØ§Ø¬": 6438,
      "ÙħÙĪÙħØ§": 6439,
      "ĠØ¹ÙĨØ¯ÙĩØ§": 6440,
      "ØºÙĦØ§ÙĤ": 6441,
      "Ø¸ÙĩØ±Øª": 6442,
      "own": 6443,
      "ĠØ§ÙĦÙĨÙĬØ§Ø¨Ø©": 6444,
      "ĠØ§ÙĦØ¯Ø±Ø¬Ø©": 6445,
      "Ø±Ø³Ø©": 6446,
      "ĠÙĪÙĥÙĨØª": 6447,
      "ĠÙĪØ£ÙĥØ«Ø±": 6448,
      "ĠÙĦÙħØŃ": 6449,
      "ĠÙĦØªÙĤØ¯ÙĬÙħ": 6450,
      "ĠÙĬØ¯ÙģØ¹": 6451,
      "Ġ90": 6452,
      "Ø±ÙĬØ·Ø©": 6453,
      "ĠÙĦÙĦÙħØ¯": 6454,
      "ĠØ¨Ø§ÙĦØ§Ø¶Ø§ÙģØ©": 6455,
      "Ø¦Ùĥ": 6456,
      "ÙĬØ³Ø±": 6457,
      "ĠØ§ÙĦØ±Ø£Ø³": 6458,
      "ĠØ²Ø§ÙĦ": 6459,
      "ĠØªØµØ¯Ø±": 6460,
      "ĠØ¸Ø§ÙĩØ±Ø©": 6461,
      "ĠØ¨Ø§ÙĦØªØ¹Ø§ÙĪÙĨ": 6462,
      "ĠØ§ÙĦØ¬ÙĩÙĪØ¯": 6463,
      "ĠØ¨ÙĪØ¬ÙĪØ¯": 6464,
      "ĠÙĦÙĬÙĦ": 6465,
      "Ø§Ø¯Ø±Ø§Øª": 6466,
      "ĠØ§ÙĦØ¹Ø§ÙĦÙĬØ©": 6467,
      "ÙĪÙĤØ¹Ø©": 6468,
      "Ġ70": 6469,
      "ĠÙĦÙħØ¹Ø±ÙģØ©": 6470,
      "Ø¬Ø±ÙĬ": 6471,
      "ĠÙĬØ·ÙĦÙĤ": 6472,
      "ĠØ§ÙĦØ£Ø³ÙĦØŃØ©": 6473,
      "ØªÙĬÙĪØ¨": 6474,
      "ĠØ§ÙĦÙħØ³ØªØ®Ø¯ÙħÙĬÙĨ": 6475,
      "ÙĬÙī": 6476,
      "ĠØ¨ÙĬÙĦ": 6477,
      "Ø·ÙĪÙħ": 6478,
      "ĠÙħØ¹ÙĩØ¯": 6479,
      "ĠØ§ÙĦÙħØ¹Ø±ÙģØ©": 6480,
      "ĠÙħÙĦØ§Ø¨Ø³": 6481,
      "ĠSh": 6482,
      "ĠØ¬ÙĬØ´": 6483,
      "ĠØ§ÙĦØ®ÙĪÙģ": 6484,
      "ÙĬØ³Ø§ÙĨ": 6485,
      "ÙĪÙģØ±Ø©": 6486,
      "Ø·Ø§Ø¹Ùħ": 6487,
      "rig": 6488,
      "Ø§Ø³ÙĬØ§": 6489,
      "ĠÙĪØ£Ùħ": 6490,
      "ĠØªØ¹ÙĬÙĬÙĨ": 6491,
      "ĠÙĪÙħØµ": 6492,
      "ĠØ¢Ø³ÙĬØ§": 6493,
      "ĠØªØªØ¹ÙĦÙĤ": 6494,
      "rom": 6495,
      "ÙĦØ§ÙĨ": 6496,
      "ĠØ£ÙĦØ¨": 6497,
      "ĠØ§ÙĦÙħØ·Ø§Ø±": 6498,
      "ĠØ§ÙĦÙħÙĦØ§ÙĬÙĬÙĨ": 6499,
      "ÙĬØ¯Ùī": 6500,
      "ĠØ§ÙĨØ·ÙĦØ§ÙĤ": 6501,
      "ÙħÙĪØŃ": 6502,
      "ÙĪØ¶ÙĬØŃ": 6503,
      "ĠØ§ÙĦÙĩÙĬ": 6504,
      "ĠÙĬØ¤Ø«Ø±": 6505,
      "ĠØ§ÙĦØªØ£Ø«ÙĬØ±": 6506,
      "ĠØªÙĪÙĤÙĬØ¹": 6507,
      "ĠØ¨Ø§ÙĦÙħÙĪ": 6508,
      "Ø±Ø¨ÙĪÙĦ": 6509,
      "ĠØ§ÙĦÙħØ´ØªØ±ÙĥØ©": 6510,
      "ĠØªØ±Ø¯Ø¯": 6511,
      "ĠØ§ÙĦÙĤØ±Ø§Ø±Ø§Øª": 6512,
      "ĠØ§ÙĦÙħÙħØ«ÙĦ": 6513,
      "ĠØ§ÙĦØ²Ø±Ø§Ø¹ÙĬØ©": 6514,
      "ÙĬÙĪØ±": 6515,
      "ÙģØ§ÙĦ": 6516,
      "ÙģÙĬØ±": 6517,
      "ĠØ¨Ø®ØµÙĪØµ": 6518,
      "ØŃÙĪÙĨ": 6519,
      "Ø´ÙĩØ¯": 6520,
      "ĠÙĨÙĥØª": 6521,
      "ĠØ§ÙĦÙħØ¬ÙħÙĪØ¹Ø§Øª": 6522,
      "ĠØ§ÙĦÙĥÙĩØ±Ø¨Ø§Ø¦ÙĬØ©": 6523,
      "ĠØ§ÙĦÙħØ¨Ø§Ø±ÙĬØ§Øª": 6524,
      "ÙħØ±Ø§Ø¶": 6525,
      "ĠØ§ÙĦØ¯Ø±Ø§Ø³ÙĬ": 6526,
      "ĠØ§ÙĦØ´Ø®ØµÙĬØ§Øª": 6527,
      "ĠÙħÙĬØª": 6528,
      "ĠÙĥØ§Ø¨": 6529,
      "ĠÙĥØ±ÙĬ": 6530,
      "ÙĤØ¯ÙĬØ±": 6531,
      "ĠØ§ÙĦØ®ÙħØ³": 6532,
      "ĠØ§ÙĦØ§ÙħÙĨ": 6533,
      "ĠØ§ÙĦØ§Ø®ØªØ¨Ø§Ø±": 6534,
      "ĠØ¥ÙĤÙĦÙĬÙħ": 6535,
      "ĠØ§ÙĦØŃÙħÙĦØ©": 6536,
      "ĠØ§ÙĦØ¬ÙĪØ¯Ø©": 6537,
      "ĠÙĦÙĦÙħØŃ": 6538,
      "ÙģØ¹Ø§ÙĦ": 6539,
      "ÙĪÙħØ§ÙĨØ³ÙĬØ©": 6540,
      "ĠØ®ÙĦÙĬÙģØ©": 6541,
      "ĠÙģØ§": 6542,
      "Ø§Ø±Ùħ": 6543,
      "Ø±ÙĬØ¶Ø©": 6544,
      "ĠØ§ÙĦÙħØ¯Ùī": 6545,
      "Ø§Ø·ÙĦØ§Ø¹": 6546,
      "ÙĪØ§Ùĩ": 6547,
      "ĠÙħÙĬÙĥ": 6548,
      "ÙĥØ§ÙĬØ©": 6549,
      "ĠØ§ÙĦÙĤÙĪØ§ÙĨÙĬÙĨ": 6550,
      "Ø¹Ø¯Ø©": 6551,
      "ĠØ§ÙĦØ¥ÙĬØ¬": 6552,
      "Ø³ÙĬØ·": 6553,
      "ĠØ§ÙĦØ£Ø³Ø§Ø³ÙĬ": 6554,
      "ĠØ§ÙĦÙħØ¹Ø¯Ø©": 6555,
      "31": 6556,
      "ĠÙħÙĬØ±": 6557,
      "ĠØŃØ¯Ø¯": 6558,
      "ĠØ§ÙĦÙĤÙĩÙĪØ©": 6559,
      "ĠÙĪØªÙĥ": 6560,
      "ĠÙħØ±ØªÙĬÙĨ": 6561,
      "Ġbe": 6562,
      "Ø¨Ø§Ø¹": 6563,
      "ĠØ¨Ø±ÙĬ": 6564,
      "ĠÙĩØªÙĦ": 6565,
      "ĠÙĨØ²ÙĦ": 6566,
      "ØªÙħÙĥÙĨ": 6567,
      "ĠÙĪÙĦÙĩ": 6568,
      "ØªÙĥÙĦÙħ": 6569,
      "Ġpro": 6570,
      "ĠÙĪØµØŃ": 6571,
      "Ø³ÙĬØ·Ø±": 6572,
      "ĠÙĬÙģØ¹ÙĦ": 6573,
      "ĠØ§ÙĦÙĦØºØ§Øª": 6574,
      "Ġ&": 6575,
      "Ø¨Ø§Ø¯ÙĦ": 6576,
      "ĠÙģØ§Ø¹": 6577,
      "ĠØªØ±Ø¨": 6578,
      "ĠØªØ£Ø³ÙĬØ³": 6579,
      "ĠÙĥÙĪ": 6580,
      "ÙĪÙĨØ¯": 6581,
      "ĠØ´ÙĪ": 6582,
      "ĠÙĦÙĬÙĥÙĪÙĨ": 6583,
      "ĠØŃÙĬØ§ØªÙĬ": 6584,
      "ĠØ§ÙĦØªØ·Ø¨ÙĬÙĤØ§Øª": 6585,
      "Ø§Ø¯ÙĨ": 6586,
      "ĠØ±Ø§Ø¨Ø·": 6587,
      "ĠØ§ÙĦØ®ÙĦÙĬ": 6588,
      "Ø§Ø«Ø©": 6589,
      "ĠØ§ÙĦÙĦÙĬÙĦØ©": 6590,
      "ĠÙĨÙĤÙĪÙħ": 6591,
      "ĠÙĪÙĬØ¹ØªØ¨Ø±": 6592,
      "ĠØ§ÙĦØ¥Ø¹ÙĦØ§ÙħÙĬ": 6593,
      "ÙĤØµÙī": 6594,
      "ÙĤØ³Ùħ": 6595,
      "Ø£Ùĩ": 6596,
      "ĠØ³ÙĥÙĨ": 6597,
      "ĠØ³ÙĩÙĦ": 6598,
      "ĠÙĤÙħØª": 6599,
      "ĠØ§ÙĦØ´Ø§Ø´Ø©": 6600,
      "Ø¨Ø±Øª": 6601,
      "Ø¨Ø±Ùĩ": 6602,
      "ÙĦÙĤØ¨": 6603,
      "ĠÙĪØŃØ¯Ùĩ": 6604,
      "ĠÙħØ¦Ø§Øª": 6605,
      "ÙģÙĬÙģØ©": 6606,
      "ĠÙĪØ£ÙħØ§": 6607,
      ")|": 6608,
      "Ø§ÙĬÙĬÙĨ": 6609,
      "ĠÙĬØ¶Ø¹": 6610,
      "ĠÙĤØ¨ÙĪÙĦ": 6611,
      "ĠÙĦÙĦØ§Ø³": 6612,
      "ĠØ§ÙĦØ¬ÙĬÙĦ": 6613,
      "ĠØ§ÙĦØ´ÙĪØ§Ø±Ø¹": 6614,
      "ĠØ¨ÙĤÙĬØ©": 6615,
      "ĠÙĪØ·ÙĦØ¨": 6616,
      "ĠÙĨÙĬÙĪÙĬÙĪØ±Ùĥ": 6617,
      "ĠÙĦÙħØ¯": 6618,
      "Ø´ÙĬÙĨ": 6619,
      "ĠØ§ÙĦÙħØ³ØªÙħØ±": 6620,
      "ĠØ¨Ø¥ÙħÙĥØ§ÙĨ": 6621,
      "ĠÙĤØ±Ø§Ø±Ø§Øª": 6622,
      "ĠØŃÙĬÙĨÙħØ§": 6623,
      "ĠØ§ÙĦØ·Ø±ÙģÙĬÙĨ": 6624,
      "ĠØ§ÙĦØ°ÙĥÙĬØ©": 6625,
      "ÙĪØ§Ø¬Ùĩ": 6626,
      "ĠØ¨Ø±ÙĬØ¯": 6627,
      "ØµÙĪØ±Ø©": 6628,
      "ĠØ§ÙĦÙģØ¹ÙĦ": 6629,
      "ĠØ§ÙĦØ®ÙĦØ§Ùģ": 6630,
      "ÙĥØªØ§Ø¨Ø©": 6631,
      "ÙĪØ²ÙĬØ±": 6632,
      "ĠØ®ÙĦØ§ÙĦÙĩ": 6633,
      "ĠØªØ³Ø¹Ùī": 6634,
      "amp": 6635,
      "Ø´ØŃÙĬÙĨ": 6636,
      "ĠØ§ÙĦÙĤÙĬÙħØ©": 6637,
      "ĠÙĪØªÙĤÙĪÙĦ": 6638,
      "ĠØ¨ÙĬÙĥÙĪÙĨ": 6639,
      "ĠØ£ÙĤØ±Ø¨": 6640,
      "38": 6641,
      "ĠÙħÙĨØ¸": 6642,
      "ĠØ¥ÙħØ§Ùħ": 6643,
      "ĠØ§ÙĦØ¹Ø±ÙĪØ¶": 6644,
      "ĠØ§ÙĦØ¨ÙĨØª": 6645,
      "ĠÙĬØªØ¹Ø±Ø¶": 6646,
      "erv": 6647,
      "ĠØ¨ÙħÙĨØ§Ø³Ø¨Ø©": 6648,
      "ĠØ¨ÙĬÙĤÙĪÙĦ": 6649,
      "ff": 6650,
      "Ø§ÙħØ¨": 6651,
      "Ø§ÙĤÙĦ": 6652,
      "Ø§ÙĤÙħ": 6653,
      "Ø¨Ø¯Ø§Ø¹": 6654,
      "ĠØ§ÙĦÙħØŃØ§ÙģØ¸Ø§Øª": 6655,
      "ĠØªÙĤØ§Ø±ÙĬØ±": 6656,
      "ĠÙĬÙĤÙģ": 6657,
      "ĠTrip": 6658,
      "ĠØ§ÙĦÙħØ¨Ø§Ø´Ø±": 6659,
      "ĠØ§ÙĦØ£ØŃÙĬØ§ÙĨ": 6660,
      "ĠØ§ÙĦÙħØªØ¹": 6661,
      "ĠØ¶ÙĪØ¡": 6662,
      "Ġ32": 6663,
      "ĠØ³ÙĪØ§": 6664,
      "ĠØ¬Ø³": 6665,
      "Ø¨ÙĬØ¹Ø©": 6666,
      "ĠØ§ÙĦØµØ±Ø§Ø¹": 6667,
      "ĠÙħØŃØ¯Ø¯Ø©": 6668,
      "ĠØ§ÙĦÙħØ±Ø¬": 6669,
      "ÙĬØ¯Ø±": 6670,
      "ĠØ¯Ø±Ø³": 6671,
      "ØªØ¯ÙĬØ§Øª": 6672,
      "ĠØ§ÙĦØ¯Ø§Ø®ÙĦÙĬ": 6673,
      "Ø¨Ø¹Ø©": 6674,
      "ĠØ¨ÙħØ¯": 6675,
      "ĠØ§ÙĦØ£ÙħØ§ÙĥÙĨ": 6676,
      "ĠÙĨØ§ØµØ±": 6677,
      "ĠØ¬Ø¨ÙĦ": 6678,
      "ĠØ§ÙĦØ¨Ø§ÙĦØº": 6679,
      "Ø±ÙĥÙħ": 6680,
      "Ø§ÙĩÙĬØ©": 6681,
      "ĠØ§ÙĦØªØ¬Ø§Ø±ÙĬ": 6682,
      "ØªØµØ±": 6683,
      "ĠØŃØ§Ø³": 6684,
      "ĠÙĪØ§ÙĦØªØ±": 6685,
      "ĠØ§ÙĦØŃØ³ÙĨ": 6686,
      "ĠÙĪØªÙĥÙĪÙĨ": 6687,
      "Ø±ÙģÙĬÙĩ": 6688,
      "ĠÙĬØªØ·ÙĦØ¨": 6689,
      "ĠØ§ÙĦØ§ØªØ¬Ø§Ùĩ": 6690,
      "ĠØ§ÙĦØªØ³ÙĪÙĬÙĤ": 6691,
      "ĠØ¹Ø§ÙĦÙħÙĬØ©": 6692,
      "ÙłÙł": 6693,
      "55": 6694,
      "ĠØ³ÙĥØ±": 6695,
      "ĠØ§ÙĦÙĨØ§Ø´Ø±": 6696,
      "Ø±ÙĪØ§Øª": 6697,
      "ĠØ¢Ø¨": 6698,
      "vis": 6699,
      "ØŃØ§ÙĨ": 6700,
      "Ø´Ø³ØªØ±": 6701,
      "ÙĪÙħÙī": 6702,
      "ĠØ£ÙĪØ¶ØŃ": 6703,
      "ÙĬÙģÙĩ": 6704,
      "ĠØªØŃØ¨": 6705,
      "ĠØ§Ø³ØªÙĨ": 6706,
      "Ø§ÙĥØ©": 6707,
      "Ø®ÙĦØ§Øµ": 6708,
      "ĠØ§Ø±ØªÙĥ": 6709,
      "ĠØµØŃÙģÙĬ": 6710,
      "ĠÙħØ¹Ø§ÙĬØ§": 6711,
      "ie": 6712,
      "ies": 6713,
      "ĠÙħØ§ÙĬÙĥ": 6714,
      "Ø§Ø¶ÙĦ": 6715,
      "ÙĪØ¨Ùĩ": 6716,
      "ĠÙĪØ¨Ø±ÙĥØ§ØªÙĩ": 6717,
      "ĠÙĪÙĬÙĥ": 6718,
      "ĠØ§Ø¹Ø±Ùģ": 6719,
      "ĠØ§ÙĦØ¢Ø«Ø§Ø±": 6720,
      "ĠÙħÙĦØ§ØŃØ¸Ø©": 6721,
      "ĠØ§ÙĦØ³ÙĦØ§ØŃ": 6722,
      "ĠØ£Ø±Ø³ÙĦ": 6723,
      "ÙģÙģ": 6724,
      "Ø§Ø³ÙĬÙĬÙĨ": 6725,
      "Ø§ÙħÙĦØ§Øª": 6726,
      "ĠØ§ÙĦÙĤØ±ÙĬØ©": 6727,
      "ĠØŃÙĬØ§ØªÙĥ": 6728,
      "ØªØ¨Ø·": 6729,
      "ĠÙĦØ³Ø§ÙĨ": 6730,
      "ĠØ§ÙĦØŃØ¬Ùħ": 6731,
      "Ø§Ø´Ø§Øª": 6732,
      "ĠÙĪØ§ÙĦÙħÙĩ": 6733,
      "ĠØ§ÙĦØ³Ø±Ø·Ø§ÙĨ": 6734,
      "Ad": 6735,
      "Ø´ÙĪÙģ": 6736,
      "ĠÙģÙĬØ³": 6737,
      "ĠØ§ÙĦØŃØ§ÙĦÙī": 6738,
      "ĠØºØ±ÙĬØ¨": 6739,
      "ĠØ¨ØªÙĤ": 6740,
      "ÙĪØ¶ØŃØª": 6741,
      "ĠØ·Ø¨ÙĬØ¨": 6742,
      "ĠØ§ÙĦØ¨Ø·ÙĨ": 6743,
      "ĠØ§ÙĦØ£ÙģÙĥØ§Ø±": 6744,
      "ĠØªÙħØªÙĦÙĥ": 6745,
      "ĠØ§ÙĦØªØ§Ø³Ø¹": 6746,
      "ĠÙħÙĤØ¯ÙħØ©": 6747,
      "ĠØ£Ø³ØªØ§Ø°": 6748,
      "ĠØ§ÙĦØ£ÙĦØ¨": 6749,
      "ĠØ§ÙĦØ¨ÙĬØ¹": 6750,
      "Ø§ÙĩØ¨": 6751,
      "ĠØ¥ÙĨÙĩÙħ": 6752,
      "Ø¬Ø±Ø§Ùħ": 6753,
      "ĠÙĪÙĦÙĬØ¯": 6754,
      "ĠØ§ÙĦÙħØ³ÙĦ": 6755,
      "ĠÙħÙĨØ§Ø³Ø¨": 6756,
      "Ø§Ø±ÙĬØ§": 6757,
      "ÙĪÙĦÙĬØ¯": 6758,
      "Ø«Ùħ": 6759,
      "ĠØ§ÙĦØ§Ø³ØªÙĤØ±Ø§Ø±": 6760,
      "Ø§ÙĩØ¯Ø§Ùģ": 6761,
      "ĠÙģØ±ÙĬÙĤÙĩ": 6762,
      "ĠÙĦØ´Ø±ÙĥØ©": 6763,
      "ĠØ§ÙĦÙĨÙģØ³ÙĬ": 6764,
      "ĠØ¨Ø§Ø¨Ø§": 6765,
      "ĠØ¨Ø§ØŃ": 6766,
      "Ġ.....": 6767,
      "ĠÙħØ¤Ø³Ø³Ø§Øª": 6768,
      "ass": 6769,
      "ĠÙĩØ´Ø§Ùħ": 6770,
      "ĠÙĥÙģØ±": 6771,
      "ĠØ²Ø¨": 6772,
      "Ø§ÙĦÙĬÙĪÙħ": 6773,
      "end": 6774,
      "ĠÙĪØ§ÙĦØ«ÙĤ": 6775,
      "ĠÙĦØ¯Ø±Ø¬Ø©": 6776,
      "ØŃÙĪÙĦ": 6777,
      "ĠØªØ§ÙĨÙī": 6778,
      "ĠÙĬÙĩÙħ": 6779,
      "ĠØ³Ø±ÙĬØ¹": 6780,
      "ĠØ¬ÙĨØ³": 6781,
      "ĠØµÙĦØ©": 6782,
      "ĠØ§ÙĦØµØ§ÙĦØŃ": 6783,
      "ĠØ°ÙĬ": 6784,
      "ĠÙħØªØ£": 6785,
      "ĠÙħØ¬ÙħÙĪØ¹": 6786,
      "ØµØ§Ø¨Ø§Øª": 6787,
      "Ø±ÙĪØ±ÙĬ": 6788,
      "ĠÙĪÙĤÙĪØ¹": 6789,
      "ĠØ§ÙĦØ§ÙĨÙģ": 6790,
      "!!!!": 6791,
      "ĠÙĦØ¯Ø¹Ùħ": 6792,
      "09": 6793,
      "ĠQ": 6794,
      "ĠØ¹Ø§ÙĦ": 6795,
      "Ø®Ø¨Ø§Ø±": 6796,
      "ĠØ°Ùĥ": 6797,
      "ÙħÙĪØ²": 6798,
      "ĠØ¨ÙħØ«": 6799,
      "ĠØªØµØ±Ùģ": 6800,
      "ĠÙĬØªÙħØªØ¹": 6801,
      "ĠÙĪØ§ÙĨÙħØ§": 6802,
      "ĠØµØŃÙĬØ©": 6803,
      "ĠÙĬØªÙĬØŃ": 6804,
      "ĠØ§ÙĦØ³ÙĬØ±": 6805,
      "ĠØ§ÙĦØ³Ø§Ø®": 6806,
      "ĠØ§ÙĦØŃØ³ÙĬÙĨ": 6807,
      "ÙĩØ¯Ø¯": 6808,
      "ĠØ§ÙĦØ§ÙĨØª": 6809,
      "ÙĬØ¬Ø§": 6810,
      "ĠØŃÙĦÙĤØ©": 6811,
      "ĠØªØ·Ø¨ÙĬÙĤØ§Øª": 6812,
      "Ġ]": 6813,
      "Ø§ÙģÙĬÙĩ": 6814,
      ".....": 6815,
      "Ø§ÙĩÙĨ": 6816,
      "ĠØ§ÙĬØ±Ø§ÙĨ": 6817,
      "ĠØ§ÙģØªØªØ§ØŃ": 6818,
      "ĠØ§ÙĦØ®Ø·ÙĪØ§Øª": 6819,
      "ĠØ¨Ø¬Ø§ÙħØ¹Ø©": 6820,
      "ĠØ§ÙĦÙħØ¤ÙħÙĨÙĬÙĨ": 6821,
      "ÙĪÙĩÙħ": 6822,
      "ĠÙħØ§ÙĦÙĬØ©": 6823,
      "ĠØ¹ÙĤÙĦ": 6824,
      "ĠØ§ÙĦÙĤÙĬÙħ": 6825,
      "ĠÙĦØªØµ": 6826,
      "ÙĨØ¯Ø§Øª": 6827,
      "ĠØ£ØµØ¯ÙĤ": 6828,
      "ĠØ§ÙĦØµØŃØ§ÙģØ©": 6829,
      "ĠØ£ÙħÙĨÙĬØ©": 6830,
      "ÙħØŃÙħØ¯": 6831,
      "ĠÙĦØ§Ø³": 6832,
      "ĠØ§ÙĦØŃÙħØ§Ùħ": 6833,
      "ĠØµØ¹ÙĪØ¨Ø©": 6834,
      "ÙĬÙħØ§Øª": 6835,
      "ĠÙĪØ¨Øª": 6836,
      "ĠØ¨ÙħØ³Øª": 6837,
      "ĠØ§Ø®ØªÙĦØ§Ùģ": 6838,
      "ĠÙģÙĪØ±Ø§": 6839,
      "ĠØ§ÙĦÙħÙĥÙĪÙĨØ§Øª": 6840,
      "ĠØ¥ÙĬ": 6841,
      "ĠØŃØ§ÙģØ¸": 6842,
      "ĠØ§ÙĦÙĥØ§ÙħÙĦ": 6843,
      "ÙĬØªØ¯": 6844,
      "Ø¬ÙĦØ¯": 6845,
      "ĠÙĤØ¯Ø§Ùħ": 6846,
      "ĠÙĤØ§ÙĦÙĩ": 6847,
      "ĠÙĪØ§ÙĦØªÙĤ": 6848,
      "one": 6849,
      "ĠØ§ÙĦØ£Ø³ÙĪØ¯": 6850,
      "ore": 6851,
      "ĠØ§ÙĦØ§Ø®Ø±Ùī": 6852,
      "Ġ2003": 6853,
      "ĠØ§ÙĦÙħØ³Ø¤ÙĪÙĦÙĬØ©": 6854,
      "ĠÙĦÙĦØ®Ø¨Ø±": 6855,
      "ry": 6856,
      "ĠÙħÙĨÙģ": 6857,
      "ĠØ¯Ùģ": 6858,
      "ĠØ§ÙĦØ´ÙĬØ·Ø§ÙĨ": 6859,
      "ÙħÙĦØª": 6860,
      "ĠØ§ÙĦÙĥÙĬÙħÙĬ": 6861,
      "ĠØ°ÙĪÙĬ": 6862,
      "ÙħØ§ÙĦÙĬØ©": 6863,
      "ÙĪÙĥØ³": 6864,
      "ĠÙģØªØ§Ø©": 6865,
      "ÙĥÙĬØ§Ø¬": 6866,
      "ĠØ§ÙĦØ³ÙģÙĬØ±": 6867,
      "ĠØ§ÙĦØºØ°Ø§Ø¡": 6868,
      "ĠØªØ³ÙħØŃ": 6869,
      "ĠØ§ÙĦÙĨØ§ØŃÙĬØ©": 6870,
      "ØµÙĦØ§Ø©": 6871,
      "ĠØ£Ø³ÙĩÙħ": 6872,
      "ÙĩÙĪØ±ÙĬ": 6873,
      "ĠØ¨Ø´Ø§Ø±": 6874,
      "Ø´Ø§Ø·": 6875,
      "ĠØ§ÙĦØ£ÙħÙĪØ§ÙĦ": 6876,
      "ÙĪØ³ÙĬ": 6877,
      "ÙĥØªÙĪØ±Ø©": 6878,
      "Ø·Ø±ÙĬØ©": 6879,
      "ĠØŃØ¯ÙĬØ«Ø©": 6880,
      "ÙĤØ±Ø§Ø¡Ø©": 6881,
      "ĠØ¨ÙĬØ´": 6882,
      "ĠØ§ÙĦÙħØŃØ¯": 6883,
      "Ø¹Ø¯Ø§Ø¯Ø§Øª": 6884,
      "Ø§Ø°Ø¬": 6885,
      "ĠØ§ÙħØ³": 6886,
      "ØªØµØ§Ø¨": 6887,
      "ĠÙĦÙĪØŃØ¯": 6888,
      "ĠØ£Ø±Ø§Ø¯": 6889,
      "ĠØªØ¤Ø«Ø±": 6890,
      "ĠØ«ÙĤØ§ÙģØ©": 6891,
      "99": 6892,
      "ĠÙĦÙģØ±ÙĬÙĤ": 6893,
      "ĠØµØ¹Ø¨Ø©": 6894,
      "ĠØ§ÙĦØ±Ø¹Ø§ÙĬØ©": 6895,
      "ĠØ§ÙĦØªÙĬØ§Ø±": 6896,
      "ĠØªØŃØ§ÙĪÙĦ": 6897,
      "ĠØªÙĤØ¨ÙĦ": 6898,
      "ĠÙĪÙĦÙĤØ¯": 6899,
      "ĠÙħØµØ§ÙĦØŃ": 6900,
      "ĠSp": 6901,
      "Ø±ÙĪØ³ÙĪÙģØª": 6902,
      "ĠÙĪØ§ÙĦØ§Ø¹": 6903,
      "ĠØ§ÙĦØ¹ÙĪØ§ÙħÙĦ": 6904,
      "ĠØ§ÙĦØŃØ¬Ø²": 6905,
      "ĠÙĪØªÙĤØ¯ÙĬÙħ": 6906,
      "ĠØ§ÙĦØ§ÙĨØ³": 6907,
      "ĠØ§ÙĦØ¶Ø¹": 6908,
      "ĠÙĪØ¨Ø¹Ø¯ÙĩØ§": 6909,
      "ØªÙħØªØ§Ø¹": 6910,
      "ĠØ£ÙĨÙģØ³ÙĩÙħ": 6911,
      "ĠÙĦÙĦØ¨ÙĨ": 6912,
      "Ø¨ÙĬØ§ÙĨ": 6913,
      "ĠØ§ÙĨØªÙĤ": 6914,
      "ĠØ¬Ø²Ø¡Ø§": 6915,
      "ĠÙĥØ´ÙģØª": 6916,
      "ĠØ¥Ø®Ø±Ø§Ø¬": 6917,
      "ĠØ¬Ø±ÙĬØ¯Ø©": 6918,
      "ĠØ¯ÙĤÙĬÙĤ": 6919,
      "ĠÙħØ´Ø§Ø¹Ø±": 6920,
      "Ø±ÙĤÙĬØ©": 6921,
      "ĠÙħØ¯Ø§Ø±Ø³": 6922,
      "ĠØ§ÙħØª": 6923,
      "ĠØ§ÙĦÙĦÙĬØ¨ÙĬ": 6924,
      "ĠÙĬØªÙħÙĥÙĨ": 6925,
      "ĠØ§ÙĦØ§Ø®Ø±": 6926,
      "ĠØ¥ØŃÙĨØ§": 6927,
      "ĠØ§ÙĦØ³Ø§Ø¯Ø³Ø©": 6928,
      "ĠØ£Ø³ÙĦÙĪØ¨": 6929,
      "ØµØ±Ø©": 6930,
      "ĠÙĪØ§ÙĦØ³ÙĦ": 6931,
      "ĠØµØ±ØŃ": 6932,
      "ĠØ§ÙĦØªØ¹Ø±ÙĬÙģ": 6933,
      "ĠØ£ÙģÙĥØ§Ø±": 6934,
      "Ø¨Ø§ØŃØ«": 6935,
      "ĠÙĪØ§ÙģÙĤ": 6936,
      "ĠÙħØµÙĦØŃØ©": 6937,
      "ØŃØ«": 6938,
      "ĠØªÙĩØ¯Ùģ": 6939,
      "ĠØ¹ÙĨØ§": 6940,
      "Ø¨Ø¯Ø¡": 6941,
      "ĠÙĦÙĦÙħØ³Øª": 6942,
      "ĠØ£Ø¨ÙĪØ¸Ø¨ÙĬ": 6943,
      "ĠØªØ¨ÙĬÙĨ": 6944,
      "ure": 6945,
      "Ø¬ÙĪÙĨ": 6946,
      "ĠØ¬Ø¨": 6947,
      "ÙĬÙĦÙĪÙĦ": 6948,
      "Ø§Ø²ÙĬÙĦ": 6949,
      "ÙĪØ§Ø¨Ø·": 6950,
      "ÙĬÙĬÙĬÙĬ": 6951,
      "ĠØ¯ÙĬÙĨØ§Ø±": 6952,
      "ĠÙĬÙĨØªØ¸Ø±": 6953,
      "ĠØ¥Ø²Ø§ÙĦØ©": 6954,
      "ĠØ¨ÙħØ¹ÙĨÙī": 6955,
      "ĠØ§ÙĦÙħÙĤØ¯Ø³": 6956,
      "ĠÙħÙĨØµØ¨": 6957,
      "Ø§ÙħØ±Ø©": 6958,
      "ÙĬØ±Ùī": 6959,
      "ĠØ§ÙĦØ³Ø¹Ø§Ø¯Ø©": 6960,
      "ĠØ§ÙĦØ³Ø±ÙĬØ¹": 6961,
      "ĠØ§ÙĨÙī": 6962,
      "ĠØ§ÙĦØµÙĬØ¯": 6963,
      "ĠØ²Ø§Ø¯": 6964,
      "ĠØ§ÙĦØ§ÙĨØªÙĩØ§Ø¡": 6965,
      "ÙĪÙĩØ§Øª": 6966,
      "ĠÙĦØŃÙĤÙĪÙĤ": 6967,
      "ĠØŃÙĤØ§": 6968,
      "ĠØ§ÙĦÙģÙĨØ§ÙĨÙĬÙĨ": 6969,
      "Ø§ÙĦØ®": 6970,
      "ĠØ£ÙĥÙĦ": 6971,
      "ĠØ³Ø¨Ø¹": 6972,
      "ĠÙĤÙĦÙĤ": 6973,
      "ĠÙĦÙĦØ£ÙĨ": 6974,
      "ĠØ§ÙĦÙĤÙħ": 6975,
      "ĠØ«ÙĦ": 6976,
      "ĠØ§ÙĦÙħØ³Ø§ÙģØ±ÙĬÙĨ": 6977,
      "ite": 6978,
      "ĠÙĪØ±ÙĪ": 6979,
      "ĠØ¨ÙĪØ¶Ø¹": 6980,
      "ĠØ¬ÙĪØ±Ø¬": 6981,
      "ÙĪØ¹ÙĬ": 6982,
      "ÙĬØ²Ø§ÙĨÙĬØ©": 6983,
      "ĠÙĦØªØ³": 6984,
      "ĠØ§Ø±ØªÙģØ¹": 6985,
      "Ġby": 6986,
      "ĠØ§ÙĦÙĪØŃÙĬØ¯Ø©": 6987,
      "ĠØ§ÙĦØ¥Ø¬ØªÙħØ§Ø¹": 6988,
      "nt": 6989,
      "ÙħÙĦÙĥØ©": 6990,
      "ÙĥØ§ÙģØŃØ©": 6991,
      "ĠÙģÙĬØ±Ùħ": 6992,
      "ĠÙĦÙĦØ¯Ø±": 6993,
      "ĠØ§ÙĦØŃØ´Ø±Ø§Øª": 6994,
      "ĠØ®Ø¯Ùħ": 6995,
      "ØªÙĬØ´": 6996,
      "ÙĪØ¨ÙĬÙĨ": 6997,
      "ĠØ§ÙĦÙħÙĨØ§Ø®": 6998,
      "ĠØ§ØªØµÙĦ": 6999,
      "ĠÙĪØ·Ø§ÙĦØ¨": 7000,
      "ĠØ±ØŃÙĦ": 7001,
      "ÙħØ«ÙĦ": 7002,
      "ĠÙħØ¨Øª": 7003,
      "ĠÙĨØ®": 7004,
      "ĠØ§ÙĨÙĤØ±": 7005,
      "ĠØ¨ØªÙģ": 7006,
      "ĠÙĦØªØ¹": 7007,
      "ÙģØ¶ÙĦØ©": 7008,
      "Ġmp": 7009,
      "ĠØ§ÙĦÙĤØ°Ø§ÙģÙĬ": 7010,
      "ĠØ§ÙĦØªØ²Ø§Ùħ": 7011,
      "ĠØ¯ÙĬÙĥ": 7012,
      "ĠØ§ÙĦØ´Ø±ÙĪØ·": 7013,
      "Ø¯ÙĬÙĥ": 7014,
      "ĠÙĬØªÙĨ": 7015,
      "Ġ300": 7016,
      "ĠÙĬÙĪÙħÙĬÙĨ": 7017,
      "Ø¹ÙĪØ¯Ø©": 7018,
      "ĠØ§ÙĦØªØ¯Ø®ÙĦ": 7019,
      "ĠÙħÙĬÙĦØ§Ø¯": 7020,
      "ebook": 7021,
      "ØªØ¨Ø§ÙĥØ§Øª": 7022,
      "ĠÙĦØ§Ø®": 7023,
      "ĠØ¹ÙĪØ¯": 7024,
      "ĠÙĪÙĥÙħØ§": 7025,
      "ĠØ§ÙĦÙĥØªØ§Ø¨Ø©": 7026,
      "ĠØ±Ø³ÙħÙĬØ©": 7027,
      "right": 7028,
      "ĠØ´Ø§Ø´Ø©": 7029,
      "ĠMicrosoft": 7030,
      "ĠØµÙģØŃ": 7031,
      "ĠØ§ÙĦØ®Ø§Ø±Ø¬ÙĬ": 7032,
      "ign": 7033,
      "ĠÙĪØ°ÙĥØ±Øª": 7034,
      "ĠØ¨ÙħØ«Ø§Ø¨Ø©": 7035,
      "ÙĩÙī": 7036,
      "Ø²ÙĪ": 7037,
      "ĠØªÙĤÙĦÙĬ": 7038,
      "ĠØ£Ø³Ø§Ø¨ÙĬØ¹": 7039,
      "ØŃÙĪØ§ÙĦ": 7040,
      "ĠØ¨ÙĥØ«ÙĬØ±": 7041,
      "ĠØµÙģØŃØ§Øª": 7042,
      "ĠÙĪØ§Ø³Ø¹": 7043,
      "))": 7044,
      "ĠÙħØ·ÙĦØ¹": 7045,
      "Ø§Ø¨Ø±Ø§Øª": 7046,
      "ĠØ§ÙĦØ¯Ø¨ÙĦÙĪÙħ": 7047,
      "Ġ36": 7048,
      "ĠØ§ÙĦØŃÙĬÙĪÙĬØ©": 7049,
      "ĠØ§Ø³ØªØ®Ø¯Ø§ÙħÙĩØ§": 7050,
      "ØŁØŁØŁØŁ": 7051,
      "ĠÙĪØ¢Ø®Ø±": 7052,
      "ear": 7053,
      "ust": 7054,
      "ĠÙĩÙĪÙĦ": 7055,
      "Ø±ÙĬØ§ÙĨ": 7056,
      "Ø³ØªØ§ÙĨÙĬ": 7057,
      "ĠÙħØ¯ÙĨ": 7058,
      "ĠÙħÙĪØ§Ø·ÙĨ": 7059,
      "ĠØ§ÙĦØ¢ÙĬØ©": 7060,
      "ĠØ§Ø´ÙĩØ±": 7061,
      "ĠÙħÙĬØ¯Ø§ÙĨ": 7062,
      "ÙĨØ§Ø©": 7063,
      "ĠÙģÙĬÙĥ": 7064,
      "ĠØ´ÙħØ³": 7065,
      "ĠØ§ÙĦØ±Ø´": 7066,
      "ĠØ§ÙĦØ¹Ø§ÙħÙĦØ©": 7067,
      "ith": 7068,
      "Ø§Ø¯Ø«Ø§Øª": 7069,
      "Ø±ÙĬØ§Ø¶Ø©": 7070,
      "ĠØ§ÙĦÙħØŃØªÙĪÙī": 7071,
      "ĠÙĬØ®Øµ": 7072,
      "ĠØ¨Ø§ÙĦØ§Ø³Øª": 7073,
      "ĠØ§Ø³ØªÙĤØ¨Ø§ÙĦ": 7074,
      "ĠÙĪÙĨØµÙģ": 7075,
      "ĠØ¨Ø§ÙĦÙħØ¹": 7076,
      "ĠØ§ØºØ§ÙĨÙĬ": 7077,
      "ĠØ§ÙĦØ¥ÙĬØ±Ø§ÙĨÙĬ": 7078,
      "sh": 7079,
      "vel": 7080,
      "Ø¯Ø§Ø¹": 7081,
      "ĠØ£ÙĤØ±": 7082,
      "ĠØ§ÙĦØ®Ø³": 7083,
      "Ø¯Ø§ÙĬØ§": 7084,
      "ĠØªÙĨÙħÙĬØ©": 7085,
      "ĠØ§ÙĦØ£Ø³Ø¦ÙĦØ©": 7086,
      "ĠØ§ÙĦÙģØ±ÙĬÙĤÙĬÙĨ": 7087,
      "ĠØ¹Ø±ÙģØª": 7088,
      "ĠØ§ÙĦØ£ÙħÙĦ": 7089,
      "ĠØ§ÙĦØ£ÙģØ±Ø§Ø¯": 7090,
      "ĠØ´ÙĤÙĬÙĤ": 7091,
      "ĠØ§ÙĦÙĨÙĪØ±": 7092,
      "ĠØªØ¹Ø¨Ø±": 7093,
      "ĠØ§ÙĦÙħØ³Ø§Ø¨ÙĤØ©": 7094,
      "ĠØ¹ÙĦØ§ÙĤ": 7095,
      "ĠØ§ÙĦØ¬ÙħÙĬÙĦ": 7096,
      "ĠØ§ÙĦØªØ¹Ø±Ùģ": 7097,
      "ĠØªØ£ÙĦÙĬÙģ": 7098,
      "ĠÙĦØŃÙħØ§ÙĬØ©": 7099,
      "ĠØ§ÙĤÙĦ": 7100,
      "ĠØ§ÙĦØ£ÙĨØ´Ø·Ø©": 7101,
      "ØµØª": 7102,
      "ĠÙĬÙĥØªØ¨": 7103,
      "ĠØ³Ø§": 7104,
      "ĠØ³ÙĤØ·": 7105,
      "ÙĪØ³ÙĬØ¹": 7106,
      "ĠÙĥØªØ¨Øª": 7107,
      "ĠÙĦÙĪØŃØ©": 7108,
      "ĠØ§ÙĦÙħÙĩÙĨÙĬØ©": 7109,
      "Ø¯Ø§Ø¨": 7110,
      "ĠÙģØŃ": 7111,
      "ĠØ¹Ø¸ÙĬÙħ": 7112,
      "Ø§ÙħÙĨØ©": 7113,
      "ĠØ§ÙĦØ¨ØªØ±": 7114,
      "Ø¤ÙħÙĨ": 7115,
      "ĠÙħØ³Ø¬Ø¯": 7116,
      "ĠÙĦØªÙĥÙĪÙĨ": 7117,
      "ĠØ¨Ø±Ø³": 7118,
      "ĠØ§ÙĦÙħØ¹Ø±Ø¶": 7119,
      "ĠØ§ØŃØªÙĬØ§Ø¬Ø§Øª": 7120,
      "ĠØ§ÙĦØ¢ÙĦØ§Ùģ": 7121,
      "ĠØ§ÙĦØ¬ÙħØ¹": 7122,
      "ĠÙħÙĦØŃÙĪ": 7123,
      "ĠØ§ÙĦØ®Ø·ÙĪØ·": 7124,
      "ĠØ§ÙĦÙĨÙĤØ§Ø·": 7125,
      "Ø§ÙĪØ±Ø©": 7126,
      "ÙĪØ§Ø¦Ø¯": 7127,
      "ĠÙħØ£": 7128,
      "ĠÙģÙĥÙĦ": 7129,
      "ĠØ§ÙĦØ§Ø´ØªØ±Ø§Ùĥ": 7130,
      "ĠÙĪØ³ÙĦ": 7131,
      "ĠØªØ¨ØŃØ«": 7132,
      "ĠØ¬Ø±Ùī": 7133,
      "ĠØ§ÙĦØ³ÙĦÙħ": 7134,
      "ĠÙĪÙĦÙĩØ°Ø§": 7135,
      "ĠØ§ÙĦØ´Ø®ØµÙĬ": 7136,
      "ĠÙĪØ¨Ø¹Ø¯ÙĬÙĨ": 7137,
      "ĠØ§ÙĦÙĨÙĩØ§Ø¦ÙĬ": 7138,
      "ĠØ¨Ø§ÙĦÙĤØ§ÙĩØ±Ø©": 7139,
      "ĠØ¨Ø§ÙĦØ§ÙĨØ¬ÙĦÙĬØ²ÙĬ": 7140,
      "Ø§ØªÙħ": 7141,
      "ÙĬØ±ÙĩØ§": 7142,
      "Ø±Ø¨ÙĪÙĨ": 7143,
      "Ø¯Ø±Ø¬": 7144,
      "ÙĨÙĬÙĩØ§": 7145,
      "ĠÙħØ³Ø£ÙĦØ©": 7146,
      "ĠØ§ÙĦØ£ÙĨØ¨Ø§Ø¡": 7147,
      "ĠØ§ÙĦØºØ±Ø¨Ø§Ø¡": 7148,
      "ĠØ¯Ø§Ø¹Ø´": 7149,
      "ee": 7150,
      "ĠÙ£": 7151,
      "ĠÙģØ¯": 7152,
      "ĠÙĬÙĪØ±ÙĪ": 7153,
      "ĠØ§ÙĦØ´Ø¤ÙĪÙĨ": 7154,
      "ĠÙĦÙħØª": 7155,
      "ĠÙģØ¥ÙĨÙĩØ§": 7156,
      "ĠÙĦÙĤØ¶Ø§Ø¡": 7157,
      "ĠØ¯Ø±Ø§Ø³Øª": 7158,
      "ĠØ±ØºØ¨Ø©": 7159,
      "Ã©": 7160,
      "ØŃÙī": 7161,
      "ĠÙĬØ¬ÙħØ¹": 7162,
      "ĠÙĤØ§Ø¯Ø©": 7163,
      "ĠÙĨØ¶": 7164,
      "ĠÙĨØ§Ø¯": 7165,
      "ĠÙħØªÙĥ": 7166,
      "ĠØ£ÙĦØ¹Ø§Ø¨": 7167,
      "ĠØ¥ÙĤØ§Ùħ": 7168,
      "ĠÙĦØ§ÙĤ": 7169,
      "ĠØ§ÙĦØ£ÙĪØ¶Ø§Ø¹": 7170,
      "ØºØ±ÙĤ": 7171,
      "ĠØ´ÙĥØ±": 7172,
      "Ġ2023": 7173,
      "ĠØ§ÙĦØ¬Ø²Ø§Ø¦Ø±ÙĬ": 7174,
      "2009": 7175,
      "ĠØ§ÙĦØ¨Ø±ÙĬØ·Ø§ÙĨÙĬ": 7176,
      "ĠØ¹ÙĬÙĪÙĨ": 7177,
      "ĠØªØªØ±": 7178,
      "ĠØ³Ø§Ø¹Ø¯": 7179,
      "Ø§Ø·Ø¹Ø©": 7180,
      "ĠÙĦØ§ÙĬ": 7181,
      "ĠÙħØ±Ø³ÙĬ": 7182,
      "ĠØ§Ø¨Øª": 7183,
      "ĠØ§ÙĦØ§Ø³ØªÙģØ§Ø¯Ø©": 7184,
      "ĠÙĬÙĨØ¸Ø±": 7185,
      "ĠÙĨØ¸ÙĬØ±Ùĩ": 7186,
      "Ø§Ø¶Ø©": 7187,
      "ĠØ«Ø§ÙĨ": 7188,
      "ĠØ§ÙĦØªØ®Ø·ÙĬØ·": 7189,
      "ĠØ³ÙĬØ³": 7190,
      "ĠÙħØ¹Ø§ÙĦØ¬Ø©": 7191,
      "ĠØ§ÙĦØ¯Ø§Ø®ÙĦ": 7192,
      "Ø±ÙģÙĬØ©": 7193,
      "ĠØªØ¨Ø§Ø¯ÙĦ": 7194,
      "ĠØ³ÙĩÙĦØ©": 7195,
      "ĠØ§ÙĦÙĪØ¯": 7196,
      "ØªÙĪ": 7197,
      "ĠØªØ¶Ø¹": 7198,
      "ÙĪÙĨØ¬": 7199,
      "ĠØ§ÙĬÙĨ": 7200,
      "ØªØ±ØŃ": 7201,
      "ØªØ®Ø§Ø¨Ø§Øª": 7202,
      "ĠØªØ®ÙĦÙĬ": 7203,
      "ĠÙĪØªØ¹Ø§ÙĦÙī": 7204,
      "ĠØ§Ø«ÙĨÙĬÙĨ": 7205,
      "ĠØ§ÙĦÙĩÙĨØ¯Ø³Ø©": 7206,
      "ĠØ§ÙĦØ³Ø¯": 7207,
      "Ø°Ø§Ùĥ": 7208,
      "ØŃÙħÙĪØ¯": 7209,
      "ĠÙĦØ§ÙģØªØ§": 7210,
      "Ø§ÙĦØ±": 7211,
      "ØºÙĪ": 7212,
      "ĠØ§ÙĦÙĥØ¨Ø¯": 7213,
      "ĠØ·Ø§Ø¦Ø±Ø©": 7214,
      "Ġ\".": 7215,
      "ĠØ²Ø§ÙĬØ¯": 7216,
      "ĠÙħØ´ÙĪØ§Ø±": 7217,
      "ÙĨØ¯Ùī": 7218,
      "ĠØ§ÙĦÙħØ³ØªØ®Ø¯ÙħØ©": 7219,
      "ØªÙĥØ§Ø±": 7220,
      "ach": 7221,
      "ĠØ´Ø¹Ø¨ÙĬØ©": 7222,
      "ĠØ¥ÙĬØ±": 7223,
      "ÙĪÙĦØª": 7224,
      "Ø§Ø¦Ø³": 7225,
      "ÙĦÙħÙĩ": 7226,
      "Ø¦Ùĩ": 7227,
      "ÙĪØ¬Ø¨": 7228,
      "ĠØ£ÙħÙĪØ±": 7229,
      "ØŃÙĪØ«": 7230,
      "Ø§Ø±Ø³Ø§Øª": 7231,
      "acebook": 7232,
      "ĠØ®Ø¨Ø±Ø§Ø¡": 7233,
      "ĠÙĨÙħÙĪØ°Ø¬": 7234,
      "84": 7235,
      "ĠØ¹ÙħÙĪÙħØ§": 7236,
      "Ø«ÙĦØ§": 7237,
      "ÙĦÙĬÙħØ©": 7238,
      "ĠØ§ÙĦØ¯ÙħÙĪÙĬØ©": 7239,
      "ĠØ§ÙĦØ·ÙĪÙĬÙĦ": 7240,
      "ĠÙĦÙĦØ£Ø·ÙģØ§ÙĦ": 7241,
      "ĠØ§ÙĦØ§ÙĩÙĦÙĬ": 7242,
      "ĠÙħØ³Ø¤ÙĪÙĦÙĬØ©": 7243,
      "ĠÙĦÙĦÙĪØµÙĪÙĦ": 7244,
      "ĠÙħØ³ÙĬ": 7245,
      "ÙĤØ³": 7246,
      "ĠØ¨ÙĤØ¯Ø±": 7247,
      "ĠÙģÙĨØ§ÙĨ": 7248,
      "ĠÙĩÙĪØ§": 7249,
      "ĠØ£ÙĨØ´": 7250,
      "ĠØ®Ø±": 7251,
      "ÙĪÙģÙī": 7252,
      "ĠÙĬÙĤØ§ÙĦ": 7253,
      "ĠØªØ³ÙĦÙĬÙħ": 7254,
      "ĠØ±Ø³ÙĪÙħ": 7255,
      "ÙĨØ§Øª": 7256,
      "ĠÙĪØ§Ø¯": 7257,
      "ĠÙĪØ§ÙĦØ§ÙĤØªØµ": 7258,
      "ĠØ§ÙĦØ£Ø¹Ø±Ø§Ø¶": 7259,
      "ĠÙħØ´ØªØ±Ùĥ": 7260,
      "ĠØ§ÙĦÙħØªØ·": 7261,
      "Ø±ÙĤÙħ": 7262,
      "ĠØ£ØµÙĦØ§": 7263,
      "ĠÙĪØ§ÙĦØ¹Ø§ÙĦÙħ": 7264,
      "ĠÙĥÙħÙĬØ§Øª": 7265,
      "2016": 7266,
      "ĠØªÙĩØ¯ÙĬØ¯": 7267,
      "ĠÙħÙĦØª": 7268,
      "ĠØªØ§ÙħØ±": 7269,
      "ĠÙĬÙħØ±": 7270,
      "ĠØŃÙĨ": 7271,
      "ĠØ®ÙĦØ§ÙĬØ§": 7272,
      "ĠØ§ÙĦÙĪÙĥØ§ÙĦØ©": 7273,
      ":\"": 7274,
      "ial": 7275,
      "ĠØ¹Ø§Ø¯ÙĬ": 7276,
      "Ø£ÙħÙĦ": 7277,
      "ĠÙĪØ§ÙĦÙħÙĤ": 7278,
      "ĠÙĥØªØ§Ø¨Ùĩ": 7279,
      "ĠÙĬØ³ØªØŃÙĤ": 7280,
      "ĠØ§ÙģØ±ÙĬÙĤÙĬØ§": 7281,
      "ĠÙħÙĩØ§Ø¬Ùħ": 7282,
      "ĠØ§ÙĦØ¸ÙĩØ±": 7283,
      "ĠÙĦØ³ÙĨØ©": 7284,
      "ĠØ§ÙĦØ§ÙħØ±ÙĬÙĥÙĬØ©": 7285,
      "39": 7286,
      "ĠÙģØ£ÙĨ": 7287,
      "Ø¶Ø§Ø±": 7288,
      "Ø§Ø¡Ø§Øª": 7289,
      "ÙĪÙħÙĬÙĨ": 7290,
      "Ø¸ÙĨ": 7291,
      "ĠØ¨ÙĦØ¯Ø©": 7292,
      "ĠØ¨ÙħØŃ": 7293,
      "Ø§Ø³ÙĬÙħØ§": 7294,
      "ĠÙħÙģØ§Ø¬": 7295,
      "ĠÙĦÙĦÙĨØ§Ø³": 7296,
      "ĠØ§ÙĦÙħÙĦÙĥÙĬØ©": 7297,
      "ĠØ§ÙĦØªÙĤÙĦÙĬØ¯ÙĬØ©": 7298,
      "Ø¯Ø¨": 7299,
      "ĠØ¥ØµÙĦØ§ØŃ": 7300,
      "ĠØ§ÙĦØªÙĨØ³ÙĬÙĤ": 7301,
      "ĠØ§ÙĦØ¬ØºØ±": 7302,
      "ĠØ§ÙĦØµÙĬÙĨÙĬØ©": 7303,
      "ĠØªØ¬ÙĨØ¨": 7304,
      "ĠØ§ÙĨØªØ§Ø¬": 7305,
      "ĠÙĬØ´ÙĬØ±": 7306,
      "act": 7307,
      "ĠÙĬÙħØªÙĦÙĥ": 7308,
      "ĠÙĪØ®ØµÙĪØµØ§": 7309,
      "ĠØ¨Ùī": 7310,
      "ĠØ³Ø§ÙĩÙħ": 7311,
      "ĠÙĨØ¨Ø§Øª": 7312,
      "ĠÙĨØ¹ÙħÙĦ": 7313,
      "ĠØ¨Ø§ÙĦÙħØ¯": 7314,
      "ĠØ§ÙĦØ´Ø£ÙĨ": 7315,
      "ĠØ§ÙĦØ±ÙĪÙħ": 7316,
      "ÙĬÙģÙĪÙĨ": 7317,
      "ĠØ¥ÙĨØ¬Ø§Ø²": 7318,
      "ÙĦØ¨Ø³": 7319,
      "ĠØ§ÙĦØ·Ø¨ÙĬØ¹Ø©": 7320,
      "ĠØ¨ÙĨØªÙĬØ¬Ø©": 7321,
      "ĠØªØ³ÙħÙī": 7322,
      "ld": 7323,
      "ĠØ¨Ø³Ùħ": 7324,
      "ĠÙĦÙĬØ¹": 7325,
      "Ø·ÙĬÙĨ": 7326,
      "ĠÙĥÙĦÙĬ": 7327,
      "ĠÙĤØ±ÙĬØ¨Ø©": 7328,
      "ĠØ¬ÙĬ": 7329,
      "ÙĪÙħÙĨ": 7330,
      "Ø¨Ø§Ø±Ùĥ": 7331,
      "ĠØ§ÙĦØ¨ÙĬØ¶": 7332,
      "ĠØ¹ÙĤÙĪØ¯": 7333,
      "ĠØ§ÙĦÙħØ´Ø§Ø±ÙĥÙĬÙĨ": 7334,
      "visor": 7335,
      "ain": 7336,
      "Ø³ÙģØ©": 7337,
      "ÙĪÙĦÙĬÙĨ": 7338,
      "ĠØ¨Ø§ÙĦØ±ÙĬØ§Ø¶": 7339,
      "ĠØ§ÙĦØ¥ÙĬÙħØ§ÙĨ": 7340,
      "ĠØ§ÙĪÙĦØ§": 7341,
      "ĠÙħØ¬ÙħÙĪØ¹Ø§Øª": 7342,
      "ĠØµØ¯ÙĪØ±": 7343,
      "Ø¯Ø±ÙĪÙĬØ¯": 7344,
      "Ø¹ÙĤ": 7345,
      "Ø§Ø¯ØªÙĩ": 7346,
      "ĠØ³Ø¹Ø§Ø¯": 7347,
      "ĠØ¨Ø§ÙĦÙĩ": 7348,
      "âĢ¢": 7349,
      "ĠØ§ÙĦÙĩØ¶Ùħ": 7350,
      "ĠØ¨Ø´Ø¯Ø©": 7351,
      "ĠØ§ÙĦØ¬ÙĨÙĪØ¯": 7352,
      "Ø¬ÙĪØ¡": 7353,
      "ĠØ§ÙĦØµØ¹Ø¨": 7354,
      "Ø§Ø¨ÙĤØ§Øª": 7355,
      "ÙĥØ±ÙĬØ§Øª": 7356,
      "ĠØ§ÙĦØŃØ¯Ø«": 7357,
      ".[": 7358,
      "ĠØ¨Ø°": 7359,
      "ĠÙģÙĨÙĬØ©": 7360,
      "ĠØ§ÙĦÙħÙĤØ±": 7361,
      "ĠÙĨÙĥÙĪÙĨ": 7362,
      "ĠÙĪÙħÙĤ": 7363,
      "ĠØ¹Ø§ÙħØ±": 7364,
      "ĠÙħÙĪØ¸": 7365,
      "ĠØ§ÙĦØ³ÙĦØ·Ø§ÙĨ": 7366,
      "ĠØ³ÙĦØ§ØŃ": 7367,
      "ĠØ§ÙĦØ®Ø¨Ø±Ø§Ø¡": 7368,
      "ĠØ³ØŃØ¨": 7369,
      "ĠØ§ÙĦØ®ÙĬØ§Ø±Ø§Øª": 7370,
      "ĠØ§ÙĦØªØ±Ø§Ø«": 7371,
      "ĠØ¥ÙĦØºØ§Ø¡": 7372,
      "ĠØ¨Ø§Ø³ØªÙħØ±Ø§Ø±": 7373,
      "ÙĬØ¡": 7374,
      "ĠØ¹ÙĪØ§ÙħÙĦ": 7375,
      "ĠÙĬØ±Ø¯": 7376,
      "ĠÙĪØ§ÙĦØ§Ø³": 7377,
      "Ø§Ø¬Ø¨": 7378,
      "ĠØªÙħÙĦÙĥ": 7379,
      "ĠØ§ÙĦØ§Ø±Ø¨Ø¹": 7380,
      "ĠØŃÙĪØ§ÙĦÙī": 7381,
      "ĠØ·Ø±Ø§Ø¨ÙĦØ³": 7382,
      "Ø¯ÙĤØ§Ø¡": 7383,
      "ĠØ¨Ø«ÙĦØ§Ø«": 7384,
      "ĠØ§ÙĦØ£Ø«": 7385,
      "ĠØ¯Ø©": 7386,
      "ÙĬÙĪØ®": 7387,
      "ĠØ³Ø¨Ø¹Ø©": 7388,
      "ĠØ§ÙĦØ³ÙĦØ¹": 7389,
      "ĠÙĪØ§Ø®Øª": 7390,
      "ĠØ¹ÙĦØ§ÙħØ§Øª": 7391,
      "ÙĦÙĬÙģØ²ÙĬÙĪÙĨ": 7392,
      "ĠØ§ÙĦØ§ÙĦØªØ²Ø§Ùħ": 7393,
      "ĠØ£ÙĤØ¯Ùħ": 7394,
      "ĠÙĪØ§ÙĦÙģØ±": 7395,
      "ĠÙĪØªØ·ÙĪÙĬØ±": 7396,
      "Ø§ØºØ©": 7397,
      "ĠPr": 7398,
      "ĠØ§ÙĦÙħØ®Ø¯Ø±Ø§Øª": 7399,
      "ĠØ£Ø¨Ø¯": 7400,
      "ĠØ®Ø¨Ø±Ø©": 7401,
      "ĠØ¹ÙĨØ¯ÙĩÙħ": 7402,
      "ĠØ§ÙĦÙħÙĤØ§Ø¨ÙĦ": 7403,
      "ĠØ¨ÙĤÙĬÙħØ©": 7404,
      "ĠÙĪØ´Ø¯Ø¯": 7405,
      "ĠÙĬÙĪØªÙĬÙĪØ¨": 7406,
      "ĠØ§ÙĦØ´ÙĩÙĬØ±Ø©": 7407,
      "ĠØ¨ÙĬØ±ÙĪØª": 7408,
      "ĠÙģÙĬØ±ÙħÙĪÙĨØª": 7409,
      "ÙĩÙĦØ©": 7410,
      "ĠÙĬØ³Ø±": 7411,
      "ĠØ§ÙĦØŃØ§ÙĥÙħ": 7412,
      "ĠØ§ÙĦØµÙĨØ¯ÙĪÙĤ": 7413,
      "ĠØ³ÙĬØ§ÙĤ": 7414,
      "ĠØ£Ø³Ø±Ø©": 7415,
      "ØŃØ§ÙĪÙĦØ©": 7416,
      "Ø§ÙĦÙĩØ§": 7417,
      "ÙĨÙĪØ¨": 7418,
      "ÙĩØ§Ø¡": 7419,
      "ĠØ±Ø¦Ø§Ø³Ø©": 7420,
      "ĠØ¹ÙĨØµØ±": 7421,
      "ÙĪØ¬Ø©": 7422,
      "ĠØ§ÙĦÙħØ³ØªÙĩÙĦÙĥ": 7423,
      "ĠÙĪØ²ÙĬØ§Ø¯Ø©": 7424,
      "ĠØ°ÙĥØ±Ùī": 7425,
      "ĠØ§ÙĦÙĩØ±Ùħ": 7426,
      "ĠØ¨Ø§ÙĦØ¶ØºØ·": 7427,
      "ĠÙĪÙĨÙĤÙĦ": 7428,
      "Ø¬ÙĩÙĪØ¯": 7429,
      "ĠØ®Ø·Ø§Ø¨": 7430,
      "ĠØ£Ø«Ø¨Øª": 7431,
      "ĠÙĪØ£ÙĥØ¯Øª": 7432,
      "ĠÙĪØ£Ø´Ø§Ø±Øª": 7433,
      "ĠØ¹ÙĦØ§ÙħØ©": 7434,
      "ĠØ§ÙĦÙĥØ§ÙħÙĬØ±Ø§": 7435,
      "ÙĩØ±Ø©": 7436,
      "ĠØ¨ØªÙħ": 7437,
      "ĠÙģØ§ÙĦÙħ": 7438,
      "ĠÙĦØ§ØŃØ¸": 7439,
      "ĠØ¥Ø±ÙĩØ§Ø¨": 7440,
      "ĠØ¥ÙĦÙĥØªØ±": 7441,
      "ĠØ§ÙĦØ£Ø±Ø¬": 7442,
      "ĠÙĥÙĦÙĨØ§": 7443,
      "ĠCom": 7444,
      "ĠØ§ÙĦØ´Ø¹Ø¨ÙĬ": 7445,
      "ĠØªÙĦÙĤÙī": 7446,
      "ĠØ§ÙĦØ£ÙģØ±ÙĬÙĤÙĬØ©": 7447,
      "ĠØ§ØµÙĦ": 7448,
      "Ø³Ùģ": 7449,
      "ĠØ§ÙĦØ³ÙħÙĪ": 7450,
      "ĠÙħØ¬Ø§ÙĨÙĬØ©": 7451,
      "ĠØªÙĨØ²ÙĬÙĦ": 7452,
      "ĠØ§ÙĦØ³ÙĬØ§ÙĤ": 7453,
      "ĠØ§Ø±Ø¶": 7454,
      "ĠÙĨØ³Ø§Ø¡": 7455,
      "ĠØ§ÙĦØ§Ø¹ÙħØ§ÙĦ": 7456,
      "ĠØ§ÙĦÙĬÙħÙĨÙĬ": 7457,
      "ĠØ®ÙĦÙģÙĬØ©": 7458,
      "ĠØ§ÙĦÙħØ³ÙĬØŃÙĬ": 7459,
      "ĠØ§ÙĦØªÙħØ«ÙĬÙĦ": 7460,
      "ÙĩÙĩÙĩÙĩÙĩÙĩÙĩÙĩ": 7461,
      "ele": 7462,
      "ĠØ§ÙĦØ¹Ø¸Ùħ": 7463,
      "ĠØ±Ø¹Ø§ÙĬØ©": 7464,
      "ĠØ§ÙĦØ¯Ø³Øª": 7465,
      "Ø¦ÙĬÙĨ": 7466,
      "ĠØ§ÙĦÙĩØ¬Ø±Ø©": 7467,
      "ĠÙĪØ±ÙĤØ©": 7468,
      "ĠØµØ¯ÙĤ": 7469,
      "ĠØ§ÙĦØ³ÙģØ§Ø±Ø©": 7470,
      "ĠÙħØ±ÙĪ": 7471,
      "ĠØ§ÙĦØ¹Ø§Ø¯Ø©": 7472,
      "ĠØ±Ø§Ø³": 7473,
      "ĠÙĪØ¨ÙĨØ§Ø¡": 7474,
      "ĠÙħØ¬Ø¯Ø¯Ø§": 7475,
      "ĠØªØªØ¨Ø¹": 7476,
      "ĠÙħØ¤ÙĤØª": 7477,
      "ĠØ§ÙĦÙħÙħÙĬØ²Ø©": 7478,
      "ĠÙĪØªØŃÙħÙĬÙĦ": 7479,
      "ĠØ¬ÙĪØ§Ø²": 7480,
      "ĠØ§ÙĦÙĦØŃØ¸Ø©": 7481,
      "Ġ}": 7482,
      "ĠðŁ": 7483,
      "ÙħØ§ÙĨÙĬØ©": 7484,
      "Ø³ÙĪ": 7485,
      "ĠÙģØ±ÙĬØ¯": 7486,
      "Ø¬Ø§Ùħ": 7487,
      "ĠØªÙĬ": 7488,
      "ĠØ¬ÙĬÙĦ": 7489,
      "ĠØ§ÙĦØŃÙħØ§ÙĬØ©": 7490,
      "ÙĪØ³Ø§Ø¦ÙĦ": 7491,
      "ĠÙĨÙĪØ¹ÙĬØ©": 7492,
      "ĠØ§ÙĦÙĦØ¨ÙĨØ§ÙĨÙĬ": 7493,
      "ĠØ§Ø³ØªØºÙĦØ§ÙĦ": 7494,
      "ĠØ§ÙĦØ£Ø¬ÙĨØ¨ÙĬØ©": 7495,
      "ÙĪØ§ÙģÙĤ": 7496,
      "ĠØ§ÙĦØªÙĥÙĨÙĪÙĦÙĪØ¬ÙĬØ§": 7497,
      "Ø¦Ø§Ø¨": 7498,
      "ĠÙħÙĩØ§Ø±Ø§Øª": 7499,
      "ĠØ§ÙĦØ§Ø·": 7500,
      "Ø¯ÙĪ": 7501,
      "Ø¹ÙĪØ©": 7502,
      "Ø¹ÙĪØ¨Ø§Øª": 7503,
      "ĠØªÙģØ¹ÙĬÙĦ": 7504,
      "Ø¸Ùī": 7505,
      "ĠØ§ÙĦØ´ØºÙĦ": 7506,
      "ĠØ³ÙĬØ§Ø³ÙĬ": 7507,
      "ĠØªÙĨØ´": 7508,
      "ĠØ§ÙĦÙħÙģØ§ÙĪØ¶Ø§Øª": 7509,
      "ĠØ§ÙĦØ³Ø±Ø¹Ø©": 7510,
      "ÙĬÙĨÙĩØ§": 7511,
      "Ø°Ø§ÙĨ": 7512,
      "ĠØªØ¹Ø§ÙĨÙĬ": 7513,
      "ĠÙĪÙĩÙħØ§": 7514,
      "ĠØ§ÙĦÙħØªÙĤØ¯Ùħ": 7515,
      "ĠÙĬÙĤØ¨ÙĦ": 7516,
      "ĠØ®Ø·ÙĪØ·": 7517,
      "ĠØ§ÙĦØ§Ø®ÙĬØ±Ø©": 7518,
      "ell": 7519,
      "ĠØ¨Ø®ÙĬØ±": 7520,
      "ĠÙĪØ§Ø«": 7521,
      "ĠØ§ÙĦØŃØ¶ÙĪØ±": 7522,
      "ĠØ§ÙĦØ¬ÙĪØ§ÙĦ": 7523,
      "ÙĪØªÙĪ": 7524,
      "ĠØ¨ÙħÙĪÙĤØ¹": 7525,
      "ĠÂ©": 7526,
      "ĠPro": 7527,
      "ĠØµØ¯Ø§Ùħ": 7528,
      "ĠØ§ÙĦØ¨Ø®Ø§Ø±ÙĬ": 7529,
      "ĠZ": 7530,
      "Ø§ÙĦÙħÙĪ": 7531,
      "ĠØ£Ø¹Ø¯Ø§Ø¯": 7532,
      "ĠØ£Ø¬Ø²Ø§Ø¡": 7533,
      "ĠØªØ±ØŃ": 7534,
      "ÙĬØ±ÙĪ": 7535,
      "Ø§Ø¨Ø¹Ø§": 7536,
      "Ġ01": 7537,
      "ĠBing": 7538,
      "ĠØ±ÙĪÙħØ§": 7539,
      "ĠTripAd": 7540,
      "ĠTripAdvisor": 7541,
      "ĠÙĥØ¨Ø±Ùī": 7542,
      "ĠØ±Ø¶": 7543,
      "ĠØ·Ø¨ÙĬØ©": 7544,
      "ĠÙĪØ¹Ø¨Ø¯": 7545,
      "ĠØªØ£Ø®Ø°": 7546,
      "ĠØ¨ÙĪØ§Ø¨Ø©": 7547,
      "ĠÙħÙĪØ³ÙĥÙĪ": 7548,
      "ĠØ§ÙĦØ´ÙĩÙĬØ¯": 7549,
      "ĠØ§ÙĦØ£ÙĦÙĪØ§ÙĨ": 7550,
      "Ø²Ø§ÙĦØ©": 7551,
      "ĠØ±Ø¨Ø·": 7552,
      "Ø°Ø§ÙĥØ±": 7553,
      "ÙĪØ§ÙĬØ§": 7554,
      "ĠØ§ÙĦÙĪØµÙģ": 7555,
      "ÙĨØªÙĩØ§": 7556,
      "ĠÙĦØªÙĤ": 7557,
      "ĠØ¹ÙĦÙħÙĬØ©": 7558,
      "Ġan": 7559,
      "ĠÙĬØ®Øª": 7560,
      "ĠÙħØ¹Ø³ÙĥØ±": 7561,
      "ĠØ§ÙĦÙĪØ§Ø±Ø¯Ø©": 7562,
      "ĠÙĬØ¹Ø§ÙĨÙĪÙĨ": 7563,
      "ĠÙĬØªØ±Ùĥ": 7564,
      "ĠØŃØ³ÙĨÙĬ": 7565,
      "ĠØ§ÙĦÙħÙĥØ±ÙħØ©": 7566,
      "ÙĨÙĤ": 7567,
      "ØªÙĨÙĬ": 7568,
      "ĠØ±Ø§": 7569,
      "ĠØ§ÙĦØ³Ø¹ÙĬØ¯": 7570,
      "ĠØ§ÙĦØ®Ø·Ø©": 7571,
      "ĠØ²Ø§ÙĦØª": 7572,
      "ĠØªØ¤ÙĥØ¯": 7573,
      "Ú¾": 7574,
      "ĠØ¨Ø§Ø±Ùĥ": 7575,
      "ĠØªØ¨Ø±": 7576,
      "ĠÙħÙĨÙĥÙħ": 7577,
      "ĠØ®Ø²": 7578,
      "ÙĬØ§ØªÙĩØ§": 7579,
      "ĠÙħØªØ®ØµØµ": 7580,
      "ĠÙħÙĪØ§ÙĦÙĬØ¯": 7581,
      "ĠÙĬØŃÙĬÙī": 7582,
      "ĠØ§ÙĦØ£Ø³Ø§Ø³": 7583,
      "ĠØŃÙĬØ§ØªÙĨØ§": 7584,
      "ĠØ§ÙĦØ³ÙĪØ¯Ø§ÙĨÙĬ": 7585,
      "ĠØ§ÙĦØ¥Ø±ÙĩØ§Ø¨ÙĬØ©": 7586,
      "Ø§ÙĨÙĥ": 7587,
      "ØµÙĬØ©": 7588,
      "ĠÙĬØ®ØªÙĦÙģ": 7589,
      "ĠÙĥØ§ØªØ¨": 7590,
      "ĠØ£ÙĨÙĨÙĬ": 7591,
      "ĠØ§ÙĦÙģØ¶Ø§Ø¡": 7592,
      "ĠØ§ÙĥØ¯": 7593,
      "ĠØ§ÙĦÙħØ§ÙĦÙĥÙĬ": 7594,
      "Ø§ÙĦÙĦ": 7595,
      "ĠØ¹ÙĪØ¶": 7596,
      "ÙĬÙĨÙī": 7597,
      "ĠÙĤÙĪØ§ÙĨÙĬÙĨ": 7598,
      "ĠØ§ÙĦØŃØ¨ÙĬØ¨": 7599,
      "ØªÙħØ±Ø§Øª": 7600,
      "ĠØ§ÙĦØ¯Ø®ÙĦ": 7601,
      "ØªÙĬØ§Ø·": 7602,
      "ĠØ§ÙĦÙħØ¨Ø§Ø¯Ø±Ø©": 7603,
      "ĠØ§ÙĦÙĬÙħÙĨÙĬØ©": 7604,
      "ĠØ§ÙĦØ¬Ø²Ø§Ø¦Ø±ÙĬØ©": 7605,
      "ĠØ§ÙĦÙĬØ§Ø¨Ø§ÙĨ": 7606,
      "ĠÙħÙħØª": 7607,
      "ĠØ¨Ø¬ÙħÙĬØ¹": 7608,
      "ĠØªÙĪØ±": 7609,
      "ĠØ§ÙĦÙħØ®ÙĦ": 7610,
      "ĠÙĥØ§Øª": 7611,
      "ĠÙĩØ±Ùħ": 7612,
      "ĠÙħØ¨ÙĨÙī": 7613,
      "Ø²ÙĬØ§Ø¡": 7614,
      "ĠØªÙĪØ§Ø¬Ø¯": 7615,
      "ĠØ¯ÙĪÙĦÙĬØ©": 7616,
      "ĠÙĦÙĦØ£ÙħÙħ": 7617,
      "ĠØªØ¹Ø±Ø¶Øª": 7618,
      "ĠØ§ÙĦÙĨÙĪÙĪÙĬØ©": 7619,
      "ĠØ§ÙĦØ²ÙĬØ§Ø±Ø©": 7620,
      "Ø§ÙĪÙģ": 7621,
      "ÙĦÙĩØ§": 7622,
      "ĠÙħØ±Ø¨Ø¹": 7623,
      "ÙģØ§Ø¯": 7624,
      "ĠØµØ¹ÙĬØ¯": 7625,
      "Ø¦ÙĨØ§Ùģ": 7626,
      "ĠØ°Ø§": 7627,
      "ĠØ§ÙĦÙħØªØ¸Ø§ÙĩØ±ÙĬÙĨ": 7628,
      "ĠØ§ÙĦÙĦÙĬØ¨ÙĬØ©": 7629,
      "ĠØ§ÙĤØ±Ø£": 7630,
      "ĠØ§ÙĦØ¯Ø±Ø§Ø³ÙĬØ©": 7631,
      "ĠØ§Ø¨ÙĨÙĩ": 7632,
      "ĠÙħØ±ØªØ¶Ùī": 7633,
      "ĠØ§ÙĦØ§Ø³ÙĦØ§ÙħÙĬØ©": 7634,
      "ile": 7635,
      "Ø§ÙĦÙĬÙģ": 7636,
      "Ø¨ÙĬØ§": 7637,
      "Ø¬Ø£": 7638,
      "ĠØ§ÙĦÙħÙĩØ±Ø¬Ø§ÙĨ": 7639,
      "ĠØ§ÙĦØ£Ø·Ø¹ÙħØ©": 7640,
      "ĠÙħØªØ¹": 7641,
      "ĠØ§ÙĦØªØ¹Ø§ÙĤØ¯": 7642,
      "ĠØ§ÙĦØªØµÙĪÙĬØª": 7643,
      "ĠØ§ÙĦØªØ£ÙħÙĬÙĨ": 7644,
      "ÙĪÙĨØ§ÙĬØªØ¯": 7645,
      "ĠØ§ÙĦØ´ÙĩØ§Ø¯Ø©": 7646,
      "Ø§Ø¤Ùĩ": 7647,
      "ĠØ§Ø²Ø§ÙĬ": 7648,
      "ĠØ§ÙĦÙħØ¨Ø§Ø±Ùĥ": 7649,
      "Ø¨Ø§Ùĩ": 7650,
      "ĠÙģÙĤØ±": 7651,
      "ĠÙģØŃØµ": 7652,
      "ĠØ§ÙĦÙĤØ§Ø¦Ø¯": 7653,
      "ĠØ¨ØªØª": 7654,
      "ĠØ¨ÙĨØ¸Ø§Ùħ": 7655,
      "ĠØ§Ø³Ø¨ÙĪØ¹": 7656,
      "ĠØ§ØŃØªØ±Ø§Ùħ": 7657,
      "ĠÙĦØ£ØŃØ¯": 7658,
      "ĠØ§ÙĦØªÙĤØ§Ø±ÙĬØ±": 7659,
      "ĠØ§ÙĦØªØ£ÙĥØ¯": 7660,
      "ĠØ¹ØµØ§Ùħ": 7661,
      "ÙĩØ°Ùĩ": 7662,
      "ĠÙĦØ¹ÙĦØ§Ø¬": 7663,
      "ĠØ¹Ø¬": 7664,
      "Ø§Ø±ÙĩØ§": 7665,
      "ĠØ§ÙĦÙĤØµØ±": 7666,
      "ĠØ§ÙĦÙĤÙĦÙĤ": 7667,
      "ĠØ§ÙĦØ¯ÙĪ": 7668,
      "ĠØ¹ÙħØ§Ø¯": 7669,
      "ĠØ£Ø®ÙĬØ±Ø§": 7670,
      "ĠØ±ØŃÙĦØ§Øª": 7671,
      "ĠÙĦØ²": 7672,
      "ĠÙĦÙĤÙĬ": 7673,
      "ĠØ§ÙĦØ¹Ø§Ø¯ÙĬØ©": 7674,
      "Ø§ÙģÙĦØ©": 7675,
      "ĠØ´Ø±Ø¨": 7676,
      "ĠØ¨Ø§ÙĦØ²": 7677,
      "ĠØ®Ø´": 7678,
      "ĠØ§ÙĦØ¬ÙħØ§ÙĦ": 7679,
      "ĠØ§ÙĦØ¥Ø´Ø§Ø±Ø©": 7680,
      "ĠÙĪØªØ®": 7681,
      "ÙĤÙĦÙĤ": 7682,
      "ØŃØ±ÙĬØ©": 7683,
      "ĠÙĪØ±Ø³": 7684,
      "ØµØ¯ÙĤØ§Ø¡": 7685,
      "ĠÙĨØ³Ø®": 7686,
      "ĠØ¬Ø¯ÙĬØ¯Ø§": 7687,
      "ĠØ¹ØµÙĬØ±": 7688,
      "Ø«ÙħØ±ÙĬÙĨ": 7689,
      "ĠÙĤÙĬØ¯": 7690,
      "ĠØ´Ø§Ùĩ": 7691,
      "ĠØ¹ÙħÙĦÙĩØ§": 7692,
      "ĠØ§ÙĦØ¹ÙħÙĦØ§Øª": 7693,
      "ĠØ£ÙĤÙĪÙī": 7694,
      "ĠØ§ÙĦØ«ÙĤØ§ÙģÙĬ": 7695,
      "ĠÙħØŃØªÙĪÙī": 7696,
      "ĠØ¨ØµØ±": 7697,
      "ÙĬØ±ÙĪÙĨ": 7698,
      "ĠØ§ÙĦØªØ¶": 7699,
      "ĠØ§ÙĦØ«Ø§ÙħÙĨØ©": 7700,
      "ark": 7701,
      "ĠÙĬØ´ÙĩØ¯": 7702,
      "Ø²Ø§ÙĬØ§": 7703,
      "ĠØ§ÙĦØªØºØ°ÙĬØ©": 7704,
      "ĠØ§ÙĦÙħÙĨØ§ÙģØ³Ø©": 7705,
      "Ù¡Ù": 7706,
      "ĠÙħØ§Ø¯": 7707,
      "ĠÙħØ§Ø´": 7708,
      "ĠØ£ÙħÙĪØ§ÙĦ": 7709,
      "ĠØ®ÙģØ¶": 7710,
      "ĠØ§ÙĦØ´Ø§Ùħ": 7711,
      "ĠØ§ÙĦÙģØ·Ø±": 7712,
      "Ø¦ÙĪÙĨ": 7713,
      "ĠØ¬ÙħØ¹Ø©": 7714,
      "ĠØ§ÙģØª": 7715,
      "ĠØ§ÙĦØ¬ÙĦØ³Ø©": 7716,
      "ĠØ§ÙĤØªØµØ§Ø¯": 7717,
      "ĠØ¬ÙħÙĩÙĪØ±ÙĬØ©": 7718,
      "Ø±Ùĩ": 7719,
      "ÙĥØ¨Ø±": 7720,
      "Ø§Ø¨ÙĪÙĨ": 7721,
      "ĠØ´ÙĪÙģ": 7722,
      "Ġ......": 7723,
      "ĠØ£ØŃÙĥØ§Ùħ": 7724,
      "Ø±Ø§Ø±ÙĬØ©": 7725,
      "ĠÙĪØ®ÙĦØ§ÙĦ": 7726,
      "ĠØ§ÙĦØ£Ø²ÙĩØ±": 7727,
      "Ø¹Ø¨Ø¯": 7728,
      "Ø±ÙĬØ®": 7729,
      "ĠÙĨØ±Ùī": 7730,
      "ĠØ¬ÙħÙĦØ©": 7731,
      "ĠØ§ÙĦÙĥØ¨Ø§Ø±": 7732,
      "ĠÙħØ§Ùĥ": 7733,
      "ĠØ§ÙĦÙĬÙĩØ§": 7734,
      "ĠØ§ÙĦØ¶ÙģØ©": 7735,
      "Ġ).": 7736,
      "ĠØ¯Ø§Ø¦Ùħ": 7737,
      "ĠØ§ÙĦØŃÙĦÙĪÙĦ": 7738,
      "ĠÙĨØ¸Ø±Ø©": 7739,
      "ĠÙħØŃØªÙĪÙĬØ§Øª": 7740,
      "ĠÙĬØ§Ø³Ø±": 7741,
      "Ø£ÙĪ": 7742,
      "Ø£Ùī": 7743,
      "ĠØ§ÙĦØªÙĦÙģØ²ÙĬÙĪÙĨ": 7744,
      "ÙĬÙħÙĥÙĨ": 7745,
      "ĠØ§ÙĦØ±Ø§Ø¦Ø¹Ø©": 7746,
      "ĠØºØ§ÙĬØ©": 7747,
      "ĠØ²ÙħÙĦ": 7748,
      "ĠÙĬØªØ¶ÙħÙĨ": 7749,
      "ĠÙħØ±Ø§Ø³ÙĦ": 7750,
      "ØŃÙĬØ§Ø¡": 7751,
      "ĠØ§ÙĦØ£Ø®Ø¶Ø±": 7752,
      "ĠÙħØ¯ÙĬØ±ÙĬØ©": 7753,
      "load": 7754,
      "85": 7755,
      "Ġj": 7756,
      "ÙĩØ¬": 7757,
      "ĠØ¹Ø§ÙĦÙĬ": 7758,
      "ĠØ¹ÙĬØ³Ùī": 7759,
      "ĠØªØ®ØªØ§Ø±": 7760,
      "ĠÙĤÙĦØ©": 7761,
      "ĠØ§ÙĦØ´Ø±ÙĬØ¹Ø©": 7762,
      "Ø¯ÙĬØ§ÙĨ": 7763,
      "ÙģØªØ§Ø¡": 7764,
      "ĠÙĬØªÙħÙĬØ²": 7765,
      "ĠÙĨÙĩØ§Ø¦ÙĬ": 7766,
      "ĠØ¯Ø§ÙĪØ¯": 7767,
      "ĠØ§ØªÙģØ§ÙĤÙĬØ©": 7768,
      "ĠÙħØ§ÙĨØ´Ø³ØªØ±": 7769,
      "ÙĬØŃØ©": 7770,
      "ĠÙħØ±ÙĬÙħ": 7771,
      "ĠØ§ÙĦÙħØ·Ø¨Ø®": 7772,
      "ĠÙĬØ±Ø¬Ùī": 7773,
      "ÙĦÙĬØ´": 7774,
      "ĠØ±ØµØ¯": 7775,
      "ĠØ§Ø³ØªØ§Ø¯": 7776,
      "ÙĪØ¶Ùī": 7777,
      "ĠØ§ÙĦØºØ±ÙĬØ¨": 7778,
      "ĠØªØªÙĨ": 7779,
      "ĠØ§ÙĦÙħØ¯ÙĨÙĬÙĬÙĨ": 7780,
      "Ø¨ÙĤØ§Ø¡": 7781,
      "ĠØ£ØµÙĬØ¨": 7782,
      "ĠØªÙĪØ§ØµÙĦ": 7783,
      "ĠÙĥÙĬÙĦÙĪÙħ": 7784,
      "ĠØ¨ÙħÙĦ": 7785,
      "ĠØ£ÙĪÙĨ": 7786,
      "ĠØ§ÙĦÙĤØ¯Ø±": 7787,
      "ĠØ§ÙĦØ¯ÙģØ¹": 7788,
      "ĠØ§ÙĦÙħÙĪØ§ÙĤÙģ": 7789,
      "ĠÙħÙĪØ§ÙĤÙģ": 7790,
      "ĠØªØ·ÙĦØ¨": 7791,
      "ĠØ§ÙĦÙģØ±Øµ": 7792,
      "ĠÙĪØ·Ø¨": 7793,
      "ĠØªÙĦØ¹Ø¨": 7794,
      "75": 7795,
      "ÙħÙĬØ±": 7796,
      "Ø¨ÙĪØ¨": 7797,
      "Ø§Ø³Ø§": 7798,
      "ĠØ§ÙĦØ³Ø§Ø¹Ø§Øª": 7799,
      "ĠØ§ÙĦØŃÙĦÙħ": 7800,
      "ĠØ®ÙĬ": 7801,
      "ĠØ§ÙĦÙĤÙĦÙĬÙĦØ©": 7802,
      "ØªØ±Ùī": 7803,
      "ĠØ§ÙĦØ·ÙĬØ¨": 7804,
      "ĠØ§ÙĦØ·Ø§Ø¦Ø±Ø§Øª": 7805,
      "ĠØ§ÙħØ±ÙĬÙĥØ§": 7806,
      "ĠØªØ¬Ø±Ø¨": 7807,
      "ÙģØªØ§ØŃ": 7808,
      "Ø§ÙĦØ¨ÙĬØ©": 7809,
      "ĠØ®Ø·Ø·": 7810,
      "ĠØ§ÙĦÙģØªØ§ØŃ": 7811,
      "Ġres": 7812,
      "ĠØ§ÙĦØ§Ø¦": 7813,
      "ĠÙĪØ°": 7814,
      "ĠÙĥØ³Ø±": 7815,
      "ĠØ§ÙĦØ³Ø§ØŃØ©": 7816,
      "ĠÙĪØ£ÙĪØ¶ØŃØª": 7817,
      "---": 7818,
      "ĠØªÙħÙĬØ²": 7819,
      "ĠØªØ£ÙħÙĬÙĨ": 7820,
      "ĠÙĬØ¯Ø¹Ùħ": 7821,
      "ber": 7822,
      "ĠÙĪØ³Ùħ": 7823,
      "ĠØ¨Ø§ÙĦØ¶": 7824,
      "ÙĪÙĤÙĪÙģ": 7825,
      "ĠØ§ÙĦØ±ØºØ¨Ø©": 7826,
      "ĠÙĪØ£ÙĦ": 7827,
      "ĠØ§ÙĦÙħØªÙĪ": 7828,
      "ĠØ§Ø³ØªÙħØ±": 7829,
      "ĠÙĪÙĦØ£ÙĨ": 7830,
      "Ø·ÙĦØŃ": 7831,
      "ĠØŃÙĦÙĪØ©": 7832,
      "ĠØ§ÙĦØ®Ø·Ø§Ø¨": 7833,
      "ĠØŃÙĬØ§ØªÙĩØ§": 7834,
      "ĠÙĤÙĨÙĪØ§Øª": 7835,
      "ĠÙĪØ§Ø¹ØªØ¨Ø±": 7836,
      "ĠÙħÙĥØªÙĪØ¨": 7837,
      "ĠÙģØ§Ø±ÙĪÙĤ": 7838,
      "ĠØ§ÙĦÙĨØ§ØªØ¬": 7839,
      "ØªØ§Ùħ": 7840,
      "ĠÙĦØ§Ùħ": 7841,
      "ĠÙĦØªÙħ": 7842,
      "ĠØ§ÙĦØ¥ÙĨØª": 7843,
      "ĠØ§ÙĦÙĪÙĩØ§Ø¨": 7844,
      "Ø¨ÙĦØ§Ø¯": 7845,
      "ĠÙĪØ¨Ø°ÙĦÙĥ": 7846,
      "ĠØ¨ÙħØµØ±": 7847,
      "ĠÙĦÙĦÙħØ¹": 7848,
      "ĠÙħÙĤØ§ÙĦØ§Øª": 7849,
      "ĠØ§ÙĦØªØ´Ø±ÙĬ": 7850,
      "ĠØ´Ø¹ÙĪØ±": 7851,
      "ĠØ§ÙĦØªÙħÙĪÙĬÙĦ": 7852,
      "ĠÙħØ§ÙĬÙĥØ±ÙĪØ³ÙĪÙģØª": 7853,
      "ĠØªØ§Ø¨Ø¹Ø©": 7854,
      "Ø®Ø§ÙĨ": 7855,
      "Ø²Øª": 7856,
      "ĠØ§ÙĦÙĨØ¬": 7857,
      "ĠØ§ÙĦØ¯ÙĤÙĬÙĤ": 7858,
      "ĠØ§ÙĦØ¬ÙĩØ©": 7859,
      "ĠÙħØ®Ø§Ø·Ø±": 7860,
      "ĠØ§ÙĦØ´Ø¹ÙĪØ¨": 7861,
      "ĠØ§ÙĦØ£ØºÙĨÙĬØ©": 7862,
      "ĠØ·Ø§ÙĦÙħØ§": 7863,
      "ĠØ§ÙĦØ´ØªØ§Ø¡": 7864,
      "ĠØ¨Ø®Ø·": 7865,
      "ĠÙģØ¨": 7866,
      "ĠØ¯Ø¬ÙĦØ©": 7867,
      "ĠØ§ÙĦØ³Ø§Ø¨Ø¹Ø©": 7868,
      "Ø§Ø¬Ø±ÙĬÙĨ": 7869,
      "ĠÙħØ¹Ø±ÙĥØ©": 7870,
      "ÙĥØªØ´Ø§Ùģ": 7871,
      "ĠØ§ÙĦÙĩÙĪØ§ØªÙģ": 7872,
      "ĠÙħÙĤØ§Ø·Ø¹": 7873,
      "ĠØªØµÙĨÙĬÙģ": 7874,
      "ĠÙĦÙĥÙī": 7875,
      "ĠØ¥ÙĦÙĬÙĥ": 7876,
      "ĠØ§ÙĦØ§Ø®ØªÙĬØ§Ø±": 7877,
      "Ø®ÙģÙĬÙģ": 7878,
      "ĠØ¯ÙģØ§Ø¹": 7879,
      "ĠØ§ÙĦÙĤØ¨ÙĪÙĦ": 7880,
      "ĠØ§ÙĦÙĥØªØ±": 7881,
      "Ø§ØµØ±Ø©": 7882,
      "ĠØ¨ØŃØ¨": 7883,
      "ĠØ£Ø³ÙģÙĦ": 7884,
      "ĠØ§ÙĨØªÙĤØ§ÙĦ": 7885,
      "2014": 7886,
      "................": 7887,
      "ĠØ¨ÙħÙĪØ¬Ø¨": 7888,
      "ĠØ¨Ø±Ø¶Ùĩ": 7889,
      "Ø¹ÙĤØ¯": 7890,
      "Ø§ÙĨØ§Ø©": 7891,
      "Ø·ÙĬØ¨": 7892,
      "ĠÙĨØ§Ø´": 7893,
      "ĠÙĦÙĦØ¨Ø±": 7894,
      "ĠØ¯ÙĬØ±": 7895,
      "ÙĪÙĤØ±": 7896,
      "ĠÙĪØŃØ³Ø¨": 7897,
      "ĠØªØ£ÙĥÙĬØ¯": 7898,
      "ĠØ¯ÙħØ§Øº": 7899,
      "ĠÙĪØ§ÙĦØ®Ø±ÙĪØ¬": 7900,
      "ĠØ§ÙĦØ°Ø§ØªÙĬØ©": 7901,
      ":-": 7902,
      "ian": 7903,
      "ĠØ£ØµÙĪÙĦ": 7904,
      "ĠØ³ÙĦÙħØ§ÙĨ": 7905,
      "ĠØ´ÙīØ¡": 7906,
      "ĠØ®Ø§ÙĦ": 7907,
      "ĠØ®ÙĦÙĬÙĦ": 7908,
      "ĠÙĬØªØ¬Ø§ÙĪØ²": 7909,
      "ÙĦÙĤÙĩ": 7910,
      "ĠØ®Ø·ÙĬØ±Ø©": 7911,
      "ĠØ§ÙĦØ´ÙĬØ¡": 7912,
      "ĠØ¹Ø±Ø¶Ùĩ": 7913,
      "ĠØªØŃØ¯Ø¯": 7914,
      "ĠÙĨÙģØ°": 7915,
      "ĠØ²ÙĪØ¬Ø©": 7916,
      "ĠÙĤÙĦØ¨Ùĩ": 7917,
      "ĠØ¨ÙĨÙģØ³Ùĩ": 7918,
      "ĠØ¨ÙĦØ¯Ø§ÙĨ": 7919,
      "ĠØ§ÙĦÙĪØ³Ø§Ø¦ÙĦ": 7920,
      "ĠØ§ÙĦØ®Ø±Ø·ÙĪÙħ": 7921,
      "ĠÙĪÙĥØªØ¨": 7922,
      "ĠØ¹Ø§ØµÙħØ©": 7923,
      "ĠÙĬØ´Ø§Ø±": 7924,
      "ĠØ³Ø£ÙĦ": 7925,
      "ÙĪÙĨÙĬØ§": 7926,
      "ĠÙĤØ§Ø¨": 7927,
      "Ø§Ø¹Ø¯Ùĩ": 7928,
      "ĠØ£ÙĨÙĬ": 7929,
      "ĠØ§ÙĦØ³ÙĨÙĬÙĨ": 7930,
      "ĠØ§ÙĦØ¬Ø¨": 7931,
      "ĠØ§ÙĨØ´": 7932,
      "ĠØ§ÙĦØ¯ÙĪØ§Ø¡": 7933,
      "Ø®ØµØ©": 7934,
      "ĠÙĦØ§ÙĨÙĩØ§": 7935,
      "ĠÙģØ¬Ø±": 7936,
      "ØŃÙĩØ§": 7937,
      "ĠÙħÙĨØ³": 7938,
      "ĠØ³ÙĬØ¨": 7939,
      "ĠØ§ÙĦÙĪØ§ØŃØ¯Ø©": 7940,
      "ĠØ¨ØªØ¯": 7941,
      "ĠÙĪØ²ÙĨ": 7942,
      "ĠØŃÙĦÙĪ": 7943,
      "ĠØ§ÙĦÙħÙģØ±ÙĪØ¶": 7944,
      "ĠØ±ØŃÙħØ©": 7945,
      "ĠØ§ÙĦÙĥØ±Ø§Ùħ": 7946,
      "ÙģÙĬØ³": 7947,
      "ĠØ£Ø³Ùħ": 7948,
      "ĠÙĩÙĬÙĦ": 7949,
      "ĠØ§ÙĦØ¹Ø¨Ø¯": 7950,
      "Ø±ÙģÙĬ": 7951,
      "ĠØºØ¶Ø¨": 7952,
      "Ø¯ÙĬÙĩØ§": 7953,
      "Ø¬ÙħØ§Ø¹Ø©": 7954,
      "ĠØ§ÙĦÙħØ¹ÙĦÙħÙĬÙĨ": 7955,
      "ish": 7956,
      "ĠØ§ÙĦØ£ÙĦÙħØ§ÙĨÙĬ": 7957,
      "ran": 7958,
      "ÙĤÙĦØ¨": 7959,
      "ĠÙĦÙĬØ±Ø©": 7960,
      "ĠÙĦØªØ£": 7961,
      "ĠÙĦØŃÙĦ": 7962,
      "ĠØ§ÙĤÙĪÙĦ": 7963,
      "ĠØ§ÙĦØ±Ø³ÙĪÙħ": 7964,
      "ĠØ§ÙĦØ±Ø¨ÙĬØ¹": 7965,
      "ĠØ¨ØµÙģØ©": 7966,
      "ĠØ§ÙĦÙĪØ§Ø³": 7967,
      "ĠØ£Ø¹Ø¸Ùħ": 7968,
      "ĠØªØ³ØªÙħØ±": 7969,
      "ree": 7970,
      "ĠØ§ÙĦØ¹ÙĤÙĪØ¨Ø§Øª": 7971,
      "ĠØ§ÙĦÙģÙĨØ§Ø¯ÙĤ": 7972,
      "ĠØ§ÙĦÙĪØ³Ø·Ùī": 7973,
      "ĠØ¹Ø·ÙĦØ©": 7974,
      "Ø¬Ø¹ÙĦ": 7975,
      "ØµÙĬÙĨ": 7976,
      "Ø°Ø§Ø¡": 7977,
      "ĠØ´Ø¤ÙĪÙĨ": 7978,
      "ĠØ¨Ø§ÙĦØªØŃ": 7979,
      "ĠØ§ÙĦØ´Ùģ": 7980,
      "ÙĪØ¶Ø©": 7981,
      "ĠØŃØ³Ø§Ø¨Ùĩ": 7982,
      "ĠØ§ÙĦØ±Ø¬Ø§Ø¡": 7983,
      "88": 7984,
      "ÙĪÙĬÙģ": 7985,
      "ĠÙħØ¸": 7986,
      "ØºÙĦØ¨": 7987,
      "ĠØ¯ÙĬÙģ": 7988,
      "ÙħÙĨØª": 7989,
      "ÙĦØ§ÙĬÙĨ": 7990,
      "ĠØ§ÙĦØ®ÙĬØ§Ø±": 7991,
      "ĠØ§ÙĦØ®Ø¨Ø²": 7992,
      "ĠØªØ¹Ø¨": 7993,
      "ink": 7994,
      "ĠØ§ÙĦÙħØµØ§Ø¨ÙĬÙĨ": 7995,
      "ĠØ§ÙĨØªØ¸Ø§Ø±": 7996,
      "ĠØ¨Ø§ÙĦÙħØ§Ø¡": 7997,
      "ĠØŃÙĬØ§ØªÙĩÙħ": 7998,
      "ĠØŃØ§ÙħØ¯": 7999,
      "NN": 8000,
      "ĠØªØ¨Ø¹": 8001,
      "ĠØ´Ø§ÙĬÙģ": 8002,
      "ĠØ§ÙĦØŃØ§Ø¬": 8003,
      "ÙħÙĦÙĩ": 8004,
      "ĠØ·ÙĬØ±Ø§ÙĨ": 8005,
      "Ġ--": 8006,
      "ĠÙĪÙĨØ´Ø±": 8007,
      "ĠØ§ÙĦØ¬ÙĨØ³ÙĬ": 8008,
      "Ø§Ø¨ÙĩØ©": 8009,
      "ĠØ§ÙĦÙħØ³Ø§Ø¹Ø¯Ø§Øª": 8010,
      "OS": 8011,
      "ÙĨØ²": 8012,
      "ĠÙĪØ¯Ø±": 8013,
      "ĠØ¥ÙģØ±ÙĬÙĤÙĬØ§": 8014,
      "ĠØ¬ÙĩØ¯": 8015,
      "ĠØ§ÙĦÙģÙĬØ²": 8016,
      "ÙĤØ¯Ø§Ùħ": 8017,
      "ĠÙģÙĦÙĪØ³": 8018,
      "ĠÙħØ«Ø§ÙĦ": 8019,
      "ĠØªÙĪÙģÙĬÙĤ": 8020,
      "ĠÙħØ¹Ø¯ÙĦØ§Øª": 8021,
      "az": 8022,
      "ĠØ¨Ø§Ùħ": 8023,
      "Ø§Ø±ØªÙĩØ§": 8024,
      "Ø§Ø¨Ùī": 8025,
      "ĠØ§ÙĦØ£ØŃÙĪØ§ÙĦ": 8026,
      "ĠØ·Ø¹Ø§Ùħ": 8027,
      "ĠÙĪØ£ÙĪÙĦ": 8028,
      "ĠØ§ÙĦØ°Ø§ÙĥØ±Ø©": 8029,
      "ĠÙħØ´ØªØ±ÙĥØ©": 8030,
      "ÙģØ±ÙĤØ©": 8031,
      "ĠÙĨÙģØ³Ùī": 8032,
      "ĠØ³ÙĦØ·Ø©": 8033,
      "ĠØ¹Ø¯ÙĨ": 8034,
      "ĠÙĦÙĦÙĥØ¨Ø§Ø±": 8035,
      "90": 8036,
      "Ø§ÙĪÙħ": 8037,
      "ÙĨØ§Ø¹": 8038,
      "ĠØŃØ¬Ø±": 8039,
      "ĠØ§ÙĦØ±Ø¦Ø§Ø³Ø©": 8040,
      "Ø§Ø²ÙĨØ©": 8041,
      "ĠÙħØ´ÙĬØ±Ø©": 8042,
      "ĠØ¨Ø¥Ø°ÙĨ": 8043,
      "ions": 8044,
      "ĠØ§ÙĦÙħØ«Ø§ÙĦÙĬ": 8045,
      "âĢĶâĢĶ": 8046,
      "44": 8047,
      "ĠÙĤÙĪÙħ": 8048,
      "ĠØ¬ÙĬÙħ": 8049,
      "ÙĪØ¯Ø§ÙĨ": 8050,
      "ĠÙħØ³ÙĬØ±Ø©": 8051,
      "ĠØªØ¬Ùĩ": 8052,
      "ĠØ¬ÙĨØ¨": 8053,
      "ÙĪØ¬ÙĩØ©": 8054,
      "ĠØ§ÙĦÙħØ®Ø§Ø·Ø±": 8055,
      "********": 8056,
      "ĠØªØ¨Ø¯ÙĪ": 8057,
      "ØµÙĬØ±": 8058,
      "ĠÙģÙĬØ±ÙĪØ³": 8059,
      "ĠØ§ÙĦØ³ÙĪÙĬØ¯": 8060,
      "ĠØ´ÙĬÙĥ": 8061,
      "ĠØ§ÙĦØ¨ÙĤ": 8062,
      "ĠÙħØŃÙĬØ·": 8063,
      "ÙĪØ¹Ø§": 8064,
      "Ø¬ÙĦØ§Øª": 8065,
      "ĠØ§ÙĦÙħØªØ®ØµØµØ©": 8066,
      "ĠØªÙĤØ§Ùħ": 8067,
      "ĠØ§ÙĦÙĩØ§ÙħØ©": 8068,
      "ĠØ§ÙĦÙħØ´ÙĩØ¯": 8069,
      "Ø¶Ø¹Ùģ": 8070,
      "ĠØ£Ø®ÙĬ": 8071,
      "ĠÙħØ·Ø¹Ùħ": 8072,
      "Ø®ÙģØ¶Ø©": 8073,
      "ĠÙĦÙĦÙħØ±Ø£Ø©": 8074,
      "ĠÙĦØ§ØŃÙĤØ§": 8075,
      "ĠÙĦÙĬÙģØ±Ø¨ÙĪÙĦ": 8076,
      "ÙĤØ³Ø§Ùħ": 8077,
      "ĠØ³ÙĨØª": 8078,
      "ĠØ§ÙĦØ£Ø«Ø±": 8079,
      "Ø§Ø¹ÙĨØ©": 8080,
      "ĠØ®ÙĬØ±Ø§": 8081,
      "ÙĨØ¯ÙħØ§": 8082,
      "ĠØ§ØªØ®Ø°": 8083,
      "ĠØ§ÙĦÙħØµÙĨ": 8084,
      "ĠØªØ²ÙĪØ¬": 8085,
      "ĠØ§ÙĦÙħØ¹Ø§Ø±Ø¶": 8086,
      "ĠØ§ÙĦØ§ØŃØªÙģØ§ÙĦ": 8087,
      "eg": 8088,
      "ĠÙĪÙĬÙĩ": 8089,
      "ĠØ¨ØºÙĬØ±": 8090,
      "ĠÙģÙĩØ¯": 8091,
      "Ø¬Ùī": 8092,
      "ĠØ§ÙĦØ¹Ø³ÙĦ": 8093,
      "ĠÙħØ¹Ùĥ": 8094,
      "Ø§Ø¶ØŃ": 8095,
      "ĠØ§ÙĦØ²ÙħØ§ÙĨ": 8096,
      "ĠØ¨ÙħØ´": 8097,
      "ĠÙĪØ§ÙĦØªØ´": 8098,
      "ĠØ§ÙĦØªÙĪØªØ±": 8099,
      "ĠØ§ÙĦØªØ¯Ø±ÙĬØ³": 8100,
      "ĠØ§ÙĦØ³ÙĪØ¯Ø§ÙĨÙĬØ©": 8101,
      "ĠØ£ÙĪØ±Ø§ÙĤ": 8102,
      "ĠØ§ÙĦÙħØ³Ø¦ÙĪÙĦÙĬØ©": 8103,
      "ĠØ§ÙĦØ§Ø¹Ø¯": 8104,
      "Ø±Ø¹Ø©": 8105,
      "ÙĤÙĪØ§": 8106,
      "ĠØ£Ø¶Ø§Ùģ": 8107,
      "ĠØªØ®Øª": 8108,
      "ĠÙĬØªÙĪÙĤØ¹": 8109,
      "ĠØ§ØŃÙĦÙī": 8110,
      "ĠÙĪØ§ÙĦØªØ¹": 8111,
      "ĠØ£Ø³Ø¦ÙĦØ©": 8112,
      "ĠØ§ÙĦÙħÙĦÙĥÙĬ": 8113,
      "ĠØ§ÙĦØ¹Ø¯ÙĪ": 8114,
      "ĠØ§ÙĦØºØ°Ø§Ø¦ÙĬ": 8115,
      "ĠØ§ÙĦØ¥ÙĤØ§ÙħØ©": 8116,
      "ĠØ§ÙĦØªÙĪÙĨØ³ÙĬ": 8117,
      "ĠÙĬÙĪÙĨØ³": 8118,
      "ĠØ§ÙĦØ¹Ø¸Ø§Ùħ": 8119,
      "ĠØ¬Ø³Ø¯": 8120,
      "ĠØ§ØŃØªÙħØ§ÙĦ": 8121,
      "ĠÙħØµØ±Ùī": 8122,
      "ĠØ¨Ø§ÙĦØªØ¹": 8123,
      "ĠÙģÙĤØ¯Ø§ÙĨ": 8124,
      "ĠØ§ÙĦÙģØªÙĬØ§Øª": 8125,
      "ĠØ§ÙĦØ¹Ø¯Ø§ÙĦØ©": 8126,
      "ĠÙĪØ§ÙĦØ°ÙĬÙĨ": 8127,
      "ĠØ§ÙĦØ¥Ø¬Ø§Ø¨Ø©": 8128,
      "Ø¨Øº": 8129,
      "ÙĬØ±Ø§Ø¯": 8130,
      "Ø°Ø§Ø¹Ø©": 8131,
      "ĠØ§ÙĦØªØ¹Ø¯": 8132,
      "ĠØ³Ø§Ø¨ÙĤØ©": 8133,
      "ĠØ¹ÙĨÙĥ": 8134,
      "ĠØ§ÙĦÙĨÙħ": 8135,
      "ĠØ«ÙħÙĨ": 8136,
      "ĠØ«ÙĤØ©": 8137,
      "ĠÙħØ¬Ø§ÙĨÙĬ": 8138,
      "ĠÙĪØ¹Ø±Ø¶": 8139,
      "ĠÙĪØ§ØŃØ¯Ùĩ": 8140,
      "ĠØ§ÙĦØ§Ø³ÙĥÙĨØ¯Ø±ÙĬØ©": 8141,
      "ĠÙĬØ´ÙħÙĦ": 8142,
      "ÙĪØŃÙĬØ¯": 8143,
      "ĠÙĩØ¯ÙģØ§": 8144,
      "ĠØ¹Ø§ÙĬØ´": 8145,
      "ĠØ§ØŃØ¯Ø«": 8146,
      "Ø²Ø±Ø§Ø¹Ø©": 8147,
      "Ġwww": 8148,
      "ĠØ§ÙĦØµÙĪÙħ": 8149,
      "ĠØ§ÙĦÙħÙĪØµÙĦ": 8150,
      "ĠØ§ÙħØªØ¯": 8151,
      "ĠÙĪØ²ÙĪØ¬": 8152,
      "ĠÙĦÙĦØ¹Ø§Ùħ": 8153,
      "ĠØ§ÙĦØ¥ÙĬØ±Ø§ÙĨÙĬØ©": 8154,
      "ĠÙħÙĨØªØ¯ÙĬØ§Øª": 8155,
      "ĠØ§ÙĦØ³ÙĪØ¨Ø±": 8156,
      "ĠØ§ÙĦÙĨØµÙģ": 8157,
      "ĠØ§ÙĦÙģÙĤÙĩ": 8158,
      "ÙĪØ¯ÙĩØ§": 8159,
      "ĠÙĦÙħÙĪÙĤØ¹": 8160,
      "ĠØ§ÙĦØ§Ø³ØªØ§Ø°": 8161,
      "ĠÙĬØ³ÙĪØ¹": 8162,
      "ĠÙĪØ§ÙĦØ¥ÙĨ": 8163,
      "ĠØ§ÙĦØ±Ø¤ÙĬØ©": 8164,
      "ĠÙĬØ³ØªÙħØ±": 8165,
      "ĠÙģØ±ÙĤØ©": 8166,
      "Ġ05": 8167,
      "ĠØ§ÙĦØ§Ø¹ØªÙħØ§Ø¯": 8168,
      "ĠÙĬÙħØ§Ø±Ø³": 8169,
      "Ġcom": 8170,
      "ĠEn": 8171,
      "ĠÙħØ§ÙĦÙĬ": 8172,
      "ĠØªØ´Ø§Ø±Ùĥ": 8173,
      "ĠØ§ÙĦØŃØ§Ø¬Ø§Øª": 8174,
      "ÙĬØ§ØªÙĬ": 8175,
      "ĠØ¨ÙĬÙĪØª": 8176,
      "ĠØ±Ø¦ÙĬØ³Ø§": 8177,
      "ĠÙģÙĦÙħØ§": 8178,
      "ĠÙĦÙħÙĨØ¹": 8179,
      "af": 8180,
      "pl": 8181,
      "per": 8182,
      "ØªÙĥÙħ": 8183,
      "ĠØ§ÙĦÙħØ£": 8184,
      "Ø³ØªÙħØ±": 8185,
      "ĠØ§ÙĨØªÙĬ": 8186,
      "Ø±ÙĪØ§ØŃ": 8187,
      "ĠØºØ¯": 8188,
      "ĠÙħØ±Ø³Ùī": 8189,
      "ĠØ¨ÙħØ¬Ø±Ø¯": 8190,
      "Ø±ØŃÙħÙĨ": 8191,
      "Ø¨Ø·Ø§ÙĦ": 8192,
      "ĠØ§ÙĦØ§ÙĤØªØ±": 8193,
      "ĠØ³ÙħØ¹Øª": 8194,
      "ĠØ§ÙĦØ£Ø¯ÙĪØ§Øª": 8195,
      "ĠØ§ÙĦØ³ÙĪØ±ÙĬÙĬÙĨ": 8196,
      "ĠØ¨Ø§ØªØ¬Ø§Ùĩ": 8197,
      "ĠÙĩØ±": 8198,
      "ĠØ¯Ø¨ÙĦÙĪÙħ": 8199,
      "ĠØµØ¨ØŃ": 8200,
      "Ø¨ÙĬØ§Ø¡": 8201,
      "Ø§ÙĩØ©": 8202,
      "Ø¹ØªÙĤØ¯": 8203,
      "ĠØ§ÙĦØµØŃØ±Ø§Ø¡": 8204,
      "ĠØ§ÙĦØªÙĪØµÙĦ": 8205,
      "ĠÙĪØºÙĬØ±ÙĩÙħ": 8206,
      "ĠØ§ÙĦØ¹Ø¶ÙĪ": 8207,
      "ĠØ§ÙĦØ¹Ø¶ÙĦØ§Øª": 8208,
      "ĠØ§ÙĦØªØ§Ø³Ø¹Ø©": 8209,
[...]
